{
  "version": "1.0",
  "truncation": null,
  "padding": null,
  "added_tokens": [
    {
      "id": 0,
      "content": "[END]",
      "single_word": false,
      "lstrip": false,
      "rstrip": false,
      "normalized": false,
      "special": true
    },
    {
      "id": 1,
      "content": "[PAD]",
      "single_word": false,
      "lstrip": false,
      "rstrip": false,
      "normalized": false,
      "special": true
    },
    {
      "id": 2,
      "content": "[UNK]",
      "single_word": false,
      "lstrip": false,
      "rstrip": false,
      "normalized": false,
      "special": true
    },
    {
      "id": 3,
      "content": "[CLS]",
      "single_word": false,
      "lstrip": false,
      "rstrip": false,
      "normalized": false,
      "special": true
    },
    {
      "id": 4,
      "content": "[SEP]",
      "single_word": false,
      "lstrip": false,
      "rstrip": false,
      "normalized": false,
      "special": true
    },
    {
      "id": 5,
      "content": "[MASK]",
      "single_word": false,
      "lstrip": false,
      "rstrip": false,
      "normalized": false,
      "special": true
    },
    {
      "id": 6,
      "content": "<space>",
      "single_word": false,
      "lstrip": false,
      "rstrip": false,
      "normalized": false,
      "special": true
    }
  ],
  "normalizer": null,
  "pre_tokenizer": {
    "type": "ByteLevel",
    "add_prefix_space": true,
    "trim_offsets": true,
    "use_regex": true
  },
  "post_processor": {
    "type": "TemplateProcessing",
    "single": [
      {
        "SpecialToken": {
          "id": "[CLS]",
          "type_id": 0
        }
      },
      {
        "Sequence": {
          "id": "A",
          "type_id": 0
        }
      },
      {
        "SpecialToken": {
          "id": "[SEP]",
          "type_id": 0
        }
      }
    ],
    "pair": [
      {
        "SpecialToken": {
          "id": "[CLS]",
          "type_id": 0
        }
      },
      {
        "Sequence": {
          "id": "A",
          "type_id": 0
        }
      },
      {
        "SpecialToken": {
          "id": "[SEP]",
          "type_id": 0
        }
      },
      {
        "Sequence": {
          "id": "B",
          "type_id": 1
        }
      },
      {
        "SpecialToken": {
          "id": "[SEP]",
          "type_id": 1
        }
      }
    ],
    "special_tokens": {
      "[CLS]": {
        "id": "[CLS]",
        "ids": [
          3
        ],
        "tokens": [
          "[CLS]"
        ]
      },
      "[SEP]": {
        "id": "[SEP]",
        "ids": [
          4
        ],
        "tokens": [
          "[SEP]"
        ]
      }
    }
  },
  "decoder": {
    "type": "ByteLevel",
    "add_prefix_space": true,
    "trim_offsets": true,
    "use_regex": true
  },
  "model": {
    "type": "BPE",
    "dropout": null,
    "unk_token": null,
    "continuing_subword_prefix": null,
    "end_of_word_suffix": null,
    "fuse_unk": false,
    "byte_fallback": false,
    "ignore_merges": false,
    "vocab": {
      "[END]": 0,
      "[PAD]": 1,
      "[UNK]": 2,
      "[CLS]": 3,
      "[SEP]": 4,
      "[MASK]": 5,
      "<space>": 6,
      "!": 7,
      "\"": 8,
      "#": 9,
      "$": 10,
      "%": 11,
      "&": 12,
      "'": 13,
      "(": 14,
      ")": 15,
      "*": 16,
      "+": 17,
      ",": 18,
      "-": 19,
      ".": 20,
      "/": 21,
      "0": 22,
      "1": 23,
      "2": 24,
      "3": 25,
      "4": 26,
      "5": 27,
      "6": 28,
      "7": 29,
      "8": 30,
      "9": 31,
      ":": 32,
      ";": 33,
      "<": 34,
      "=": 35,
      ">": 36,
      "?": 37,
      "@": 38,
      "A": 39,
      "B": 40,
      "C": 41,
      "D": 42,
      "E": 43,
      "F": 44,
      "G": 45,
      "H": 46,
      "I": 47,
      "J": 48,
      "K": 49,
      "L": 50,
      "M": 51,
      "N": 52,
      "O": 53,
      "P": 54,
      "Q": 55,
      "R": 56,
      "S": 57,
      "T": 58,
      "U": 59,
      "V": 60,
      "W": 61,
      "X": 62,
      "Y": 63,
      "Z": 64,
      "[": 65,
      "\\": 66,
      "]": 67,
      "^": 68,
      "_": 69,
      "`": 70,
      "a": 71,
      "b": 72,
      "c": 73,
      "d": 74,
      "e": 75,
      "f": 76,
      "g": 77,
      "h": 78,
      "i": 79,
      "j": 80,
      "k": 81,
      "l": 82,
      "m": 83,
      "n": 84,
      "o": 85,
      "p": 86,
      "q": 87,
      "r": 88,
      "s": 89,
      "t": 90,
      "u": 91,
      "v": 92,
      "w": 93,
      "x": 94,
      "y": 95,
      "z": 96,
      "{": 97,
      "|": 98,
      "}": 99,
      "~": 100,
      "¡": 101,
      "¢": 102,
      "£": 103,
      "¤": 104,
      "¥": 105,
      "¦": 106,
      "§": 107,
      "¨": 108,
      "©": 109,
      "ª": 110,
      "«": 111,
      "¬": 112,
      "®": 113,
      "¯": 114,
      "°": 115,
      "±": 116,
      "²": 117,
      "³": 118,
      "´": 119,
      "µ": 120,
      "¶": 121,
      "·": 122,
      "¸": 123,
      "¹": 124,
      "º": 125,
      "»": 126,
      "¼": 127,
      "½": 128,
      "¾": 129,
      "¿": 130,
      "Â": 131,
      "Ã": 132,
      "Ê": 133,
      "Ë": 134,
      "Ì": 135,
      "Î": 136,
      "Ï": 137,
      "Ð": 138,
      "Ñ": 139,
      "â": 140,
      "ã": 141,
      "ä": 142,
      "å": 143,
      "æ": 144,
      "ç": 145,
      "è": 146,
      "é": 147,
      "î": 148,
      "ï": 149,
      "ð": 150,
      "ĉ": 151,
      "Ċ": 152,
      "č": 153,
      "Ġ": 154,
      "Ģ": 155,
      "ģ": 156,
      "Ĥ": 157,
      "ĥ": 158,
      "Ħ": 159,
      "ħ": 160,
      "Ĩ": 161,
      "ĩ": 162,
      "Ī": 163,
      "ī": 164,
      "Ĭ": 165,
      "ĭ": 166,
      "Į": 167,
      "į": 168,
      "İ": 169,
      "ı": 170,
      "Ĳ": 171,
      "ĳ": 172,
      "Ĵ": 173,
      "ĵ": 174,
      "Ķ": 175,
      "ķ": 176,
      "ĸ": 177,
      "Ĺ": 178,
      "ĺ": 179,
      "Ļ": 180,
      "ļ": 181,
      "Ľ": 182,
      "ľ": 183,
      "Ŀ": 184,
      "ŀ": 185,
      "Ł": 186,
      "ł": 187,
      "Ń": 188,
      "ĠÐ": 189,
      "Ð¾": 190,
      "Ð°": 191,
      "Ðµ": 192,
      "ÑĤ": 193,
      "Ð¸": 194,
      "Ñģ": 195,
      "Ð¾Ð": 196,
      "Ð½": 197,
      "ÑĢ": 198,
      "Ð»": 199,
      "Ñĥ": 200,
      "Ð°Ð": 201,
      "Ñı": 202,
      "ÑĮ": 203,
      "ÐµÐ": 204,
      "Ñĭ": 205,
      "ĠÐ¿": 206,
      "ĠÑģ": 207,
      "ĠÐ½": 208,
      "Ðº": 209,
      "ĠÐ²": 210,
      "Ñĩ": 211,
      "Ð²": 212,
      "Ð´": 213,
      "ĠÐ¾": 214,
      "ĠÐ¸": 215,
      "ÑģÑĤ": 216,
      "Ð°Ð»": 217,
      "Ð¼": 218,
      "ÐµÐ½": 219,
      "ĠÐº": 220,
      "ĠÐ¼": 221,
      "Ñħ": 222,
      "ĠÑĤ": 223,
      "ÑĪ": 224,
      "Ð¾Ð²": 225,
      "ĠÐ´": 226,
      "Ð¾Ð»": 227,
      "ÑĤÐ¾": 228,
      "ÐµÑĢ": 229,
      "ĠĊ": 230,
      "ÑĤÑĮ": 231,
      "ÐµÐ»": 232,
      "ĠÐ±": 233,
      "Ñİ": 234,
      "Ð¾Ð¼": 235,
      "ĠÐ¿ÑĢ": 236,
      "Ð½Ð¾": 237,
      "Ð¿": 238,
      "Ð¸Ð»": 239,
      "³Ð¾": 240,
      "ĠÑĩ": 241,
      "ÐµÑĤ": 242,
      "ĠÑĢ": 243,
      "âĢ": 244,
      "Ð°Ðº": 245,
      "ĠÐ½Ð°": 246,
      "Ð·": 247,
      "ĠÐ·": 248,
      "Ð¾Ð´": 249,
      "Ð¾Ð¹": 250,
      "ĠÑĥ": 251,
      "Ð±": 252,
      "ÑģÑı": 253,
      "Ð°Ð½": 254,
      "ĠÐ½Ðµ": 255,
      "ÐµÐ¼": 256,
      "ĠÐµ": 257,
      "ĠâĢ": 258,
      "Ð¶": 259,
      "Ñī": 260,
      "Ð°Ð·": 261,
      "Ð°Ð¼": 262,
      "Ð¾ÑĤ": 263,
      "ÑģÑĮ": 264,
      "Ð½Ð°": 265,
      "ÑĨ": 266,
      "Ð³": 267,
      "Ð½Ñĭ": 268,
      "Ð¹": 269,
      "Ð¾Ð½": 270,
      "Ð¾ÑĢ": 271,
      "Ð°Ð²": 272,
      "Ð»Ð¸": 273,
      "ĠÑ": 274,
      "Ð°ÑĤÑĮ": 275,
      "Ð½Ñĥ": 276,
      "ĠâĢĶ": 277,
      "Ð½Ð¸": 278,
      "ÐµÐ´": 279,
      "ĠÐ¿Ð¾": 280,
      "ĠÐ³": 281,
      "ĠÑı": 282,
      "Ð¾Ð³": 283,
      "ÐºÐ¸": 284,
      "Ð°ÑĤ": 285,
      "ĠÐ±Ñĭ": 286,
      "ĠÐ»": 287,
      "ÑĢÑĥ": 288,
      "ĠÑį": 289,
      "Ð¸ÑĤ": 290,
      "Ð¾Ð±": 291,
      "Ð¸Ð²": 292,
      "ÐµÐ¹": 293,
      "ĠÑĩÑĤÐ¾": 294,
      "Ð°Ñģ": 295,
      "ÐµÐ½Ð¸": 296,
      "ĠÐ¾ÑĤ": 297,
      "Ð¾Ð¶": 298,
      "Ð°Ð´": 299,
      "Ð¸Ð¼": 300,
      "Ð¾Ð»ÑĮ": 301,
      "Ð°Ð»Ð°": 302,
      "Ð¾Ñģ": 303,
      "Ð¾Ð³Ð¾": 304,
      "Ð»Ð°": 305,
      "ĠÑģÑĤ": 306,
      "Ð¾Ðº": 307,
      "ÐºÐ°": 308,
      "Ð°ÑĢ": 309,
      "ĠÐĿ": 310,
      "ĠÐ¶": 311,
      "Ñĳ": 312,
      "ĠÐĴ": 313,
      "ÑģÑĤÐ²": 314,
      "Ð¸Ð½": 315,
      "ĠÐ²Ñģ": 316,
      "ĠÐŁ": 317,
      "Ð´Ð°": 318,
      "ĠÐ°": 319,
      "ĠÐ²Ñĭ": 320,
      "ÐµÑģ": 321,
      "ĠÐ¡": 322,
      "ĠÐŀ": 323,
      "ÐµÐ²": 324,
      "ÐµÐº": 325,
      "ĠÐ¾Ð±": 326,
      "ĠÐºÐ°Ðº": 327,
      "Ð°Ñı": 328,
      "ÐºÑĥ": 329,
      "Ð¾Ð·": 330,
      "Ð»Ñı": 331,
      "ĠÐ¿ÑĢÐ¸": 332,
      "ĠÑģÐ²": 333,
      "Ð°Ð»Ð¸": 334,
      "Ð¾ÑģÑĤ": 335,
      "Ð¾Ñĩ": 336,
      "ÑĤÐ¾ÑĢ": 337,
      "ĠÐ¿Ð¾Ð´": 338,
      "ÐµÐ±": 339,
      "Ð³Ð¾": 340,
      "ÐºÐ¾": 341,
      "Ð°Ð¶": 342,
      "Ð¸ÑĤÑĮ": 343,
      "Ð»Ð¾": 344,
      "ĠÑĢÐ°Ð·": 345,
      "Ð½Ðµ": 346,
      "ĠÑħ": 347,
      "ÐµÐ·": 348,
      "ĠÐľ": 349,
      "Ġ-": 350,
      "ĠÐļ": 351,
      "ĠÑĤÐ°Ðº": 352,
      "ĠÐ¸Ð·": 353,
      "Ð¾Ð¿": 354,
      "ÐµÐ³Ð¾": 355,
      "ÑĢÐ°": 356,
      "Ð¸Ð»Ð°": 357,
      "Ð¸Ð´": 358,
      "ĠÐ¯": 359,
      "Ð¸Ðº": 360,
      "ĠÐ¢": 361,
      "Ð°Ð½Ð¸": 362,
      "Ð°Ð»ÑĮ": 363,
      "ÐµÐ»ÑĮ": 364,
      "ĠÐ·Ð°": 365,
      "Ð°Ð±": 366,
      "ĠÐĶ": 367,
      "ÑĥÐ´": 368,
      "ÑĤÐ¸": 369,
      "ĠÐĲ": 370,
      "ĠÑįÑĤÐ¾": 371,
      "ÑĪÐ¸": 372,
      "ÐµÑģÑĤ": 373,
      "Ð½Ð¾Ð¹": 374,
      "ĠÑģÐ¿": 375,
      "ĠÐĺ": 376,
      "ÑĭÐ²": 377,
      "Ð°Ð¼Ð¸": 378,
      "ÐµÐ½Ñı": 379,
      "ÐµÑĩ": 380,
      "ĠÐ¿Ð¾Ð»": 381,
      "Ð°Ð¿": 382,
      "ĠÐµÐ³Ð¾": 383,
      "ÑĢÐ¸": 384,
      "ĠÑģÐ»": 385,
      "ÑģÐº": 386,
      "ĠâĢĵ": 387,
      "ÑīÐµ": 388,
      "ÐµÐ¿": 389,
      "Ð¼Ð¸": 390,
      "ĠÐ¾Ð½": 391,
      "ÐµÑĪ": 392,
      "ĠÐ¿ÐµÑĢ": 393,
      "ĠÐ¾Ð½Ð°": 394,
      "ÐµÐ½ÑĮ": 395,
      "ĠÑģÐº": 396,
      "ÐµÐ¶": 397,
      "ÑĢÐ¾Ð²": 398,
      "ĠÑģÐ²Ð¾": 399,
      "ĠÐ¼ÐµÐ½Ñı": 400,
      "Ð»ÐµÐ½": 401,
      "ÑĨÐ¸": 402,
      "ÑĦ": 403,
      "ĠÐ²ÑģÐµ": 404,
      "ÑĥÑĤ": 405,
      "Ð½Ð¾Ð³Ð¾": 406,
      "Ð¾Ð»ÑĮÐºÐ¾": 407,
      "ÑĥÑĩ": 408,
      "Ð¸Ñħ": 409,
      "âĢ¦": 410,
      "Ð¸Ñĩ": 411,
      "Ð¾Ð³Ð´Ð°": 412,
      "Ð°Ñİ": 413,
      "ÑģÑĤÑĮ": 414,
      "Ð¶Ðµ": 415,
      "ĠÐºÐ¾": 416,
      "Ð½ÑĭÐ¹": 417,
      "Ð°Ð¹": 418,
      "ĠÐ½Ð¾": 419,
      "ĠÐµÐµ": 420,
      "ÑģÐ»": 421,
      "ÐµÐ³": 422,
      "Ð¸Ð»Ð¸": 423,
      "ĠÑįÑĤ": 424,
      "Ð½ÑĭÐµ": 425,
      "ÐµÐ½Ð¸Ñı": 426,
      "ÑĥÐ¼": 427,
      "Ð¸Ð·": 428,
      "ĠÐ¾Ð´": 429,
      "ĠÐ´Ð²": 430,
      "ÑĢÑĥÐ³": 431,
      "ÑĪÐµ": 432,
      "Ð°Ð³": 433,
      "ĠÐ¼Ð¾": 434,
      "ĠÐ±ÑĭÐ»Ð¾": 435,
      "ÑĭÐ¹": 436,
      "ĠÐ¿ÑĢÐ¾": 437,
      "ÑĥÐ¶": 438,
      "ÑĥÑİ": 439,
      "ĠÑĪ": 440,
      "ĠÐ¼Ð½Ðµ": 441,
      "ÑħÐ¾Ð´": 442,
      "ĠÑĢÑĥ": 443,
      "Ð°ÐµÑĤ": 444,
      "Ð°Ð»Ð¾": 445,
      "ĠÐ¼Ñĭ": 446,
      "Ð½Ñı": 447,
      "Ð½ÑĭÑħ": 448,
      "ÐµÐ½Ð¸Ðµ": 449,
      "Ð½ÑĥÐ»": 450,
      "ÑıÑĤ": 451,
      "ÑģÑĤÑĢ": 452,
      "Ð¾Ð¼Ñĥ": 453,
      "ÑĭÐµ": 454,
      "Ð¸Ñģ": 455,
      "ÑĢÐ°Ð²": 456,
      "ĠÐºÐ¾ÑĤÐ¾ÑĢ": 457,
      "ĠÑĢÐ°Ñģ": 458,
      "ĠÐ¶Ðµ": 459,
      "ĠÐ»Ð¸": 460,
      "ĠÐºÐ¾Ð½": 461,
      "ĠÑģÐ¼": 462,
      "ÐµÐ½Ð½Ð¾": 463,
      "ĠÐ¿Ð¾ÑĤ": 464,
      "ĠÑĦ": 465,
      "Ġ\"": 466,
      "ĠÑĤÑĭ": 467,
      "Ð¸Ðµ": 468,
      "ĠÑģÐ°Ð¼": 469,
      "ÑĢÑĭ": 470,
      "ĠÐ³Ð»": 471,
      "Ð°Ð»ÑģÑı": 472,
      "ÑĢÐµÐ¼": 473,
      "ÐµÐ»Ð°": 474,
      "ÑģÐ¿": 475,
      "ÑģÑĤÐ°Ð²": 476,
      "ÑĥÐ¿": 477,
      "ĠÑĥÐ¶Ðµ": 478,
      "ÑģÑĤÐ¸": 479,
      "Ð¾ÑĪ": 480,
      "ĠÐ±ÑĥÐ´": 481,
      "ĠÐ³Ð¾": 482,
      "ĠÐ²Ð·": 483,
      "Ð´Ðµ": 484,
      "ÐµÐ±Ñı": 485,
      "ĠÑĤÐ¾": 486,
      "ĠÐ³Ð¾Ð»": 487,
      "ĠÐ²Ð¾Ð·": 488,
      "ÑĭÑħ": 489,
      "Ð½ÑĭÐ¼": 490,
      "Ð½Ð°Ñı": 491,
      "Ð¾Ðµ": 492,
      "ĠÐ½Ð°Ñĩ": 493,
      "ÑĢÐ¾Ñģ": 494,
      "ĠÐ¿ÑĢÐµÐ´": 495,
      "ĠÐ±Ð¾Ð»ÑĮ": 496,
      "ĠÐĳ": 497,
      "ÑĥÐ±": 498,
      "Ð½ÑĥÐ»Ð°": 499,
      "Ð½Ð¾Ðµ": 500,
      "Ð½Ð¾Ð²": 501,
      "ĠÐĽ": 502,
      "ÐºÐ¾Ð¹": 503,
      "ĠÑĩÐ»ÐµÐ½": 504,
      "Ð¸Ð»ÑģÑı": 505,
      "ĠÐŃ": 506,
      "ÐµÐ»Ð¸": 507,
      "ĠÐ¿Ð¾Ðº": 508,
      "Ð°ÑĤÑĮÑģÑı": 509,
      "Ð»Ñİ": 510,
      "ĠÑĤÐ¾Ð»ÑĮÐºÐ¾": 511,
      "ĠÐ»Ñİ": 512,
      "Ð°Ñħ": 513,
      "ÐµÐ½ÑĤ": 514,
      "ĠÐ¾Ð¿": 515,
      "ĠÐķ": 516,
      "ĠÐºÑĢ": 517,
      "ÑģÐ»Ð¸": 518,
      "ÑĥÑĪ": 519,
      "ÑĢÑı": 520,
      "Ð¾Ð±Ñĭ": 521,
      "ĠÐ¿Ð¾Ð¿": 522,
      "ÑīÐ¸": 523,
      "ĠÐł": 524,
      "ĠÐ±ÑĭÐ»": 525,
      "Ð´Ñĥ": 526,
      "ĠÐ´ÑĢÑĥÐ³": 527,
      "ĠÐĿÐ¾": 528,
      "ĠÐ§": 529,
      "Ð¸ÑĢ": 530,
      "ĠÐ¾Ñĩ": 531,
      "ĠÑĨ": 532,
      "ĠÐ¼Ð¾Ð¶": 533,
      "ĠÑģÐºÐ°Ð·": 534,
      "ĠÐ¿Ð»": 535,
      "ĠÐĹ": 536,
      "ÐµÑĢÑĮ": 537,
      "ÐµÐ¼Ñĥ": 538,
      "ĠÐ´Ð»Ñı": 539,
      "ĠÐµÑīÐµ": 540,
      "ÐµÐ±Ðµ": 541,
      "ÐºÐµ": 542,
      "ĠÐ¿Ð¾Ð½": 543,
      "ĠÑģÐ¾": 544,
      "ĠÐ¸Ð¼": 545,
      "Ð²ÐµÑĢ": 546,
      "ĠÐºÐ¾Ð¼": 547,
      "ĠÐ¸Ð½": 548,
      "Ð¾Ð²Ð¾ÑĢ": 549,
      "ĠÑĥÐ´": 550,
      "ĠÐ¸Ñħ": 551,
      "Ð¸ÑĤÐµÐ»ÑĮ": 552,
      "ĠÐµÑĳ": 553,
      "ĠÐ²ÑĢÐµÐ¼": 554,
      "ĠÂ": 555,
      "ĠÐĵ": 556,
      "Â»": 557,
      "ÐµÐµ": 558,
      "ĠÂ«": 559,
      "ĠÐ²Ð¾": 560,
      "Ð¸Ð»Ð¾": 561,
      "Ð½ÑĥÑİ": 562,
      "ĠÐ´Ð¾": 563,
      "ÐµÑĪÑĮ": 564,
      "Ð°Ð»Ð°ÑģÑĮ": 565,
      "ĠÐ½Ð°Ð´": 566,
      "ÐµÑħ": 567,
      "ÑĢÐ°Ð·": 568,
      "ĠÐºÐ¾Ð³Ð´Ð°": 569,
      "ĠÐ´ÐµÐ»": 570,
      "ÑĥÑĢ": 571,
      "ĠÐ²Ð¸Ð´": 572,
      "ÑĢÐ°Ð½": 573,
      "Ñį": 574,
      "ĠÐ¼Ð¾Ð³": 575,
      "Ð°ÑĪ": 576,
      "ÑıÑĤÑĮ": 577,
      "Ð¸Ð»ÑĮ": 578,
      "Ð¸Ð³": 579,
      "ĠÐ¿ÑĢÐ¾ÑģÑĤ": 580,
      "ĠÐ£": 581,
      "ĠÑĩÑĤ": 582,
      "Ð¸Ñı": 583,
      "Ð½Ð¾ÑģÑĤÑĮ": 584,
      "Ð¸Ð½Ñĥ": 585,
      "Ð¾ÑĤÑĢ": 586,
      "ĠÐ¾Ð½Ð¸": 587,
      "Ð°Ð¶Ðµ": 588,
      "Ð¾Ð»Ð¶": 589,
      "ĠÐ¿Ð¾ÑģÐ»": 590,
      "ĠÐŀÐ½Ð°": 591,
      "Ð¾Ñı": 592,
      "Ð°Ð½Ð¸Ñı": 593,
      "Ð²ÐµÑĤ": 594,
      "Ð°ÑģÑĤ": 595,
      "Ð»ÑĮ": 596,
      "Ð¼Ñĥ": 597,
      "ÐµÐ»Ð¾Ð²": 598,
      "Ð´ÐµÐ»": 599,
      "Ð´Ð¸": 600,
      "ĠÐ¾Ðº": 601,
      "ĠÑĤÑĢ": 602,
      "ĠÑĩÑĤÐ¾Ð±Ñĭ": 603,
      "ÑĤÐµÑĢ": 604,
      "Ð½Ð¸Ðº": 605,
      "Ð¸Ð»Ð°ÑģÑĮ": 606,
      "Ð°Ð±Ð¾ÑĤ": 607,
      "ĠÐ¿Ð¾Ñĩ": 608,
      "ĠÐŀÐ½": 609,
      "ÑĭÑĤ": 610,
      "ĠÐ¾ÑģÑĤ": 611,
      "Ð¸ÑģÑĤ": 612,
      "Ð½Ð¸Ð¼": 613,
      "ĠÐ½Ð°Ð¿": 614,
      "Ð°Ð½Ð¸Ðµ": 615,
      "ĠÐ±ÑĭÐ»Ð°": 616,
      "Ð°Ð»Ð¸ÑģÑĮ": 617,
      "ÑĭÐ¼": 618,
      "ĠÐ¼Ð°Ð¼": 619,
      "ĠÐ·Ð°Ðº": 620,
      "ĠÐ¾Ñģ": 621,
      "ĠÐ¿Ð¾Ð²": 622,
      "ÐµÑĤÑģÑı": 623,
      "ÑıÐ»": 624,
      "ÑĢÐ°ÑĤ": 625,
      "ĠÐ³Ð¾Ð»Ð¾Ð²": 626,
      "Ð°Ð»Ð¾ÑģÑĮ": 627,
      "ÐµÑĤÑĮ": 628,
      "Ð¾Ð¶Ðµ": 629,
      "ÐµÑĨ": 630,
      "ĠÐ´ÐµÐ²": 631,
      "ĠÑģÐ¾Ð±": 632,
      "ĠÐ´Ð°Ð¶Ðµ": 633,
      "Ð¸Ð¸": 634,
      "ÑĥÐ²": 635,
      "Ð½Ð¾Ð¼": 636,
      "ĠÐ·Ð°Ð´": 637,
      "ÑĥÑģÑĤ": 638,
      "ĠÐ·Ð½Ð°": 639,
      "Ð°ÑĨÐ¸": 640,
      "ÑĮÑİ": 641,
      "ĠÐ¾ÑĩÐµÐ½ÑĮ": 642,
      "ĠÐ¿Ð¾Ð¼": 643,
      "ĠÐ³ÑĢÑĥ": 644,
      "ÑĤÑĥ": 645,
      "ĠÐ½Ð°Ñģ": 646,
      "ÑĤÑĢ": 647,
      "ÑĩÐ¸": 648,
      "ĠÑģÐ¾Ð²": 649,
      "Ġ1": 650,
      "ÐµÑģÐºÐ¸": 651,
      "ÐºÐ¾Ð¼": 652,
      "ÑĨÐ°": 653,
      "ÑĢÐ¾Ð´": 654,
      "ÐµÐ»Ð¾": 655,
      "ĠÐ·Ð°Ð¼": 656,
      "ÑĭÑĪ": 657,
      "ĠÑģÐµÐ±Ñı": 658,
      "ĠÐ½Ð¸Ðº": 659,
      "ÑĥÐ²ÑģÑĤÐ²": 660,
      "Ð½Ð¾ÑģÑĤÐ¸": 661,
      "ÐµÑĢÐ¶": 662,
      "ĠÐ¿Ð¾ÑĢ": 663,
      "ÑĪÑĮ": 664,
      "ĠÑħÐ¾ÑĤ": 665,
      "ĠÐºÐ¾ÑĢ": 666,
      "ĠÐ±ÐµÐ·": 667,
      "ÑģÐ¼": 668,
      "Ð°ÑĤÐµÐ»ÑĮ": 669,
      "Ð¸Ð¼Ð¸": 670,
      "ÑĢÐµÐ´": 671,
      "..": 672,
      "ĠÐ¶ÐµÐ½": 673,
      "ĠÐ»ÑİÐ±": 674,
      "ĠÐ¸Ð»Ð¸": 675,
      "Ð³ÑĢ": 676,
      "ÑĤÐ°": 677,
      "ĠÐ±ÑĭÐ»Ð¸": 678,
      "ĠÐ½Ð¸": 679,
      "ĠÐ½Ð¾Ð³": 680,
      "ĠÑĩÐµÑĢ": 681,
      "ĠÐµÑģÐ»Ð¸": 682,
      "ÑĩÐ°Ñģ": 683,
      "ĠÐ³Ð»Ð°Ð·": 684,
      "ĠÐºÐ¾Ð»": 685,
      "Ð°Ð¶Ð´": 686,
      "ĠÑĤÑĢÑĥ": 687,
      "ÑģÐºÐ¸": 688,
      "Ð°Ñĩ": 689,
      "ĠÐĿÐµ": 690,
      "ĠÐ²ÐµÑĢ": 691,
      "ĠÐµÐ¹": 692,
      "ĠÑĩÐµÐ¼": 693,
      "ĠÑģÑĤÐ¾": 694,
      "Ð°ÑİÑĤ": 695,
      "ĠÐ¥": 696,
      "ĠÑĥÐ²": 697,
      "ÑĤÐ¾Ð²": 698,
      "Ð³Ð»Ñı": 699,
      "ĠÐ²ÑĢÐµÐ¼Ñı": 700,
      "ĠÐ¿ÑĢÐ¾Ð´": 701,
      "ĠÐŃÑĤÐ¾": 702,
      "ÑĢÑĥÐ¶": 703,
      "ÑĤÐµ": 704,
      "ĠÐ±Ð¾Ð»": 705,
      "ÐµÐ¹ÑĩÐ°Ñģ": 706,
      "ĠÐ¿Ð¾Ð·": 707,
      "ĠÐ¾ÑĤÐº": 708,
      "ĠÐ·Ð°Ð¿": 709,
      "ÑģÑĤÑĢÐ¾": 710,
      "ÑģÑĤÐ²Ð¾": 711,
      "ĠÐ±ÑĥÐ´ÐµÑĤ": 712,
      "Ð¸ÑĤÑĮÑģÑı": 713,
      "ÐµÐ¿ÐµÑĢÑĮ": 714,
      "Ð°Ð½Ð¾Ð²": 715,
      "Ð¸Ð»Ð¸ÑģÑĮ": 716,
      "Ð½ÑĭÐ¼Ð¸": 717,
      "ÑĥÑħ": 718,
      "ÑĪÐ¸ÑģÑĮ": 719,
      "ÑģÑĤÐ²ÐµÐ½": 720,
      "Ġ(": 721,
      "ĠÐ¿ÑĢÐ¾ÑģÑĤÐ¾": 722,
      "ÑĩÐ¸ÑĤ": 723,
      "Ð²Ð°ÑĤ": 724,
      "ÐµÑĢÐ¸": 725,
      "ĠÑĢÐµÑĪ": 726,
      "ĠÐ´Ð¾ÑģÑĤ": 727,
      "ÐºÐ¾Ð²": 728,
      "ĠÐ¸ÑģÐ¿": 729,
      "ĠÐ²Ð¿": 730,
      "ĠÑĤÐµÐ¼": 731,
      "Ð¸Ð»Ð¾ÑģÑĮ": 732,
      "ĠÐ½Ð°ÑĪ": 733,
      "ĠÐ¿Ð°ÑĢ": 734,
      "ĠÑĤÐµÐ±Ñı": 735,
      "ĠÑĢÐ°Ð±Ð¾ÑĤ": 736,
      "ĠÐĶÐ°": 737,
      "ÑıÐ´": 738,
      "ÐµÑģÑı": 739,
      "Ð»ÐµÐº": 740,
      "ÑĬ": 741,
      "ĠÑĩÐµÐ»Ð¾Ð²": 742,
      "ÐµÑĢÐ²": 743,
      "Ð°ÐµÑĤÑģÑı": 744,
      "ĠÑįÑĤÐ¾Ð³Ð¾": 745,
      "ÑĥÑī": 746,
      "ÑģÐµ": 747,
      "ĠÐĿÐ°": 748,
      "ĠÑģÐ´ÐµÐ»": 749,
      "ĠÐ³Ð¾Ð²Ð¾ÑĢ": 750,
      "ĠÐ¿ÐµÑĢÐµÐ´": 751,
      "ÑĢÑĭÐ²": 752,
      "Ð¸Ð½Ð°": 753,
      "ÑıÐ²": 754,
      "ÐºÐ°Ð¼Ð¸": 755,
      "ĠÐŁÑĢ": 756,
      "Ð½ÑĥÐ»ÑģÑı": 757,
      "ĠÐ±Ð¾Ð»ÑĮÑĪÐµ": 758,
      "ĠÐ¿ÐµÑĢÐ²": 759,
      "ĠÐļÐ°Ðº": 760,
      "Ð»Ð¸Ð²": 761,
      "ĠÑĥÐ¿": 762,
      "ĠÐ²ÑģÑĳ": 763,
      "ĠÐ»ÐµÑĤ": 764,
      "ĠÐ¿ÑĢÐ°Ð²": 765,
      "ĠÐµÐ¼Ñĥ": 766,
      "ĠÐ¿Ð¾ÑģÑĤ": 767,
      "Ð¸Ð¶": 768,
      "Ð¸ÑĤÑģÑı": 769,
      "ĠÐ½ÐµÐ¼": 770,
      "ÑıÐ»Ð°": 771,
      "Ð½ÐµÐ¹": 772,
      "ĠÑģÐµÐº": 773,
      "Ð¾Ð»ÑĮÐ·": 774,
      "Ð½ÐµÐµ": 775,
      "Ð»Ð°Ð´": 776,
      "ĠÑģÐµÐ±Ðµ": 777,
      "ÑģÑĤÐ²Ð°": 778,
      "ĠÐ¿Ð¾ÑĤÐ¾Ð¼": 779,
      "Ð»Ñĭ": 780,
      "Ð°ÑİÑī": 781,
      "ĠÑģÐ¾Ñģ": 782,
      "ÑĤÑĭ": 783,
      "ĠÐ³ÑĥÐ±": 784,
      "ĠÐ²Ð¾ÑĤ": 785,
      "ĠÑĤÑĥÑĤ": 786,
      "ĠÑĤÐ¾Ð¶Ðµ": 787,
      "ĠÐ¼Ð¾Ð¹": 788,
      "ÑĨÑĭ": 789,
      "ĠĠ": 790,
      "ĠÐ½ÐµÐ¹": 791,
      "Ð»Ðµ": 792,
      "ĠÑįÑĤÐ¾Ð¼": 793,
      "ĠÐ¼Ð¾Ð¶ÐµÑĤ": 794,
      "ĠÐ½ÐµÑģÐº": 795,
      "Ð¸ÑĢÐ¾Ð²": 796,
      "Ð¾ÑĢÐ¾ÑĪ": 797,
      "ĠÐľÑĭ": 798,
      "Ð¼Ð°": 799,
      "ĠÐ½Ð°Ð¼": 800,
      "ĠÑģÐµÐ¹ÑĩÐ°Ñģ": 801,
      "ÑīÑĳ": 802,
      "ÑİÑĤ": 803,
      "ĠÐ½ÐµÐ³Ð¾": 804,
      "ĠÐ´Ð¾Ð¼": 805,
      "ĠÐĿÑĥ": 806,
      "ĠÐ¾ÑĢ": 807,
      "Ð°ÑıÑģÑĮ": 808,
      "Ð·Ñĭ": 809,
      "ĠÐ²Ð¾Ð»": 810,
      "ĠÐ¿Ð¾Ð»ÑĥÑĩ": 811,
      "ĠÐ¢Ð°Ðº": 812,
      "ĠÐ·Ð½": 813,
      "ÐµÐ¶Ð´Ñĥ": 814,
      "ĠÑĤÐ¾Ð³Ð¾": 815,
      "ĠÐ½Ð¾Ð²": 816,
      "ĠÑģÑĤÐ°Ð»": 817,
      "ĠÐ½Ð¸Ñĩ": 818,
      "ĠÐ·Ð°Ð²": 819,
      "ĠÑģÑĤÐ°ÑĢ": 820,
      "ĠÐ¤": 821,
      "ĠÑģÐ»Ð¾Ð²": 822,
      "ÐµÑĢÐ°": 823,
      "ÑīÐ¸Ð¹": 824,
      "Ð½ÑĥÐ²": 825,
      "ĠÐ¼ÐµÑģÑĤ": 826,
      "ĠÑĤÐ²": 827,
      "ÑĥÑģ": 828,
      "ÑıÐ¼": 829,
      "ÑĥÐ´Ð°": 830,
      "Ð½ÑĥÑĤÑĮ": 831,
      "ĠÐ¶Ð¸Ð·": 832,
      "ĠÐ¼ÑĥÐ¶": 833,
      "ĠÑģÐ¸Ð»ÑĮ": 834,
      "Ð¸Ð¹": 835,
      "ÑĨÐµ": 836,
      "Ð»Ð°Ñģ": 837,
      "ĠÐ¼Ð¾Ð»": 838,
      "ĠÐ³Ð¾Ð´": 839,
      "Ð»Ð°Ð³": 840,
      "ÐµÑĢÐµÐ´": 841,
      "ĠÐ¿ÑĢÐ¸Ð½": 842,
      "ÑĥÐ½": 843,
      "ĠÐ½ÐµÑĤ": 844,
      "ĠÐ¿ÑĢÐ¾ÑĤ": 845,
      "ĠÐ½Ð°Ð·": 846,
      "ĠÐ¡ÑĤ": 847,
      "ĠÑģÐºÐ°Ð·Ð°Ð»": 848,
      "Ð¾Ñħ": 849,
      "Ð½ÑĥÐ»Ð°ÑģÑĮ": 850,
      "ĠÐµÑģÑĤÑĮ": 851,
      "ĠÐ¼Ð°ÑĤ": 852,
      "ĠÑģÑĤÐ¾ÑĢ": 853,
      "ĠÐ¼Ð¾Ð¶Ð½Ð¾": 854,
      "Ð¾ÑĢÐ¼": 855,
      "ĠÑĤÐµÐ±Ðµ": 856,
      "ÑĢÐ°Ñħ": 857,
      "ĠÑħÐ¾Ñĩ": 858,
      "ÐºÐ°Ñı": 859,
      "ĠÐ´Ð¾Ð»Ð¶": 860,
      "Ð¡": 861,
      "ĠÑģÑĤÐ¾ÑĢÐ¾Ð½": 862,
      "ĠÐ²ÑĭÐ¿": 863,
      "ÑĥÑĤÑĮ": 864,
      "ĠÐ±Ð¾Ð»ÑĮÑĪ": 865,
      "ĠÐ¢Ñĭ": 866,
      "ĠÐ¿Ð¾Ð³": 867,
      "ÑıÐ·": 868,
      "ĠÑĤÐ°Ð¼": 869,
      "ĠÑĥÐ±": 870,
      "ĠÑģÐ²Ð¾Ñİ": 871,
      "ĠÐ¶Ð¸Ð²": 872,
      "Ð¾Ð²Ð°Ð»": 873,
      "Ð¾Ð±ÑĢ": 874,
      "ÐµÑī": 875,
      "ĠÑĥÑĩ": 876,
      "Ð¾Ð¶Ð½Ð¾": 877,
      "ĠÑģÐ²Ð¾ÐµÐ¹": 878,
      "ĠÑĩÐµÑĢÐµÐ·": 879,
      "Ð½Ð°Ñĩ": 880,
      "ĠÐ±ÑĭÑĤÑĮ": 881,
      "ĠÐ´Ð¾Ð»": 882,
      "ĠÐ½Ð°Ðº": 883,
      "ĠÑįÑĤÐ¾ÑĤ": 884,
      "Ð¾Ð²Ð¾Ð»ÑĮ": 885,
      "ĠÐ¾ÑĤÐ²ÐµÑĤ": 886,
      "Ð´Ð²": 887,
      "ÐµÐ¹ÑģÑĤÐ²": 888,
      "ĠÐ½ÐµÑģÐºÐ¾Ð»ÑĮÐºÐ¾": 889,
      "ĠÐ¾Ð´Ð¸Ð½": 890,
      "ĠÑģÐ¾Ð·": 891,
      "ĠÑĢÐ°Ð·Ð²": 892,
      "ĠÐ½Ð°ÑĩÐ°Ð»": 893,
      "Ð»ÑİÑĩ": 894,
      "ĠÐ½ÐµÐ¿": 895,
      "ĠÐ´Ð°Ð²": 896,
      "ĠÐ´ÑĥÐ¼": 897,
      "ĠÐ¿Ð¾ÑģÐ»Ðµ": 898,
      "ĠÐ½Ð¸ÑĩÐµÐ³Ð¾": 899,
      "ĠÑĤÐµÐ¿ÐµÑĢÑĮ": 900,
      "ÐµÐ½Ð°": 901,
      "ÑĪÐ¸Ð¹": 902,
      "ĠÐµÑīÑĳ": 903,
      "Âł": 904,
      "ĠÐ¿ÑĢÐ¾Ð´Ð¾Ð»Ð¶": 905,
      "ĠÐ±Ð¾Ð»ÐµÐµ": 906,
      "Ð³Ð»ÑıÐ´": 907,
      "ĠÐ¿ÑĢÐ¸Ð²": 908,
      "ĠÐºÑĢÐ¾Ð²": 909,
      "ĠÑĩÐµÐ»Ð¾Ð²ÐµÐº": 910,
      "ĠÑģÐ²Ð¾Ð¹": 911,
      "ĠÐ³Ð´Ðµ": 912,
      "ĠÐ·Ð°Ð½": 913,
      "ĉĉ": 914,
      "ĠÐºÐ¾Ð½Ñĩ": 915,
      "ĠÐ¼Ð°Ð»": 916,
      "ĠÐ¼ÐµÐ¶Ð´Ñĥ": 917,
      "ĠÑĩÑĥÐ²ÑģÑĤÐ²": 918,
      "ÑĢÐµ": 919,
      "ĠÑģÐ»ÐµÐ´": 920,
      "ÐĿ": 921,
      "ĠÑĤÑĢÑĥÑģ": 922,
      "ĠÐ²Ð¾Ñģ": 923,
      "ĠÑĥÐ²Ð¸Ð´": 924,
      "ÑģÐ°": 925,
      "ÐĲ": 926,
      "Ġ2": 927,
      "ĠÑįÑĤÐ¸": 928,
      "ĠÑģÐ»ÑĥÑĩ": 929,
      "Ð¸ÑĤÐµÐ»ÑĮÐ½Ð¾": 930,
      "ĠÐŀÑĤ": 931,
      "ĠÐ·Ð°ÑĤ": 932,
      "ĠÐ³ÑĢ": 933,
      "ĠÐ½Ð°Ð´Ð¾": 934,
      "ÑĢÐ¾Ñĩ": 935,
      "ĠÐ½ÐµÐ´": 936,
      "ĠÑģÑĭ": 937,
      "ĠÐ½Ð°Ð²": 938,
      "ĠÑĥÐ¼": 939,
      "ĠÐ½ÑĥÐ¶": 940,
      "Ð¸ÑĤÐµ": 941,
      "Ð¾ÑĢÐ¾ÑĪÐ¾": 942,
      "ĠÐ¿Ð°Ð»ÑĮ": 943,
      "Ð¸Ð±": 944,
      "ÑĭÑĩ": 945,
      "Ð»Ð¸Ð·": 946,
      "ĠÑģÐµÑģÑĤ": 947,
      "ĠÐºÐ¾Ð¼Ð½Ð°": 948,
      "ĠÐ½Ð¸Ñħ": 949,
      "Ð»Ð¸ÑģÑĮ": 950,
      "ĠÐ·Ð°Ð±": 951,
      "ĠÑģÑĤÑĢ": 952,
      "ĠÑģÐ¼Ð¾ÑĤÑĢ": 953,
      "ÑģÐ¼Ð¾ÑĤÑĢ": 954,
      "ĠÐ¿ÑĢÐ¾Ð²": 955,
      "Ð¾ÑģÑĤÐ¸": 956,
      "ĠÐ³Ð»Ð°Ð·Ð°": 957,
      "Ð¸ÐºÐ¸": 958,
      "ĠÑıÐ·Ñĭ": 959,
      "Ð¸ÑĩÐµÑģÐºÐ¸": 960,
      "ÐµÐ½Ð¸Ð¹": 961,
      "ÐµÐ½Ð¸ÐµÐ¼": 962,
      "ĠÐ»ÐµÐ³": 963,
      "ĠÐ½ÐµÐµ": 964,
      "ĠÐºÐ¾Ð¼Ð¿": 965,
      "Ð°Ð½Ð°": 966,
      "Ð¾Ð²Ð°ÑĤÑĮ": 967,
      "ĠÐ·Ð²": 968,
      "ÐµÑĤÐµ": 969,
      "ĠÐ¼Ð¸Ð½Ñĥ": 970,
      "ĠÑĤÐ¾Ð¼": 971,
      "ĠÐ¿ÑĢÐ¾ÑĪ": 972,
      "ĠÐ±ÐµÑģ": 973,
      "ĠÐºÑĢÐ°Ñģ": 974,
      "ĠÑĢÐ¾ÑĤ": 975,
      "ĠÐ¿Ð¾ÑģÐ»ÐµÐ´": 976,
      "ĠÑĤÐµÐ»": 977,
      "Ð½Ð¾Ð²Ð°": 978,
      "ÐºÐ°Ñħ": 979,
      "ĠÐºÑĤÐ¾": 980,
      "ÑĨÐ¸Ð¸": 981,
      "ÑĤÐµÑĢÐµÑģ": 982,
      "ĠÑģÐ¸Ð»": 983,
      "ÑĪÐ¸Ñħ": 984,
      "ĠÐ»Ð¸ÑĨ": 985,
      "ÐµÐ´ÑĮ": 986,
      "Ð°ÑĤÐ¸": 987,
      "Ð°Ð»ÑĮÐ½Ð¾": 988,
      "ĠÑĥÑģÐ¿": 989,
      "ĠÐ¿Ð¾ÐºÐ°": 990,
      "ÐµÑĩÐ½Ð¾": 991,
      "ĠÑģÐ¿ÑĢÐ¾Ñģ": 992,
      "ÑĢÐ°Ñģ": 993,
      "ÐµÐ½Ð¸Ð¸": 994,
      "ĠÐ¸Ñģ": 995,
      "ÑħÐ²Ð°ÑĤ": 996,
      "ĠÐ½Ð°ÑģÑĤ": 997,
      "ĠÐ¿ÑĢÐ¾Ð¸Ð·": 998,
      "ĠÐ¼Ð°Ð¼Ð°": 999,
      "ĠÐ´Ð°": 1000,
      "ĠÐ¾ÐºÐ°Ð·": 1001,
      "ĠÐ¿ÑĢÐ¾Ð³": 1002,
      "ĠÐ§ÑĤÐ¾": 1003,
      "ĠÐ²Ð¾Ð´": 1004,
      "ĠÑģÑĤÐ¾Ð»": 1005,
      "ĠÐ»ÑĥÑĩ": 1006,
      "ÑĢÐ°Ð·Ñĥ": 1007,
      "ĠÐļÐ¾Ð³Ð´Ð°": 1008,
      "ĠÐ½ÐµÐ²": 1009,
      "ĠÐºÐ°Ð¶Ð´": 1010,
      "ĠÑĢÑĥÐºÐ¸": 1011,
      "Ð½Ñİ": 1012,
      "ĠÐ´ÐµÐ½ÑĮ": 1013,
      "ĠÐ¿ÑĢÐ¾Ð±": 1014,
      "ÑĮÑı": 1015,
      "ĠÐ¼Ð½Ð¾Ð³Ð¾": 1016,
      "ĠÑģÐºÐ°Ð·Ð°Ð»Ð°": 1017,
      "ĠÐ¿ÑĢÐ¸ÑĪ": 1018,
      "Ð»Ð¸Ð½": 1019,
      "ÑĭÐ²Ð°ÑĤÑĮ": 1020,
      "ĠÐĶÐ¶": 1021,
      "Ð¾ÑģÑĤÑĮ": 1022,
      "Ð°Ð´Ð¸": 1023,
      "ĠÐ¾Ð±ÑĬ": 1024,
      "ÑĤÐ¾Ñĩ": 1025,
      "ĠÑģÑĥ": 1026,
      "ĠÐ²Ðµ": 1027,
      "ĠÐºÐ¾ÑĤÐ¾ÑĢÑĭÐµ": 1028,
      "ÑĩÐ¸Ðº": 1029,
      "ÐµÑĢÐ³": 1030,
      "Ð±ÑĥÐ´": 1031,
      "ĠÐŁÐ¾Ñģ": 1032,
      "ÑĥÐ»ÑĮ": 1033,
      "ĠÐ¼ÐµÐ´": 1034,
      "ÑĢÐ°Ð¼": 1035,
      "ÐµÑĤÑĭ": 1036,
      "ĠÑĢÐ°ÑģÐ¿": 1037,
      "ĠÑģÑĤÐ°Ð»Ð°": 1038,
      "Ð¼Ñĭ": 1039,
      "ĠÑĤÐµÑħ": 1040,
      "ĠÐ¿Ð¾Ñģ": 1041,
      "ĠÐĴÑĭ": 1042,
      "ĠÐĲÐ½": 1043,
      "ĠÑģÐ½Ð¾Ð²Ð°": 1044,
      "ĠÐ¿Ð¾ÑĩÑĤÐ¸": 1045,
      "ĠÐ¶ÐµÐ½ÑīÐ¸": 1046,
      "ĠÐ¿Ð¾Ð½Ð¸Ð¼": 1047,
      "Ð¸Ð½Ðµ": 1048,
      "Ð»ÐµÐ½Ð½Ð¾": 1049,
      "ĠÐ²ÑģÐµÐ³Ð¾": 1050,
      "ÐºÐ¸Ð¹": 1051,
      "ĠÑĢÐ¾Ð´": 1052,
      "ĠÐ¿ÑĢÐ¾Ñģ": 1053,
      "ÑĥÐ³": 1054,
      "ÐµÑģÑģ": 1055,
      "Ð²Ð¾Ð»": 1056,
      "ĠÑĢÐµÐ·": 1057,
      "ĠÐ·Ð°Ñģ": 1058,
      "ĠÑĢÑĥÐºÑĥ": 1059,
      "Ð¼ÐµÑģÑĤ": 1060,
      "ÐµÐºÐ¾": 1061,
      "ĠÐ¿ÑĢÐ¸Ðº": 1062,
      "Ð¸Ð²Ð°ÑĤÑĮ": 1063,
      "ÑĢÐ°Ñī": 1064,
      "ĠÐ¾ÑĢÐ³": 1065,
      "Ð°Ð½Ð´": 1066,
      "Ð½Ð¾ÑģÑĤÑĮÑİ": 1067,
      "ÑıÑī": 1068,
      "ÑĳÐ»": 1069,
      "ÑģÐµÐ¼": 1070,
      "ĠÐºÐ¾ÑĤÐ¾ÑĢÑĭÐ¹": 1071,
      "Ð´ÐµÑģÑĮ": 1072,
      "Ðŀ": 1073,
      "ÑĥÐº": 1074,
      "ĠÐ²ÑģÐµÑħ": 1075,
      "ĠÐ±ÑĭÑģÑĤÑĢÐ¾": 1076,
      "ÑĥÐ¶Ð´": 1077,
      "ÐµÑĢÑĪ": 1078,
      "Ð¾ÐºÐ¾": 1079,
      "ÑĥÐ¹": 1080,
      "ĠÐ´ÐµÐ¹ÑģÑĤÐ²": 1081,
      "ĠÐ³ÑĢÑĥÐ´": 1082,
      "ĠÑĥÐ¶": 1083,
      "ĠÐ½Ð¾Ð³Ð¸": 1084,
      "ĠÐ¿Ð¾ÑĪ": 1085,
      "Ð°Ð½ÑĮ": 1086,
      "Ð°Ð½ÑĤ": 1087,
      "Ð°ÑģÑĤÑĮ": 1088,
      "ÐµÐ»Ñı": 1089,
      "ÑĳÑĤ": 1090,
      "ĠÐŁÐ¾ÑĤ": 1091,
      "Ð¾Ð´Ð½Ñı": 1092,
      "ĠÐŁÐ¾": 1093,
      "ĠÑģÑĢÐ°Ð·Ñĥ": 1094,
      "ÐµÐ½Ñĭ": 1095,
      "Ð°ÑĨÐ¸Ð¸": 1096,
      "ÑıÐ³": 1097,
      "...": 1098,
      "ĠÐ³Ð¾ÑĢÐ¾Ð´": 1099,
      "Ð½ÑĥÑĤ": 1100,
      "ĠÐ²Ð´": 1101,
      "ÑĨÑĥ": 1102,
      "ĠÐ½Ð°Ð±": 1103,
      "Ð»ÑĭÐ±": 1104,
      "ĠÑĤÐµÑĢ": 1105,
      "ĠÑįÐº": 1106,
      "ĠÐ²ÑģÑĤ": 1107,
      "Ð°ÐµÐ¼": 1108,
      "ĠÐ²ÑĭÑģ": 1109,
      "ĠÐĴÐ¾ÑĤ": 1110,
      "ĠÐĸ": 1111,
      "Ð»Ð¸Ñĩ": 1112,
      "ĠÐ¿ÑĢÐµÐ´ÑģÑĤÐ°Ð²": 1113,
      "Ðĺ": 1114,
      "ĠÑģÐºÐ¾ÑĢ": 1115,
      "ĠÐ¿Ð¾Ð±": 1116,
      "ĠÐ»ÑİÐ´": 1117,
      "Ð»Ð¾Ð¶": 1118,
      "ĠÐ¾ÑģÑĤÐ°Ð²": 1119,
      "ĠÐ¶ÐµÐ»": 1120,
      "ĠÐŀÐ´": 1121,
      "ĠÐºÐ°ÑĢ": 1122,
      "ÐŁ": 1123,
      "ĠÐ¿Ð¾ÑģÐ¼Ð¾ÑĤÑĢ": 1124,
      "ĠÐ²Ð¾Ð·Ð¼": 1125,
      "Ð¾Ð½Ð°": 1126,
      "ĠÐķÑģÐ»Ð¸": 1127,
      "ĠÑģÐ²Ð¾Ð¸": 1128,
      "ÑİÑī": 1129,
      "Ð¾ÑĩÐºÐ°": 1130,
      "ÐĴ": 1131,
      "ÑıÐ¶": 1132,
      "ĠÐ½ÐµÐ¼Ð½Ð¾Ð³Ð¾": 1133,
      "ĠÑĢÐµ": 1134,
      "ĠÑī": 1135,
      "ĠÐ»Ð¸ÑĪÑĮ": 1136,
      "ÑģÐºÐ°Ð·": 1137,
      "Ð°Ð´ÑĨ": 1138,
      "ĠÐ¸ÑģÑĤ": 1139,
      "ĠÐ½Ð¸Ð¼": 1140,
      "ĠÐ¾ÑĤÐºÑĢÑĭ": 1141,
      "ÑĥÐ»": 1142,
      "ÑĪÐ¸Ðµ": 1143,
      "ĠÑģÐ¸Ð´": 1144,
      "ĠÐŁÑĢÐ¸": 1145,
      "Ðļ": 1146,
      "Ð¸Ð½Ð¾Ð¹": 1147,
      "ĠÑĥÐ»ÑĭÐ±": 1148,
      "ĠÐ¿Ð¾Ð²ÐµÑĢ": 1149,
      "\".": 1150,
      "ÑĭÐ¼Ð¸": 1151,
      "âĢĵ": 1152,
      "ĠÐ®": 1153,
      "ĠÐ¾ÑĤÐ¿": 1154,
      "ÑıÑĤÐ½Ð¾": 1155,
      "ĠÐ³Ð»ÑĥÐ±": 1156,
      "Ð¾Ð½Ñĩ": 1157,
      "Ð¾Ð¼ÐµÐ½ÑĤ": 1158,
      "ĠÐ¾ÑĤÐ´": 1159,
      "ĠÐ³Ð¾Ð»Ð¾Ð²Ñĥ": 1160,
      "ÐĶ": 1161,
      "Ð¸ÑĩÐµÑģ": 1162,
      "ÑĤÐ°Ðº": 1163,
      "ĠÐ´Ð²Ð°": 1164,
      "ĠÐ´ÐµÑĤ": 1165,
      "ÐµÐ³Ð´Ð°": 1166,
      "ĠÐ¼Ð¾Ð¼ÐµÐ½ÑĤ": 1167,
      "Ð¼ÐµÑĢ": 1168,
      "ÑĢÐ¾": 1169,
      "ĠÐ¿Ð¾ÐºÐ°Ð·": 1170,
      "ĠÑĤÐ¾Ñĩ": 1171,
      "Ð»ÐµÑĤ": 1172,
      "Ð½Ð°Ðº": 1173,
      "ĠÐ·Ð°Ð¼ÐµÑĤ": 1174,
      "ÑĳÐ¼": 1175,
      "ĠÑĤÐ°ÐºÐ¾Ð¹": 1176,
      "ĠÐ²Ð¾Ð¿": 1177,
      "Ð½Ð¸Ð·": 1178,
      "ĠÑĩÐµÐ³Ð¾": 1179,
      "ĠÑĢÑıÐ´": 1180,
      "ÑıÑĤÐ¸": 1181,
      "ĠÐĴÑģÐµ": 1182,
      "Ð¢": 1183,
      "ÑĤÐ¾Ð¼": 1184,
      "ÑıÑģ": 1185,
      "ĠÑĩÐ°Ñģ": 1186,
      "ĠÐ¿ÑĢÑıÐ¼": 1187,
      "ĠÑģÐ¸ÑģÑĤ": 1188,
      "ĠÐ¼Ð¸ÑĢ": 1189,
      "ĠÐ¼Ð½": 1190,
      "ĠÐ½Ð¾Ñĩ": 1191,
      "ĠÐ½Ð°ÑĩÐ°Ð»Ð°": 1192,
      "ÑĤÐ¸Ð²": 1193,
      "Ð¸Ð¿": 1194,
      "Ð°Ð½Ñĭ": 1195,
      "ĠÑħÐ¾ÑĢÐ¾ÑĪÐ¾": 1196,
      "ĠÐ¼ÐµÑĤ": 1197,
      "ĠÐ¼Ð¾ÐµÐ¹": 1198,
      "ĠÐ´Ð²Ð¸Ð¶": 1199,
      "ÑģÑĤÐ²ÐµÐ½Ð½Ð¾": 1200,
      "ĠÐ¨": 1201,
      "ĠÐľÐ½Ðµ": 1202,
      "ĠÐ»ÐµÐ¶": 1203,
      "ĠÑįÑĤÐ¾Ð¹": 1204,
      "ÐµÐ½Ð½ÑĭÐ¹": 1205,
      "Ð¸Ð²Ð°Ñı": 1206,
      "ĠÐ¼Ð½Ð¾Ð¹": 1207,
      "ĠÐ´ÐµÐ²ÑĥÑĪ": 1208,
      "ĠÐ¾Ð³ÑĢ": 1209,
      "ĠÑģÐ¾Ð²ÑģÐµÐ¼": 1210,
      "ĠÐ³Ð¾ÑĤÐ¾Ð²": 1211,
      "Ð´ÐµÑĢÐ¶": 1212,
      "\",": 1213,
      "Â».": 1214,
      "Ð»ÐµÐ½Ð¸Ñı": 1215,
      "Ð½ÑĮ": 1216,
      "Ð¾Ð¶Ð´": 1217,
      "Ð¾ÑģÐ¾Ð±": 1218,
      "ÐµÑģÑĤÐ¸": 1219,
      "ĠÐ½ÐµÐ±": 1220,
      "ĠÐ¾Ñī": 1221,
      "ÐµÑĢÑĤ": 1222,
      "ĠÑĥÐ·": 1223,
      "ÑĩÐµÑģÐºÐ¸": 1224,
      "ĠÑĨÐµÐ»": 1225,
      "ÑįÑĤ": 1226,
      "ĠÐ±Ð»": 1227,
      "Ð°ÑĢÑĥ": 1228,
      "ÐµÑĤÐ°": 1229,
      "Ð»ÐµÐ¼": 1230,
      "Ð¸ÐºÐ°": 1231,
      "ĠÑĩÑĥÑĤÑĮ": 1232,
      "ĠÐ·Ð´ÐµÑģÑĮ": 1233,
      "Ð»Ð°ÑģÑĮ": 1234,
      "ĠÐ°ÑĢ": 1235,
      "Ð¾Ð»Ð¾Ð³": 1236,
      "!!": 1237,
      "Ð½Ð¾Ð¼Ñĥ": 1238,
      "ĠÐ»Ð°Ñģ": 1239,
      "ĠÐŀÐ½Ð¸": 1240,
      "ÐµÐ½Ð¸Ñİ": 1241,
      "ĠÑıÐ²": 1242,
      "ĠÐ¿ÑĢÐ¾ÑĤÐ¸Ð²": 1243,
      "ĠÑĤÐ¾Ð»": 1244,
      "ĠÑģÐ¾ÑģÑĤ": 1245,
      "ĠÐºÐ¾Ñģ": 1246,
      "Ð¾Ð½ÐµÑĨ": 1247,
      "ĠÑĢÑĥÐºÐ¾Ð¹": 1248,
      "ĠÐ¼Ð°Ð»ÐµÐ½ÑĮ": 1249,
      "ĠÐ°Ðº": 1250,
      "Ð¸Ð¼Ð¾": 1251,
      "ĠÑģÐ¾Ð·Ð´": 1252,
      "Ð½Ð¸ÐºÐ°": 1253,
      "ĠÐ²ÑģÑĤÑĢ": 1254,
      "ĠÐľÐ°ÑĢ": 1255,
      "ĠÐ¿Ð¾Ñħ": 1256,
      "ÐºÑĥÑİ": 1257,
      "ĠÐ²Ð°Ñģ": 1258,
      "ĠÑģÐ¿ÐµÑĢ": 1259,
      "ĠÐ¼Ð°ÑĤÐµÑĢÐ¸": 1260,
      "ĠÐ¿Ð¾ÑĤÐ¾Ð¼Ñĥ": 1261,
      "Ð°ÑĤÐµÐ»ÑĮÐ½Ð¾": 1262,
      "Ð¸Ñİ": 1263,
      "ÑĤÑĮÑģÑı": 1264,
      "ĠÑĤÐ¾Ð³Ð´Ð°": 1265,
      "ĠÐ²ÐµÐ´ÑĮ": 1266,
      "ĠÑĤÐ¾ÑĤ": 1267,
      "00": 1268,
      "ĠÐ¸Ð½ÑĤÐµÑĢÐµÑģ": 1269,
      "Ð½Ð¸Ð¹": 1270,
      "ĠÐ±ÑĢ": 1271,
      "ĠÐ²Ð¾Ð·Ð±": 1272,
      "ĠÐ¿Ð¾Ð´Ð½Ñı": 1273,
      "ĠÐ¼Ð¾Ð¸": 1274,
      "ĠÐ²ÑģÐµÐ³Ð´Ð°": 1275,
      "ĠÐ¿Ð¾Ð¶": 1276,
      "ĠÐ¼Ð¸": 1277,
      "ÐºÐ¾Ðµ": 1278,
      "Ð¾Ð»Ð½": 1279,
      "ĠÐ¿Ð¾Ð»Ð¾Ð¶": 1280,
      "ĠÐ¿Ð¾ÑĩÑĥÐ²ÑģÑĤÐ²": 1281,
      "ĠÐ¶Ð¸Ð²Ð¾ÑĤ": 1282,
      "ĠÐĲÑĢ": 1283,
      "Ð°ÑĪÐ°": 1284,
      "ĠÑĥÑģ": 1285,
      "ĠÑĪÐ¸": 1286,
      "ĠÐ¿ÑĢÐ¸Ð¼": 1287,
      "Ðľ": 1288,
      "ĠÐ¿ÑĭÑĤ": 1289,
      "ĠÐ²Ð¼ÐµÑģÑĤ": 1290,
      "ÑģÐºÐ¾Ð¹": 1291,
      "ĠÐ´ÐµÑģÑı": 1292,
      "Ð»Ð¾ÑģÑĮ": 1293,
      "ĠÑĤÑĢÐ¸": 1294,
      "ĠÐ³Ð¾ÑĢ": 1295,
      "ĠÑĤÐµÐ»Ð¾": 1296,
      "ĠÑĥÑģÐ»": 1297,
      "Ð»ÐµÐ½Ð¸Ðµ": 1298,
      "ĠÐľÐ°Ð¼": 1299,
      "ĠÐ¾ÑĤÐ²": 1300,
      "ĠÐ´Ð²Ð¸Ð³": 1301,
      "ÑĭÐ»": 1302,
      "ĠÐ¶Ð¸Ð·Ð½Ð¸": 1303,
      "Ð¾Ð±ÑīÐµ": 1304,
      "âĢĶ": 1305,
      "ĠÐ²Ð¾Ð¿ÑĢÐ¾Ñģ": 1306,
      "Ð¾Ð²Ð°Ð»Ð°": 1307,
      "ĠÑĤÑĢÐ°Ñħ": 1308,
      "Ð¸ÑĪÑĮ": 1309,
      "ĠÐ¿ÑĢÐ¸Ð´": 1310,
      "\\\\": 1311,
      "ĠÑİ": 1312,
      "ĠÐ²ÑģÑı": 1313,
      "ÑĳÐ½": 1314,
      "ĠÐ²ÑģÐµÐ¼": 1315,
      "Ð¾Ð¹Ð´": 1316,
      "ĠÑģÐ¸ÑģÑĤÐµÐ¼": 1317,
      "Ð»Ð¾Ð½": 1318,
      "ĠÐ²ÐµÑģÑĮ": 1319,
      "ĠÐ´ÐµÐ»Ð°ÑĤÑĮ": 1320,
      "Ð³Ð¾Ð´": 1321,
      "ÑĭÐ²Ð°Ñı": 1322,
      "ĠÐ½Ð¸ÐºÐ¾Ð³Ð´Ð°": 1323,
      "ĠÐ²Ð¾Ð»Ð¾Ñģ": 1324,
      "Ð´Ñĭ": 1325,
      "ĠÐ·Ð½Ð°Ñİ": 1326,
      "ÑĢÐ°ÑĪ": 1327,
      "ĠÐ²Ð»Ð°Ð³": 1328,
      "ĠÐ¼Ð¾Ñı": 1329,
      "ĠÑĢÑıÐ´Ð¾Ð¼": 1330,
      "ĠÐ³ÑĢÑĥÐ´Ð¸": 1331,
      "Ð¸ÑģÑĮ": 1332,
      "ĠÐ´Ð°Ð»ÑĮ": 1333,
      "ĠÑģÐ¾Ð²ÐµÑĢÑĪ": 1334,
      "ĠÐ¿Ð¾ÑıÐ²": 1335,
      "ÑĢÐ¾Ðº": 1336,
      "ĠÐºÐ¾ÑĢÐ°Ð±": 1337,
      "ĠÐ¾ÑģÐ¾Ð±": 1338,
      "ĠÐ¸Ð³": 1339,
      "Ð½Ð¸Ðµ": 1340,
      "ÑįÑĤÐ¾Ð¼Ñĥ": 1341,
      "ĠÑģÐ²Ð¾ÐµÐ³Ð¾": 1342,
      "ĠÐ²Ð·Ð³Ð»ÑıÐ´": 1343,
      "ĠÐŁÐ¾Ð´": 1344,
      "ÑĪÐµÐ¹": 1345,
      "ĠÐ±ÐµÐ´": 1346,
      "Ð±ÑĥÐ´ÑĮ": 1347,
      "ĠÐ´ÑĢ": 1348,
      "ÐµÐ½Ð½Ð¾Ð¹": 1349,
      "ĠÐ¿ÑĢÐ¸Ð±": 1350,
      "ĠÐŁÐ¾ÑĤÐ¾Ð¼": 1351,
      "ĠÐ²ÑĤÐ¾ÑĢ": 1352,
      "ÐºÑĥÑģ": 1353,
      "ĠÐ³Ð¾Ð»Ð¾Ñģ": 1354,
      "ÑĥÐµÑĤ": 1355,
      "ÑĢÐ°Ð¶": 1356,
      "Ð²Ð¾Ð´": 1357,
      "ĠÐ¼Ð¸Ð½ÑĥÑĤ": 1358,
      "ĠÐ¿Ð»Ð°Ð½": 1359,
      "ÐºÐ¸Ðµ": 1360,
      "ĠÐ²ÑĢÐµÐ¼ÐµÐ½Ð¸": 1361,
      "ĠÑģÐ¿Ð¾ÑģÐ¾Ð±": 1362,
      "ĠÑģÐµÐ¼": 1363,
      "ĠÐ²ÑĭÐ±": 1364,
      "ĠÐ»Ð°Ð´": 1365,
      "Ð°Ð²Ð½Ð¾": 1366,
      "Ð·Ð°": 1367,
      "ĠÑģÐ¼Ð¾Ð³": 1368,
      "ĠÐ°Ð½": 1369,
      "ĠÐ¾Ð±ÑĢÐ°Ð·": 1370,
      "ĠÐ²ÑĭÑĪ": 1371,
      "Ð°Ð½Ð¸Ð¸": 1372,
      "ÑīÐµÑģÑĤÐ²": 1373,
      "Ð»Ð°Ð²": 1374,
      "ĠÑĤÐ¾ÑĢ": 1375,
      "ĠÑĥÑģÑĤ": 1376,
      "Ð°ÑģÑģ": 1377,
      "ĠÑģÑĤÑĢÐ°Ð½": 1378,
      "ĠÑĥÐ´Ð¸Ð²": 1379,
      "ÐµÐ½Ð½ÑĭÐµ": 1380,
      "ĠÐ°Ð²": 1381,
      "ĠÑģÐ¾Ð³": 1382,
      "ĠÐºÐ°ÐºÐ¾Ð¹": 1383,
      "ĠÐ¸Ð³ÑĢ": 1384,
      "ĠÐ¸ÑģÐ¿Ð¾Ð»ÑĮÐ·": 1385,
      "ĠÐ¼Ð°ÑĤÑĮ": 1386,
      "ÐµÐ³Ð¾Ð´Ð½Ñı": 1387,
      "ĠÐ·Ð°Ð»": 1388,
      "Ð½Ð¸Ð±ÑĥÐ´ÑĮ": 1389,
      "ÐºÐ¾Ð³Ð¾": 1390,
      "ĠÐ½Ð¸ÐºÐ°Ðº": 1391,
      "ĠÑĤÐµ": 1392,
      "ĠÑħÐ¾ÑĤÑı": 1393,
      "ĠÐĿÐµÑĤ": 1394,
      "ĠÐ¿ÑĢÑıÐ¼Ð¾": 1395,
      "ĠÐ´Ð¾Ñĩ": 1396,
      "ĠÐ¿ÑĢÐ¾Ð¼": 1397,
      "ĠÐ¼Ð¾Ñİ": 1398,
      "ĠÐ²ÐµÑĩ": 1399,
      "Ð°ÑĪÐ¸": 1400,
      "ĠÐ·Ð°Ð³": 1401,
      "ÑĩÐ¸Ð²": 1402,
      "ĠÑĤÐ²Ð¾": 1403,
      "ĠÐ²Ð°Ð¼": 1404,
      "ĠÑĥÐº": 1405,
      "Ð»Ð¸ÑĪ": 1406,
      "ĠÐ´Ð²ÐµÑĢÑĮ": 1407,
      "ĠÐ´Ð¾ÑĢ": 1408,
      "ĠÐ¾Ð±Ñī": 1409,
      "ĠÐ²Ð½Ð¸Ð¼": 1410,
      "ĠÐ»ÑİÐ´ÐµÐ¹": 1411,
      "ĠÑĥÐ´Ð°ÑĢ": 1412,
      "ÑĢÑĥÑİ": 1413,
      "Ð¾Ð²Ð¾Ð»ÑĮÑģÑĤÐ²": 1414,
      "Ð¾ÑĢÐ¾Ð²": 1415,
      "Ð°ÐµÑĪÑĮ": 1416,
      "ĠÐ´ÐµÑĢ": 1417,
      "ÐµÐ»ÐµÐ¹": 1418,
      "ĠÑģÐ²ÐµÑĤ": 1419,
      "ĠÑĢÐ°Ð·Ð´": 1420,
      "ĠÐ½ÐµÐ¶": 1421,
      "ĠÐ¸Ð·Ð²": 1422,
      "ÑĭÐ²Ð°Ð»": 1423,
      "ĠÐ²Ð¾Ð·Ð±ÑĥÐ¶Ð´": 1424,
      "Ð¿Ð¾Ð¼": 1425,
      "ÑĪÐµÐ³Ð¾": 1426,
      "ĠÐ²Ð»Ð°Ð³Ð°Ð»Ð¸": 1427,
      "ÑĥÑİÑī": 1428,
      "Ð½Ð¸Ñĩ": 1429,
      "ĠÑģÐ¸Ð»ÑĮÐ½Ð¾": 1430,
      "ĠÐ¿Ð¾Ð´ÑĥÐ¼": 1431,
      "ĠÐ½Ð°ÑħÐ¾Ð´": 1432,
      "ĠÐ¼Ð°Ð»ÑĮ": 1433,
      "Ð¾ÑĢÐ°": 1434,
      "Ð³Ð°": 1435,
      "ĠÐ¾ÑģÐ½Ð¾Ð²": 1436,
      "ĠÐ»ÑĥÑĩÑĪÐµ": 1437,
      "Ð¾Ð½Ð¾Ð¼": 1438,
      "ĠÐ·ÐµÐ¼": 1439,
      "ĠÐ¾Ð±ÑĭÑĩ": 1440,
      "ĠÑģÐ²Ð¾Ð¸Ð¼": 1441,
      "Ð¾ÐºÐ°": 1442,
      "ĠÐ³ÑĢÑĥÐ´ÑĮ": 1443,
      "Ð¾ÑĢÐµ": 1444,
      "Ð¼ÐµÐ½": 1445,
      "ĠÐ¿Ð¾ÑĨ": 1446,
      "ÐµÐºÐ¾ÑĤÐ¾ÑĢ": 1447,
      "Ð»ÐµÐ´": 1448,
      "ÑĢÐ°ÑģÑĤ": 1449,
      "Ð¸ÑĪ": 1450,
      "ĠÐ¿Ð¾Ð´Ð¾ÑĪ": 1451,
      "ĠÐ´Ð¾Ð±": 1452,
      "ĠÐ¼Ð°Ð³": 1453,
      "Ð°Ñī": 1454,
      "Ġĉĉ": 1455,
      "ÑīÐµÐµ": 1456,
      "ÑĢÐ¾Ð¼": 1457,
      "Ð½Ð¸ÐºÐ¾Ð²": 1458,
      "ĠÐ¼Ð¸Ð»": 1459,
      "ĠÐ¿Ð¾Ð½ÑıÐ»": 1460,
      "Ð»Ð¸ÑĪÐºÐ¾Ð¼": 1461,
      "ĠÑĢÐ°ÑģÑģÐºÐ°Ð·": 1462,
      "ĠÑħÐ¾ÑĩÑĥ": 1463,
      "ÑĢÐ¾ÑģÑĤ": 1464,
      "Ġĉĉĉ": 1465,
      "Ð³Ð¸": 1466,
      "ĠÑģÐ´ÐµÐ»Ð°ÑĤÑĮ": 1467,
      "ĠÑĥÐ´Ð¾Ð²Ð¾Ð»ÑĮÑģÑĤÐ²": 1468,
      "ĠÐ¿ÑĢÐµÐº": 1469,
      "ĠÑĩÐ°ÑģÑĤ": 1470,
      "ĠÐ½ÑĢÐ°Ð²": 1471,
      "Ð¾ÑĩÐºÐ¸": 1472,
      "ĠÑģÑĩ": 1473,
      "Ð¸ÑĨ": 1474,
      "ĠÐ¿Ð»Ð¾": 1475,
      "ÑģÐºÐ¾Ð³Ð¾": 1476,
      "ĠÐ¼Ð¾Ð»Ð¾Ð´": 1477,
      "ĠÐ½Ð°Ð¿ÑĢÐ°Ð²": 1478,
      "ĠÑĤÑĭÑģÑı": 1479,
      "ĠÐ·Ð°Ð½Ð¸Ð¼": 1480,
      "ĠÐ»Ð¸ÑĨÐ¾": 1481,
      "ĠÑģÐ²Ð¾Ð¸Ñħ": 1482,
      "ĠÐ¡Ðº": 1483,
      "ĠÐŀÐ±": 1484,
      "ÑıÐ½": 1485,
      "ĠÐ¼ÐµÐ´Ð»ÐµÐ½Ð½Ð¾": 1486,
      "ÑıÐ¼Ð¸": 1487,
      "ĠÐ¾Ð³ÑĢÐ¾Ð¼": 1488,
      "ĠÑģÐ¾Ð±Ð¾Ð¹": 1489,
      "ĠÐ²ÑģÑİ": 1490,
      "ÑĥÑģÐº": 1491,
      "ĠÐļÐ°": 1492,
      "Ð¾Ð»Ð¾Ð´": 1493,
      "ĠÐļÐ°ÑĤ": 1494,
      "ÑģÑĥ": 1495,
      "ÑĪÐ°Ñı": 1496,
      "ĠÐ²Ð´ÑĢÑĥÐ³": 1497,
      "ĠÐ²Ð¾Ð¾Ð±ÑīÐµ": 1498,
      "ĠÐ´ÑĢÑĥÐ³Ð¾Ð¹": 1499,
      "ĠÐ²Ð¾Ð¹": 1500,
      "ĠÑĢÐ°Ð·Ð³": 1501,
      "ĠÐ·Ð°ÑĢ": 1502,
      "Ðł": 1503,
      "ÐµÑĢÐµ": 1504,
      "Ð´ÑĢ": 1505,
      "ĠÐ½Ð°Ð·Ð°Ð´": 1506,
      "ĠÐ¿ÑĢÐ¸Ð¶": 1507,
      "ÑĢÐ¾ÑĤ": 1508,
      "ĠÐ¾Ñħ": 1509,
      "ĠÐºÐ°Ð¼": 1510,
      "ÐµÐ½Ð¾": 1511,
      "ĠÐ´Ð¾Ð»Ð³Ð¾": 1512,
      "Ġ3": 1513,
      "ĠÐ½ÐµÑĳ": 1514,
      "ĠÑģÑĩÐ¸ÑĤ": 1515,
      "ĠÐŁÐ¾ÑģÐ»Ðµ": 1516,
      "ĠÐ¾ÑĤÐ½Ð¾": 1517,
      "Ð½Ð¸ÐºÐ¸": 1518,
      "ĠÑģÐºÐ°Ð·Ð°ÑĤÑĮ": 1519,
      "ĠÐ¿Ð¾ÑĩÐµÐ¼Ñĥ": 1520,
      "ÐµÐ»Ð¾ÑģÑĮ": 1521,
      "Ð½ÐµÑģ": 1522,
      "ĠÑģÑĢÐµÐ´": 1523,
      "ĠÑĢÑĥÐºÐ°Ð¼Ð¸": 1524,
      "ÐºÐ¸Ñħ": 1525,
      "ĠÑģÐ¶": 1526,
      "ĠÐºÐ¾Ð½ÐµÑĩÐ½Ð¾": 1527,
      "ĠÐ²Ð¼ÐµÑģÑĤÐµ": 1528,
      "ĠÐ¸ÑģÐº": 1529,
      "ÑĥÐ¿ÐµÑĢÐ²": 1530,
      "ĠÐ½ÑĥÐ¶Ð½Ð¾": 1531,
      "ĠÐ²Ð½Ð¸Ð·": 1532,
      "Ð¾ÐºÐ¾Ð¹": 1533,
      "ÑıÑģÑĮ": 1534,
      "ĠÐ¸Ð´": 1535,
      "ĠÑĥÑĢÐ¾Ð²": 1536,
      "ĠÐ¾Ð¿ÑıÑĤÑĮ": 1537,
      "ĠÐ·Ð´": 1538,
      "ĠÐ²Ð½Ñĥ": 1539,
      "ĠÐ±ÑĢÐ°ÑĤ": 1540,
      "ĠÑħÐ¾Ð´": 1541,
      "ĠÐ¿ÑĢÐ¾Ð³ÑĢÐ°Ð¼": 1542,
      "ĠÑģÐ»Ð¸ÑĪÐºÐ¾Ð¼": 1543,
      "Ð¾Ð½ÑĮ": 1544,
      "ĠÐļÐ°ÑĥÐ¿ÐµÑĢÐ²": 1545,
      "Ð±Ð¾": 1546,
      "ĠÐ¾Ð´Ð½Ð¾Ð¹": 1547,
      "ĠÐ¼Ð¾Ð³Ñĥ": 1548,
      "Ð²Ð°ÑĢ": 1549,
      "Â»,": 1550,
      "ĠÐºÐ°Ð·": 1551,
      "ÑĢÐ¾Ð±": 1552,
      "ĠÐ¿Ð°Ð¿": 1553,
      "ÑħÐ°": 1554,
      "ÑģÐºÐ¸Ð¹": 1555,
      "ÑĨÐµÐ²": 1556,
      ").": 1557,
      "ĠÐ¡Ð²ÐµÑĤ": 1558,
      "Ð¯": 1559,
      "ÐµÐ½Ð½ÑĭÑħ": 1560,
      "ĠÐºÐ»Ð¸": 1561,
      "ĠÐ¾ÑģÑĤÐ°Ð½Ð¾Ð²": 1562,
      "Ð°Ð´ÑĨÐ°ÑĤÑĮ": 1563,
      "Ð°ÑİÑĤÑģÑı": 1564,
      "Ġ*": 1565,
      "ĠÐ¿Ð»ÐµÑĩ": 1566,
      "ĠÐ³ÑĥÐ±Ñĭ": 1567,
      "ĠÐºÐ¾ÑĤÐ¾ÑĢÐ°Ñı": 1568,
      "ĠÐ´ÐµÑĢÐ¶": 1569,
      "Ð»ÑıÐ´": 1570,
      "ĠÐ¸Ð¼Ðµ": 1571,
      "ĠÐ¢ÐµÐ¿ÐµÑĢÑĮ": 1572,
      "ĠÐºÐ°Ð¿": 1573,
      "ĠÐ¾ÑīÑĥÑī": 1574,
      "Ð¾Ð±Ð¾Ð´": 1575,
      "ĠÑĤÐ°ÐºÐ¾Ðµ": 1576,
      "Ð¿Ð¿": 1577,
      "ÑĢÐ¾Ð½": 1578,
      "ĠÐ¿Ð¾Ð»Ð¾Ð²": 1579,
      "ĠÑĥÑĤ": 1580,
      "Ð¾Ñī": 1581,
      "ĠÐ¡Ð¿": 1582,
      "ĠÐĺÐ½": 1583,
      "Ð»ÑģÑı": 1584,
      "ĠÐ³Ð»Ð°Ð²": 1585,
      "ĠÐĽÑİ": 1586,
      "ĠÑģÐµÑĢ": 1587,
      "ÑĳÑĢ": 1588,
      "ĠÐ´Ð°Ð»": 1589,
      "ĠÑģÐµÐ³Ð¾Ð´Ð½Ñı": 1590,
      "ĠÑįÑĤÑĥ": 1591,
      "ĠÑģÑĤÐ¾ÑĢÐ¾Ð½Ñĭ": 1592,
      "Ð½ÐµÐ²": 1593,
      "ĠÑģÐ²ÑıÐ·": 1594,
      "ĠÐĹÐ°": 1595,
      "ĠÐ¿Ñĥ": 1596,
      "ĠÐľÐ°Ð¼Ð°": 1597,
      "ĠÐ¿Ð¾Ð¿ÑĭÑĤ": 1598,
      "ĠÑģÐµÐºÑĥÐ½": 1599,
      "ÑĢÑĥÐ·": 1600,
      "ĠÐ¿Ð¾Ð»Ð½Ð¾ÑģÑĤÑĮÑİ": 1601,
      "ĠÐ´ÐµÐ»Ð¾": 1602,
      "ĠÐłÐ°Ð·": 1603,
      "ĠÐ½Ð°Ð²ÐµÑĢ": 1604,
      "ĠÐ¶Ð´": 1605,
      "ĠÑģÐ¿ÑĢÐ¾ÑģÐ¸Ð»": 1606,
      "ĠÑĪÐº": 1607,
      "ĠÐ»ÑİÐ´Ð¸": 1608,
      "Ð°ÐºÐ¾Ð¼": 1609,
      "Ð¸Ð²ÑĪÐ¸ÑģÑĮ": 1610,
      "ĠÐ¿ÑĢÐ¾ÑĨ": 1611,
      "ĠÐºÑĢÐ¸": 1612,
      "Ð½ÐµÐ¼": 1613,
      "ĠÐ½ÐµÐºÐ¾ÑĤÐ¾ÑĢ": 1614,
      "ĠÑĤÐ°ÐºÐ¶Ðµ": 1615,
      "Ð»Ð¾ÑĤ": 1616,
      "ĠÐ²ÑĭÑħÐ¾Ð´": 1617,
      "ĠÐ²Ð¾Ð·Ð¼Ð¾Ð¶": 1618,
      "ĠÑģÑĥÐ´": 1619,
      "ĠÑĥÐ³": 1620,
      "ĠÐ·Ð°ÑģÑĤÐ°Ð²": 1621,
      "ĠÐ¦": 1622,
      "Ġ19": 1623,
      "Ð¾ÑĤÑĮ": 1624,
      "ĠÐ¼Ð¾ÐµÐ³Ð¾": 1625,
      "ÑĤÐ¾ÑĢÐ°": 1626,
      "ĠÐ¿Ð°Ð»": 1627,
      "ĠÑģÑĤÐ°Ð»Ð¸": 1628,
      "ĠÐ¿ÑĢÐ¸Ñģ": 1629,
      "ÑĢÐµÑĤ": 1630,
      "Ð¸Ñī": 1631,
      "Ð½Ð°ÐºÐ¾": 1632,
      "Ð°ÑģÑĤÐ¸": 1633,
      "ĠÐķÐ³Ð¾": 1634,
      "Ð°ÐºÑĤÐ¸": 1635,
      "Ð»Ð¾Ð²": 1636,
      "ĠÐ²ÑģÐº": 1637,
      "ĠÐºÑĥÐ´Ð°": 1638,
      "ĠÑĢÐ°ÑģÑĤ": 1639,
      "Ð½Ð¸ÑĤ": 1640,
      "ÑĦÐ¾ÑĢÐ¼": 1641,
      "ĠÑģÑĤÐ¾Ð½": 1642,
      "ĠÑĢÐ°Ð·ÑĢ": 1643,
      "ĠÐĺÐ·": 1644,
      "čĊ": 1645,
      "ĠÐ±ÑĥÐ´Ñĥ": 1646,
      "ĠÐ·Ð°ÑģÑĤ": 1647,
      "ĠÐ¿ÑĢÐµÐ´Ð¿": 1648,
      "ÑıÐ»ÑģÑı": 1649,
      "ĠÐ¿ÑĢÐ¸Ð·": 1650,
      "Ð°Ð½Ñģ": 1651,
      "ÑıÑħ": 1652,
      "ĠÐºÑĢÑĥ": 1653,
      "Ð»Ð°Ð¶": 1654,
      "Ð¾Ð¶ÐµÑĤ": 1655,
      "ĠÐ¿Ð¾Ð·Ð²Ð¾Ð»": 1656,
      "ĠÐ¾Ð³": 1657,
      "ĠÐ·Ð°ÑĤÐµÐ¼": 1658,
      "ĠÐ¼Ð½Ð¾Ð³": 1659,
      "Ð¾Ð»Ð½Ðµ": 1660,
      "ĠÑģÐ°Ð¼Ð°": 1661,
      "ĠÐºÐ¾Ð¼Ð½Ð°ÑĤÑĥ": 1662,
      "ÐºÐ»ÑİÑĩ": 1663,
      "ĠÐ¿ÑıÑĤÑĮ": 1664,
      "Ð¸Ð²Ð°Ð»": 1665,
      "ĠÐ´Ð¾Ð¼Ð°": 1666,
      "ĠÐ²Ð¾ÑĪ": 1667,
      "Ð²Ð¾ÑĢ": 1668,
      "Ð°ÑĤÐ¾Ñĩ": 1669,
      "ĠÐ´Ð¾Ð²Ð¾Ð»ÑĮ": 1670,
      "ĠÑĤÐ¸Ñħ": 1671,
      "ĠÑħÐ¾ÑĤÐµÐ»": 1672,
      "Ð°Ð½Ð¸Ð¹": 1673,
      "ĠÐ¾Ð±ÑĢÐ°ÑĤ": 1674,
      "ĠÐ¸Ð¼ÐµÐ½Ð½Ð¾": 1675,
      "ĠÐ³Ð¾Ð´Ð°": 1676,
      "Ð¼Ðµ": 1677,
      "ÑĮÑİÑĤÐµÑĢ": 1678,
      "ĠÑįÑĤÐ¸Ð¼": 1679,
      "ĠÐ¶Ð¸Ð·Ð½ÑĮ": 1680,
      "Ð½Ð°Ð»": 1681,
      "ĠÑĤÑıÐ¶": 1682,
      "ĠÐ¿ÑĢÐ¾Ð¸Ñģ": 1683,
      "ĠÐ¾ÑĩÐµÑĢÐµÐ´": 1684,
      "ĠÐºÐ¾ÑĤÐ¾ÑĢÐ¾Ð¹": 1685,
      "ĠÑģÐ½Ñı": 1686,
      "ÑĤÑĥÑĢ": 1687,
      "ĠÑĤÑĥ": 1688,
      "Ð¸Ð½Ñĭ": 1689,
      "ĠÐ²Ð¸Ð´ÐµÐ»": 1690,
      "ÑįÐ½": 1691,
      "Ð´Ð¸Ð½": 1692,
      "Ð»ÐµÐ³": 1693,
      "Ð°Ð¹ÑĤÐµ": 1694,
      "ĠÑģÐ±": 1695,
      "ĠÑģÐ»Ð¾Ð¶": 1696,
      "ĠÐ´Ð°Ð»ÑĮÑĪÐµ": 1697,
      "ĠÑĢÐ°Ð·Ð´Ð²": 1698,
      "ĠÐ§ÐµÑĢ": 1699,
      "ĠÐ³Ð¾ÑĢÑı": 1700,
      "ĠÐļÐ¾Ð½": 1701,
      "Ð°Ð»ÑĮÐ½ÑĭÐµ": 1702,
      "ĠÐ¾Ð¶": 1703,
      "ĠÑĢÐ°Ð´": 1704,
      "ĠÐ¿ÑĢÐµÐ´Ð»Ð¾Ð¶": 1705,
      "ĠÐ±Ð¾": 1706,
      "Ð³Ð¾ÑĢ": 1707,
      "ÐµÑĢÑĥ": 1708,
      "ÑĢÐ°Ñĩ": 1709,
      "ĠÐ·Ð½Ð°Ð»": 1710,
      "ĠÐ¢Ð¾Ð»ÑĮÐºÐ¾": 1711,
      "ĠÐ¶ÐµÐ½ÑīÐ¸Ð½Ð°": 1712,
      "ÑĥÐ»Ñı": 1713,
      "Ð´Ð½Ð¾": 1714,
      "Ð¾Ð²Ð°ÑĢ": 1715,
      "ĠÐ²Ð°Ð½": 1716,
      "Ð½Ð°ÑĩÐ°Ð»Ð°": 1717,
      "ĠÐºÐ»Ð°Ñģ": 1718,
      "Ð¸ÑģÐº": 1719,
      "ÑģÐ»ÐµÐ´": 1720,
      "ÑıÐ»Ð¸": 1721,
      "ĠÐ´Ð¾ÑĢÐ¾Ð³": 1722,
      "ĠÐ¸ÑģÑĤÐ¾ÑĢ": 1723,
      "ÑĤÐ°ÑĤ": 1724,
      "Ð²Ð°Ð»": 1725,
      "ĠÐ´ÐµÑĢÐµÐ²": 1726,
      "ĠÑģÑĤÐ°Ð»Ð¾": 1727,
      "ĠÐ½Ð°Ð±Ð»Ñİ": 1728,
      "ĠÑĥÐ²Ð¸Ð´ÐµÐ»": 1729,
      "ÑģÑĤÑĥÐ¿": 1730,
      "ĠÑģÐ¾Ð±ÑģÑĤÐ²ÐµÐ½": 1731,
      "ĠÐ²ÐµÐ»": 1732,
      "ĠÐ¿ÑĢÐ¸ÑħÐ¾Ð´": 1733,
      "ĠÑģÐ¾Ð³Ð»Ð°Ñģ": 1734,
      "ĠÐ¿Ð°Ð»ÑĮÑĨ": 1735,
      "ĠÐ¾Ð¿ÑĥÑģÑĤ": 1736,
      "ĠÑģÑĤÐ¾ÑĢÐ¾Ð½Ñĥ": 1737,
      "Ð¸ÑĢÑĥ": 1738,
      "ĠÐ±ÐµÐ»": 1739,
      "ĠÐ½Ð¸ÐºÑĤÐ¾": 1740,
      "ÑģÑĤÐ²Ðµ": 1741,
      "Ð¸ÑĤÑĥ": 1742,
      "ÐµÑģÑĤÑĮ": 1743,
      "ÐµÑĨÐ¸": 1744,
      "Ð¾Ð»Ðµ": 1745,
      "ÑĩÐ¸Ð½Ð°": 1746,
      "ĠÐ´ÑĥÑĪ": 1747,
      "Ð°Ð½Ð½Ð¾": 1748,
      "ĠÐ±ÑĭÑģÑĤÑĢ": 1749,
      "ĠÐ´Ñĭ": 1750,
      "ĠÐ²ÑģÑĤÐ°Ð²": 1751,
      "ĠÑģÐ²ÐµÑĢ": 1752,
      "Ð°Ð½Ð¾": 1753,
      "ĠÐ·Ð°Ñħ": 1754,
      "ĠÑĤÑĭÑģÑıÑĩ": 1755,
      "ĠÐ´Ð¾Ð»Ð¶ÐµÐ½": 1756,
      "ÐµÐ·Ð´": 1757,
      "Ð¾Ð¶Ð¸Ð´": 1758,
      "Ġ'": 1759,
      "Ð¸ÑĢÐ°": 1760,
      "ĠÐ¿ÑĢÐ¾Ð½": 1761,
      "Ð¸ÐºÐ¾Ð²": 1762,
      "ĠÑģÐ»ÑĭÑĪ": 1763,
      "ĠÑĢÐµÑĪÐ¸Ð»": 1764,
      "ĠÑĢÐ°Ð±": 1765,
      "Ð°Ð½ÑĮÑĪÐµ": 1766,
      "ÑİÐ´Ð°": 1767,
      "Ð¸Ð´Ð°": 1768,
      "ĠÑģÐ¾Ð¿": 1769,
      "ĠÐ¾ÑĢÐ³Ð°Ð·": 1770,
      "ĠÑħÐ²Ð°ÑĤ": 1771,
      "ĠÑĦÐ¸Ð·": 1772,
      "ÑĤÑı": 1773,
      "ĠÐĿÐ°Ð´": 1774,
      "Ð°Ð»ÑĮÐ½Ð¾Ð¹": 1775,
      "ĠÐ¿ÑĢÐ¸Ñĩ": 1776,
      "ĠÐ¼ÐµÑĩ": 1777,
      "ĠÐ¿ÑĢÐ¾Ñĩ": 1778,
      "ĠÑĥÐ²ÐµÑĢ": 1779,
      "),": 1780,
      "ĠÐ½Ð°Ð¿ÑĢÑı": 1781,
      "ĠÐĿÐ¸Ðº": 1782,
      "ĠÑģÐ²Ð¾Ðµ": 1783,
      "ĠÐ¿Ð¾Ð´Ð¾Ð±": 1784,
      "ĠÑĤÐ¾Ð¼Ñĥ": 1785,
      "ĠÐĿÐ°ÑĤ": 1786,
      "ĠÐ´Ð¾Ð³": 1787,
      "ĠÑĢÐµÐ±": 1788,
      "Ð¾Ð»ÑĮÑĪ": 1789,
      "ĠÐºÐ¾Ð¼Ð¿ÑĮÑİÑĤÐµÑĢ": 1790,
      "Ð¾ÐºÑĢÑĥÐ³": 1791,
      "Ð¾Ð·Ñı": 1792,
      "ĠÐºÑĢÐµÐ¿": 1793,
      "Ð½ÑĥÐ²ÑĪÐ¸ÑģÑĮ": 1794,
      "ĠÐ´Ð¾Ðº": 1795,
      "ĠÐ¿ÑĢÐ¾Ð±Ð»ÐµÐ¼": 1796,
      "ÑĭÐ²Ð°Ð»Ð°": 1797,
      "ĠÑģÐ°Ð¼Ð¾Ð¼": 1798,
      "ĠÐ¿ÐµÑĢÐ²ÑĭÐ¹": 1799,
      "ĠÑĩÐ»ÐµÐ½Ð°": 1800,
      "ÑģÐºÐ¸Ñħ": 1801,
      "ĠÐ²Ð½ÑĥÑĤÑĢ": 1802,
      "ĠÑĩÐµÐ»Ð¾Ð²ÐµÑĩ": 1803,
      "ĠÑįÐ½": 1804,
      "ĠÑģÑĤÐµÐ½": 1805,
      "ĠÐ¾ÑĤÐ¿ÑĢÐ°Ð²": 1806,
      "ĠÐ¿Ð¸Ð·": 1807,
      "ĠÐ²ÑħÐ¾Ð´": 1808,
      "ĠÐ§ÐµÑĢÐµÐ·": 1809,
      "ÑĢÐµÐ´ÐµÐ»": 1810,
      "Ð½Ð¸ÑĤÑĮ": 1811,
      "Ð¾Ð·Ð¼": 1812,
      "ĠÑĤÐ¾Ð½": 1813,
      "ĠÐ¿ÑıÑĤ": 1814,
      "ĠÑįÑĤÐ¸Ñħ": 1815,
      "ĠÑĢÐ°ÑģÑģÑĤ": 1816,
      "ĠÐ¸ÑģÐ¿ÑĭÑĤ": 1817,
      "ĠÐ¿ÑĢÐµÐ²": 1818,
      "ĠÐ¾ÑĤÑģ": 1819,
      "Ð½Ð¸Ñħ": 1820,
      "ĠÑģÑĥÐ¼": 1821,
      "ĠÑģÐ¾ÑĤ": 1822,
      "ÑĤÐ¾ÑĢÑĥÑİ": 1823,
      "Ð¼ÐµÑĤ": 1824,
      "ĠÐ¿ÑĢÐ¾Ð¸ÑģÑħÐ¾Ð´": 1825,
      "ĠÐ¿ÐµÑĢÐµÐ²": 1826,
      "ĠÐ½Ð¾Ñģ": 1827,
      "ĠÑĤÑĢÐµÐ±": 1828,
      "Ð°Ð¶ÐµÑĤÑģÑı": 1829,
      "ĠÑĥÑĪ": 1830,
      "ÐºÐ¸Ð¼": 1831,
      "Ð°Ð½Ð¸ÐµÐ¼": 1832,
      "ĠÐºÑĢÐ¾Ð²Ð°ÑĤÐ¸": 1833,
      "Ð°Ð½Ð¸Ð·": 1834,
      "ÐµÑĢÐ¾Ð¼": 1835,
      "Ð½ÐµÐ³Ð¾": 1836,
      "ĠÐ·Ð°ÐºÑĢÑĭ": 1837,
      "ĠÐ¼ÐµÑģÑĤÐ¾": 1838,
      "ĠÐ¿ÑĢÐ¾Ð¿": 1839,
      "ĠÑģÐ¾ÑģÑĤÐ¾Ñı": 1840,
      "ÐºÐ°Ð¼": 1841,
      "ÑĢÑĥÐº": 1842,
      "Ð°Ð½Ð½ÑĭÐµ": 1843,
      "ÑħÐ¾": 1844,
      "ĠÐºÐ¾ÑĤÐ¾ÑĢÑĭÑħ": 1845,
      "ĠÐ½Ð°ÐºÐ¾Ð½ÐµÑĨ": 1846,
      "Ð°ÑĤÐ¾ÑĩÐ½Ð¾": 1847,
      "ÑĢÑĥÑĪ": 1848,
      "ĠÐ²ÑģÑĤÑĢÐµÑĩ": 1849,
      "ĠÐ½ÐµÐ·": 1850,
      "ĠÑĢÑĭ": 1851,
      "ÐµÐ½Ð½Ð¾Ð³Ð¾": 1852,
      "Ð°Ð³Ð¾": 1853,
      "ÑĥÑı": 1854,
      "ĠÐ¿Ð¾Ð¼Ð¾Ð³": 1855,
      "ĠÑĤÑĢÑĥÑģÐ¸ÐºÐ¸": 1856,
      "Ð¾Ð±Ñī": 1857,
      "ĠÐ¿Ð°ÑĢÑĥ": 1858,
      "ÑĨÐ¸Ñı": 1859,
      "Ð°ÑĨÐ¸Ñı": 1860,
      "ĠÑģÐ¿ÐµÑĨÐ¸": 1861,
      "ĠÐ½Ð°Ð¹": 1862,
      "ĠÐļÐ°ÑĥÐ¿ÐµÑĢÐ²ÑĥÐ´": 1863,
      "Ð²ÐµÑĢÑħ": 1864,
      "Ð¾ÑĢÑĤ": 1865,
      "ĠÑģÑĥÑīÐµÑģÑĤÐ²": 1866,
      "ĠÑģÑĭÐ½Ð°": 1867,
      "Ð³Ð¾ÑĤÐ¾Ð²": 1868,
      "ĠÐ´Ð²ÑĥÑħ": 1869,
      "Ðķ": 1870,
      "ÑĢÐ°ÑĦ": 1871,
      "ĠÐ±ÐµÑģÐ¿": 1872,
      "ĠÐŁÐ¾Ð»": 1873,
      "Ð¾ÑĩÐºÑĥ": 1874,
      "ĠÐ´ÑĢÑĥÐ³Ð°": 1875,
      "ĠÐ¼Ð¾ÑĢ": 1876,
      "ĠÐĴÑģ": 1877,
      "ĠÑģÐ»Ð¾Ð²Ð½Ð¾": 1878,
      "Ð°Ð»ÑĮÐ½ÑĭÐ¹": 1879,
      "Ð½ÑĥÑĤÑĢÐ¸": 1880,
      "ÐµÐ½Ð½ÑĭÐ¼": 1881,
      "ÑĩÐµ": 1882,
      "Ð»Ð¾Ð¼": 1883,
      "Ð¾Ð½Ð¾Ð²": 1884,
      "ÐµÐ½Ð½Ð°Ñı": 1885,
      "ĠÐºÑĥÐ¿": 1886,
      "ĠÑĤÑĥÐ´Ð°": 1887,
      "ĠÑįÑĤÐ°": 1888,
      "ĠÐ½Ð°ÑģÑĤÐ¾Ñı": 1889,
      "ĠÐ»Ð°ÑģÐº": 1890,
      "ĠÐ¼ÐµÑģÑı": 1891,
      "ĠÑĤÐ°ÐºÐ¸Ðµ": 1892,
      "ÐµÑĢÐ¾": 1893,
      "ĠÐ¼Ð¾Ð³Ð»Ð°": 1894,
      "Ð°Ð½Ð½ÑĭÐ¹": 1895,
      "ĠÑģÐ¿ÑĢÐ¾ÑģÐ¸Ð»Ð°": 1896,
      "ĠÐ²ÑĭÐ·": 1897,
      "ĠÐ²Ð¾ÑģÐ¿": 1898,
      "ĠÑįÐ»ÐµÐº": 1899,
      "ĠÐ±ÑĢÐ¾Ñģ": 1900,
      "ĠÐºÐ°Ð¶Ð´ÑĭÐ¹": 1901,
      "ĠÑĩÐ°ÑģÑĤÑĮ": 1902,
      "ÐµÐ¿ÑĤ": 1903,
      "ĠÐ´Ð¸Ð²": 1904,
      "ĠÐ¿Ð¾ÑįÑĤÐ¾Ð¼Ñĥ": 1905,
      "ĠÐ¿Ð¾Ð¹": 1906,
      "Ð¾ÑĢÐ¾ÑĤ": 1907,
      "ĠÑĤÐµÑĤ": 1908,
      "Ð¾Ð±ÑĢÐ°Ð·": 1909,
      "ĠÐ²Ð¾ÐºÑĢÑĥÐ³": 1910,
      "ĠÐ¿ÑĢÐ¸Ð¿": 1911,
      "ĠÐ¿Ð¸Ñģ": 1912,
      "Ð¾ÑĤÑı": 1913,
      "ĠÑģÐ¾Ð²ÐµÑĢÑĪÐµÐ½Ð½Ð¾": 1914,
      "ĠÐ´Ð²Ðµ": 1915,
      "ÐµÑĢÑĭ": 1916,
      "ĠÑĩÐµÑĤÑĭ": 1917,
      "ÑģÐºÐ¸Ðµ": 1918,
      "ĠÑĢÐ°Ð·ÑĥÐ¼": 1919,
      "ĠÐķÐµ": 1920,
      "ĠÑħÐ¾ÑĤÑĮ": 1921,
      "Ð½ÐµÑĤ": 1922,
      "ĠÑĤÐµÐ»Ð°": 1923,
      "ĠÐ³ÑĢÐ¾Ð¼": 1924,
      "ĠÑģÐ»ÐµÐ³": 1925,
      "ÑĨÐ¸Ð¾Ð½": 1926,
      "ĠÐ±ÑĥÐ´ÑĤÐ¾": 1927,
      "ĠÐ´Ð°Ð²Ð½Ð¾": 1928,
      "ĠÐ´Ð¾Ð²Ð¾Ð»ÑĮÐ½Ð¾": 1929,
      "ĠÐ¸Ð´Ðµ": 1930,
      "ÑĢÐ¾ÑĤÐ¸Ð²": 1931,
      "ÑĥÐ·": 1932,
      "ÑıÐ»Ð°ÑģÑĮ": 1933,
      "ĠÐĹÐ°ÑĤ": 1934,
      "ÑĢÐ°Ð³": 1935,
      "ÐµÑĤÑĢÐ¾Ð²": 1936,
      "Ð¾Ð»Ð¾": 1937,
      "Ð¸ÐºÐµ": 1938,
      "ĠÑģÐ»ÐµÐ³ÐºÐ°": 1939,
      "ÑİÑģÑĮ": 1940,
      "ĠÐ²Ð»Ð°Ð³Ð°Ð»Ð¸ÑīÐµ": 1941,
      "ĠÐ¿ÑĢÐµÐ´ÑģÑĤÐ°Ð²Ð»Ñı": 1942,
      "ĠÐĿÐ°Ð¿": 1943,
      "ĠÐ¼Ð¾Ñī": 1944,
      "ÑĭÐ²Ð°ÐµÑĤ": 1945,
      "ÑĨÐ¸Ñİ": 1946,
      "ĠÑģÐ»ÑĥÑĩÐ°": 1947,
      "ĠÑĢÐ°Ð½ÑĮÑĪÐµ": 1948,
      "ĠÐ½Ñĥ": 1949,
      "ĠÐ½Ð°ÑģÐ»": 1950,
      "ĠÐ³Ð»Ð°Ð´": 1951,
      "ĠÐ½ÐµÐ¾Ð±": 1952,
      "Ð°Ð»Ð¸Ð·": 1953,
      "ÑĢÑıÐ´": 1954,
      "Ġ5": 1955,
      "Ð°ÑĤÑĢ": 1956,
      "ĠÐ¾ÑĤÐ²ÐµÑĤÐ¸Ð»": 1957,
      "ĠÐ¼Ð¸Ð»Ð»Ð¸": 1958,
      "ĠÐ²ÑģÐ¿Ð¾Ð¼": 1959,
      "ĠÑĢÐ°Ð²Ð½Ð¾": 1960,
      "ĠÐ¸Ð½ÑģÑĤ": 1961,
      "ĠÐ²Ð°Ð¶": 1962,
      "ĠÑĢÐ°ÑģÐº": 1963,
      "ĠÐ¾ÑĢÑĥÐ¶": 1964,
      "ĠÑĤÐ°ÐºÐ¾Ð³Ð¾": 1965,
      "ĠÐ½Ð°Ð³": 1966,
      "ĠÑģÑĤÐ°Ð½": 1967,
      "Ð²Ð¸": 1968,
      "ĠÐ¿Ð¾ÑĤÐµÑĢ": 1969,
      "ĠÐ±ÑĥÐ´ÑĥÑĤ": 1970,
      "Ġ4": 1971,
      "Ð¸Ð²Ð°ÐµÑĤ": 1972,
      "ĠÐ²ÑĭÐ´": 1973,
      "ĠÐ¾ÑĤÐ»Ð¸Ñĩ": 1974,
      "ĠÐĶÐ¸Ð¼": 1975,
      "ĠÐ¿ÑĢÐµÐºÑĢÐ°Ñģ": 1976,
      "ĠÐºÑĢÐ°Ð¹": 1977,
      "ĠÐ³Ð¾ÑĢÑıÑĩ": 1978,
      "Ð»Ð¸Ð¶": 1979,
      "ĠÐ¼Ð°ÑĪÐ¸": 1980,
      "ĠÐ¢Ð¾Ð³Ð´Ð°": 1981,
      "ĠÐ¸Ð½ÑĤ": 1982,
      "ÑĩÐ°": 1983,
      "Ð·Ñı": 1984,
      "Ð¾Ð»Ð¾Ð¶": 1985,
      "ĠÑĨÐµÐ»Ð¾Ð²": 1986,
      "ĠÐĴÐ¾": 1987,
      "ĠÐ¾Ð´Ð½Ð°": 1988,
      "ĠÑĩÐµÐ»Ð¾Ð²ÐµÐºÐ°": 1989,
      "ĠÑģÐ¿Ð¸Ð½Ñĥ": 1990,
      "ĠÐ²Ð°ÑĪ": 1991,
      "Ðĳ": 1992,
      "ÑıÑĤÐµÐ»ÑĮ": 1993,
      "ĠÐ¿Ð¾Ð¿ÐºÑĥ": 1994,
      "ĠÑħÐ¾ÑĤÐµÐ»Ð¾ÑģÑĮ": 1995,
      "ÑĩÐµÑģ": 1996,
      "Ð¾Ð²Ð°Ð½Ð¸Ñı": 1997,
      "ĠÑĢÐ¾Ð´Ð¸ÑĤ": 1998,
      "ĠÑĢÐ°Ð´Ð¸": 1999,
      "Ð´Ð¾": 2000,
      "ÑĦÑĦ": 2001,
      "Ð¾Ð²Ð°Ð»Ð¸": 2002,
      "ĠÐ·Ð°ÐºÐ¾Ð½Ñĩ": 2003,
      "Ð°Ð»ÑĮÐ½ÑĭÑħ": 2004,
      "ÐµÑģÐ¿": 2005,
      "ĠÑıÐ³Ð¾Ð´": 2006,
      "ĠÐ²ÐµÑģ": 2007,
      "ĠÐ²Ð¿ÐµÑĢÐµÐ´": 2008,
      "ĠÐ¿Ð¾ÑģÑĤÐ¾Ñı": 2009,
      "ĠÑįÐ½ÐµÑĢÐ³": 2010,
      "Ð¾Ð½Ñĭ": 2011,
      "ĠÐ¶ÐµÐ½Ñī": 2012,
      "ĠÑģÐ´ÐµÐ»Ð°Ð»": 2013,
      "ĠÐ¸Ð½ÑĦÐ¾ÑĢÐ¼": 2014,
      "ÑĢÐ°Ð»": 2015,
      "ÐµÑģÑĤÐ½Ð¾": 2016,
      "ÑģÑĤÐ°Ð»": 2017,
      "Ð°ÐºÑģ": 2018,
      "ÑĢÐ°ÑĤÑĮ": 2019,
      "Ð¾Ð»Ð°": 2020,
      "ĠÐ±ÐµÑĢ": 2021,
      "ĠÑĢÐ°Ð·Ð¼": 2022,
      "ĠÐ¼Ð¾Ð³ÑĥÑĤ": 2023,
      "ĠÐºÐ½Ð¸": 2024,
      "ÐĽ": 2025,
      "ĠÐ±Ð¾Ð»ÑĮÑĪÐ¾Ð¹": 2026,
      "ĠÐ´ÐµÐ»Ðµ": 2027,
      "ÑĢÐ¸Ðº": 2028,
      "ĠÐ²Ð²ÐµÑĢÑħ": 2029,
      "Ð°Ð½Ð½ÑĭÑħ": 2030,
      "Ð¸ÑĢÐ¾Ð²Ð°ÑĤÑĮ": 2031,
      "Ð²Ñĭ": 2032,
      "Ð·Ð¸": 2033,
      "ĠÐºÐ¾Ð»ÐµÐ½Ð¸": 2034,
      "ĠÐĹÐ°ÑĤÐµÐ¼": 2035,
      "ĠÐ²Ð·ÑıÐ»": 2036,
      "Ð²Ð¾Ð·": 2037,
      "ĠÐ½Ð°ÑĥÑĩ": 2038,
      "ĠÑģÐ¾Ðº": 2039,
      "ĠÐ½Ð¾Ð¶": 2040,
      "ĠÐŁÐ¾Ñĩ": 2041,
      "ĠÑĢÐ°Ð·Ð±": 2042,
      "Ð½ÑĥÐ»Ð¸": 2043,
      "ÐµÐ»ÑĮÐ·Ñı": 2044,
      "ĠÐ´ÐµÐ»Ð°": 2045,
      "ĠÐ¼Ð¾Ð¸Ñħ": 2046,
      "Ð¾Ð±Ð¾Ð¹": 2047,
      "ĠÐ½ÐµÐ¼Ñĥ": 2048,
      "Ð½Ð¸ÑĨÐ°": 2049,
      "ĠÐ»ÑİÐ±Ð¾Ð²": 2050,
      "ĠÐºÑĥÑĢ": 2051,
      "Ð±Ñĭ": 2052,
      "ÑĢÐµÐ¶": 2053,
      "ĠÑģÐ²Ð¾Ð±Ð¾Ð´": 2054,
      "ĠÑĤÐ¾ÑĩÐ½Ð¾": 2055,
      "ÑĪÑĥÑİ": 2056,
      "ĠÐ½ÐµÐ¾Ð¶Ð¸Ð´": 2057,
      "ĠÐ¼Ð¾Ð´": 2058,
      "Ð°Ð½Ñı": 2059,
      "ĠÑĥÑģÐ»ÑĭÑĪ": 2060,
      "Ð»Ð¸Ð²Ð¾": 2061,
      "Ð³Ð½Ð¾Ð²": 2062,
      "ĠÐ¼ÐµÐ½": 2063,
      "ĠÐ»Ð¸Ñĩ": 2064,
      "ÑĤÐ°ÐºÐ¸": 2065,
      "ĠÐ´Ð²Ð¸Ð¶ÐµÐ½Ð¸Ñı": 2066,
      "ĠÐºÐ¾Ð½ÑĤÑĢ": 2067,
      "ÐºÐ½ÑĥÐ»": 2068,
      "Ð¼Ð¾": 2069,
      "Ð°Ð²ÑĪÐ¸ÑģÑĮ": 2070,
      "Ð¸Ð½Ð¾Ð²": 2071,
      "ĠÐ½Ð¸Ð¼Ð¸": 2072,
      "ĠÐºÑĢÐ¾Ð²Ð°ÑĤÑĮ": 2073,
      "Ð¸ÐºÐ¾Ð¼": 2074,
      "ĠÐ½Ð°Ð±Ð»ÑİÐ´": 2075,
      "ĠÐ¾ÑĤÑĩ": 2076,
      "ĠÐ¾Ð¿ÑĭÑĤ": 2077,
      "ĠÐ¾Ð´Ð½Ð¾Ð³Ð¾": 2078,
      "ÐµÐ½Ð½Ð¾Ðµ": 2079,
      "ÐµÑĢÐ½Ð¾": 2080,
      "ĠÐ¾ÑĤÐ½Ð¾ÑĪ": 2081,
      "ĠÐ¾Ð±ÑĬÑıÑģ": 2082,
      "ĠÐ¼Ð°ÑģÑģ": 2083,
      "ĠÐ¿Ð¾ÑĩÑĥÐ²ÑģÑĤÐ²Ð¾Ð²Ð°Ð»": 2084,
      "ĠÐ³Ð¾Ð»Ð¾Ð²Ð¾Ð¹": 2085,
      "\\\\\\": 2086,
      "ĠÐ¼ÐµÐ½ÑĮ": 2087,
      "ĠÐĿÐ°Ðº": 2088,
      "?!": 2089,
      "Ð½ÑĥÑĤÑĮÑģÑı": 2090,
      "ĠÑıÐ·ÑĭÐº": 2091,
      "ÑĥÐ»ÑĮÑĤÐ°ÑĤ": 2092,
      "ĠÑģÑĤÐ°Ð½Ð¾Ð²": 2093,
      "Ð¾ÑĢÐ¾": 2094,
      "ÐµÐ½Ð¸Ñģ": 2095,
      "ĠÑĤÐµÐ¿": 2096,
      "ĠÑĪÐ°Ð³": 2097,
      "ĠÑĢÐ°Ð·Ð³Ð¾Ð²Ð¾ÑĢ": 2098,
      "ÑģÐ¾Ð»": 2099,
      "ÑĪÐ¸Ð±": 2100,
      "ĠÐ¼ÑıÐ³": 2101,
      "ĠÐ¿ÑĥÑģÑĤ": 2102,
      "ĠÐ¿Ð¾ÑĤÑĢ": 2103,
      "ÑģÑĤÐ°": 2104,
      "ĠÐ´Ð¾ÑģÑĤÐ°ÑĤÐ¾ÑĩÐ½Ð¾": 2105,
      "Ð½Ð¸Ð»": 2106,
      "Ð°ÑĢÑĮ": 2107,
      "ĠÐ¡ÐµÑĢ": 2108,
      "ĠÑģÐ»Ð¾Ð²Ð°": 2109,
      "ĠÐ¼Ð°Ð»ÑĮÑĩÐ¸": 2110,
      "Ð¾Ð´Ð°": 2111,
      "ĠÐ²Ð·Ð´": 2112,
      "Ð½Ð¾Ð²ÑĮ": 2113,
      "ĠÐ±Ð¾Ð³": 2114,
      "Ð¾ÑģÐ¿": 2115,
      "ÑģÑĭ": 2116,
      "ĠÐ¿Ð¾ÑģÑĤÐ°Ð²": 2117,
      "Ð¼Ð¾Ñģ": 2118,
      "ĠÑĤÐ¾Ð±Ð¾Ð¹": 2119,
      "ĠÐ¸Ð·Ð¼ÐµÐ½": 2120,
      "ÐµÑı": 2121,
      "ĠÐ´ÐµÐ¹ÑģÑĤÐ²Ð¸ÑĤÐµÐ»ÑĮÐ½Ð¾": 2122,
      "ĠÐ´Ð¾Ð¼Ð¾Ð¹": 2123,
      "ĠÑĨÐµÐ½ÑĤ": 2124,
      "ÐµÐºÑĤ": 2125,
      "Ð°Ð²Ð»Ñı": 2126,
      "ÑĢÐµÐ¼ÐµÐ½Ð½Ð¾": 2127,
      "ĠÐ¼Ð³Ð½Ð¾Ð²": 2128,
      "ÑħÑĥ": 2129,
      "Ð°ÑĨÐ¸Ñİ": 2130,
      "ĠÑĤÐ°ÐºÐ¸Ð¼": 2131,
      "ĠÑĥÑĤÑĢ": 2132,
      "ĠÐ¼Ð¾Ð³Ð»Ð¸": 2133,
      "Ð´Ð²Ð°": 2134,
      "ÐµÑĩÑĮ": 2135,
      "ĠÑģÑĤÐ¾Ð¸ÑĤ": 2136,
      "Ð½Ð°ÑĢÑĥÐ¶": 2137,
      "Ð¾ÑĢÐ²": 2138,
      "ĠÑħÐ¾ÑĩÐµÑĪÑĮ": 2139,
      "ĠÑĥÐ¿ÑĢÐ°Ð²": 2140,
      "ĠÐ¿Ð¾ÑģÑĤÐ¾ÑıÐ½": 2141,
      "ĠÐ¡ÐµÐ¹ÑĩÐ°Ñģ": 2142,
      "Ð°ÑİÑģÑĮ": 2143,
      "ĠÐºÑĢÐ°ÑģÐ¸Ð²": 2144,
      "ĠÐ±Ð¾Ñı": 2145,
      "ÑĨÐ¾Ð²": 2146,
      "ĠÐ¾ÑģÐ²": 2147,
      "ĠÑģÑĤÐ¾ÑıÐ»": 2148,
      "ĠÐŀÐ´Ð½Ð°ÐºÐ¾": 2149,
      "ĠÑģÐ¿ÑĥÑģÑĤ": 2150,
      "ĠÑĪÑĤ": 2151,
      "ĠÐ²ÑģÐµÐ¹": 2152,
      "Ð»ÐµÐ¹": 2153,
      "ÑĨÐµÐ½": 2154,
      "ĠÐ¶ÐµÐ½ÑīÐ¸Ð½Ñĭ": 2155,
      "ĠÑĤÑĢÑĥÐ´": 2156,
      "ĠÐ¼Ð¾Ð·": 2157,
      "ĠÐºÐ¾ÑĤÐ¾ÑĢÑĥÑİ": 2158,
      "ĠÐ·Ð´Ð¾ÑĢÐ¾Ð²": 2159,
      "ĠÐ½ÐµÐ¾Ð±ÑħÐ¾Ð´": 2160,
      "Ð¸ÑģÑģ": 2161,
      "ĠÑģÐ»ÑĥÑĩÐ°Ðµ": 2162,
      "ĠÐ¾Ð´Ð½Ð¾": 2163,
      "ĠÐ¾Ð·": 2164,
      "ÑİÑĤÑģÑı": 2165,
      "ĠÐ·Ð½Ð°Ñĩ": 2166,
      "ĠÐºÐ°Ð±": 2167,
      "ĠÐ±ÑĭÐ²": 2168,
      "ĠÐºÐ°ÐºÐ¸Ðµ": 2169,
      "Ð½ÑĥÐ»Ð¸ÑģÑĮ": 2170,
      "ĠÐĳÑĭ": 2171,
      "ĠÐºÐ°Ñĩ": 2172,
      "ĠÑĩÐµÑĤ": 2173,
      "Ð°Ð½Ðµ": 2174,
      "ĠÐ½Ð°ÑĪÐ¸": 2175,
      "Ð°ÑĤÐ°": 2176,
      "ĠÐ¾Ð±ÑĢÐ°Ð·Ð¾Ð¼": 2177,
      "Ð¾ÑĤÑĢÑı": 2178,
      "ÑģÑĤÐ²Ð¾Ð¼": 2179,
      "ĠÐ²ÑģÑĤÐ°Ð»": 2180,
      "ĠÐ²Ð¾Ð»Ð¾ÑģÑĭ": 2181,
      "Ð¾ÑĢÐ¾Ð¶Ð½Ð¾": 2182,
      "ĠÐ¿Ð¾Ð¶Ð°Ð»": 2183,
      "ĠÑģÐ´": 2184,
      "ĠÐ¾Ð´Ð½Ñĥ": 2185,
      "ÑĪÐ¸Ð¼": 2186,
      "ĠÐĶÐ°Ð²": 2187,
      "ĠÑģÐ»ÑĥÑĩÐ°Ð¹": 2188,
      "ĠÐ¿ÐµÑĢÐµÑģÑĤ": 2189,
      "ĠÐ¿Ð¾ÑĢÑıÐ´": 2190,
      "ĠÑģÐºÐ°Ð¶": 2191,
      "ĠÐ·ÑĢ": 2192,
      "ÑĪÐµÐµ": 2193,
      "Ð¸Ð»ÑĮÐ½Ð¾": 2194,
      "ĠÐ´Ð¾Ð²": 2195,
      "ĠÐ´ÑĢÑĥÐ³Ð¸Ñħ": 2196,
      "Ð¿ÐµÑĢ": 2197,
      "ĠÐ·Ð½Ð°ÐºÐ¾Ð¼": 2198,
      "Ð¸ÐµÐ¼": 2199,
      "ÑĢÐ¾Ð´Ðµ": 2200,
      "ĠÐ²Ð½ÑĥÑĤÑĢÐ¸": 2201,
      "ĠÐ½ÐµÐ±Ð¾Ð»ÑĮÑĪ": 2202,
      "ĠÐ¡Ð°Ð¼": 2203,
      "Ð°Ð´Ð½Ð¾": 2204,
      "ĠÐĶÐµÐ²": 2205,
      "Ð£": 2206,
      "ÐĶÐ°": 2207,
      "ĠÐ´Ð½Ñı": 2208,
      "ĠÐ»Ð¾Ð±": 2209,
      "ĠÐ²Ð½Ð¾Ð²ÑĮ": 2210,
      "ÐµÐ»Ñİ": 2211,
      "Ðĵ": 2212,
      "ĠÐ¾Ð¿ÑĢÐµÐ´ÐµÐ»": 2213,
      "Ð¾Ð»ÑĮÐºÑĥ": 2214,
      "ĠÑģÑĭÐ½": 2215,
      "ĠÐ²Ð·ÑıÐ»Ð°": 2216,
      "Ð²ÐµÑĢÐ´": 2217,
      "ĠÑĤÐ°ÐºÐ¸Ñħ": 2218,
      "ĠÐ¿ÑĢÐ¸ÑĪÐ»Ð¾ÑģÑĮ": 2219,
      "ĠÑģÐºÐ¾Ð»ÑĮÐºÐ¾": 2220,
      "Ð¾ÑĪÐ»Ð¾": 2221,
      "Ð°Ð»ÑĮÐ½Ð¾Ð³Ð¾": 2222,
      "Ð½Ð¾Ð»Ð¾Ð³": 2223,
      "ĠÑģÐ°Ð¼Ð¾Ðµ": 2224,
      "ĠÐºÐ¸Ð²": 2225,
      "Ð°Ð½Ð¸Ñİ": 2226,
      "ÑĥÑĤÑģÑĤÐ²": 2227,
      "Ð°ÑİÑīÐ¸Ð¹": 2228,
      "ĠÐļÐ¾Ð½ÐµÑĩÐ½Ð¾": 2229,
      "ĠÐ¿ÑĢÐ¸Ð»": 2230,
      "ĠÐ¿Ð»Ð¾ÑĤ": 2231,
      "ĠÑģÐ¾Ð¾Ð±Ñī": 2232,
      "ĠÑıÐ²Ð»Ñı": 2233,
      "ĠÐ·Ð°Ð¼ÐµÑĤÐ¸Ð»": 2234,
      "ĠÐ¾ÐºÐ¾Ð»Ð¾": 2235,
      "ĠÐ¿Ð¾Ð¿ÑĢÐ¾Ñģ": 2236,
      "ĠÐ´Ð¾Ð¿": 2237,
      "ĠÑģÐ¿Ð¾ÐºÐ¾Ð¹": 2238,
      "ÑĢÐ°Ð´": 2239,
      "Ð¼Ð¾ÑĤÑĢ": 2240,
      "ÑĩÐµÐ¼": 2241,
      "ĠÐ¢ÑĥÑĤ": 2242,
      "ĠÐ´Ð¾Ð»Ð¶Ð½Ñĭ": 2243,
      "ĠÑģÐ»Ð°Ð´": 2244,
      "ÐŃ": 2245,
      "ĠÐ¿Ð¾ÑĨÐµÐ»Ð¾Ð²": 2246,
      "ÑĩÐ°Ð»": 2247,
      "ÑıÑĤÑģÑı": 2248,
      "ĠÐºÑĢÑĥÐ¿": 2249,
      "ÑĢÐµÐ½": 2250,
      "ĠÐĴÐ¿": 2251,
      "ĠÐ½Ð°ÑĩÐ¸Ð½Ð°": 2252,
      "ĠÐ·Ð½Ð°ÑĩÐ¸ÑĤ": 2253,
      "ĠÐ²Ð¾Ð·Ð¼Ð¾Ð¶Ð½Ð¾": 2254,
      "ĠÐ¿ÑĢÐ¾ÑħÐ¾Ð´": 2255,
      "ĠÐ¼Ð¾Ð½": 2256,
      "ÑģÑĥÐ´": 2257,
      "ÑĢÐ¸Ð¼": 2258,
      "ĠÐ¡ÐµÑĢÐ³": 2259,
      "ĠÐ¼Ð°Ð»Ð¾": 2260,
      "ĠÐ¾ÑĤÐµÑĨ": 2261,
      "ĠÐ±Ð»Ð°Ð³": 2262,
      "ÐµÐ½ÑĤÐ¾Ð²": 2263,
      "ÑĩÐ¸Ð½": 2264,
      "ĠÑĤÑĢÑĥÑģÑĭ": 2265,
      "Ð¸ÑĩÐµ": 2266,
      "ÐµÐ´Ð¸Ð½": 2267,
      "ĠÑĨÐ²ÐµÑĤ": 2268,
      "Ð½Ð¸Ð¸": 2269,
      "Ð°ÑĤÑĥ": 2270,
      "ĠÑĩÐ°ÑģÑĤÐ¾": 2271,
      "ĠÐ´Ð»Ð¸Ð½": 2272,
      "ĠÐ²ÑĤÐ¾ÑĢÐ¾Ð¹": 2273,
      "ĠÑģÐ²Ð¾Ð¸Ð¼Ð¸": 2274,
      "Ð¾Ð»ÐµÑĤ": 2275,
      "ĠÐ¡ÑĤÐ°Ñģ": 2276,
      "Ð¾Ð²Ð¾Ð¹": 2277,
      "ĠÐĶÐ°Ð¶Ðµ": 2278,
      "ĠÑĩÑĥÐ´": 2279,
      "ÑĥÑİÑĤ": 2280,
      "ĠÐ²ÑĭÑģÐ¾Ðº": 2281,
      "**": 2282,
      "ĠÐ¿ÑĢÐ¾Ð¼ÐµÐ¶": 2283,
      "ĠÐºÐ¾ÑĤÐ¾ÑĢÐ¾Ð³Ð¾": 2284,
      "ĠÐ²ÑĢÐµÐ¼ÐµÐ½": 2285,
      "ĠÐķÑīÐµ": 2286,
      "ĠÐ¢ÐµÐ¼": 2287,
      "ĠÐ¿ÐµÑĢÐµ": 2288,
      "ĠÐ¿Ð¾Ð¼Ð¾Ñī": 2289,
      "ĠÐµÐ±": 2290,
      "ĠÐ´Ñĥ": 2291,
      "ĠÐµÐ´Ð¸Ð½": 2292,
      "Ð»ÐµÐºÑģ": 2293,
      "ĠÑĢÐµÐ·ÑĥÐ»ÑĮÑĤÐ°ÑĤ": 2294,
      "ĠÑĤÐ°ÐºÐ°Ñı": 2295,
      "ĠÑıÐ·ÑĭÐºÐ¾Ð¼": 2296,
      "ĠÐ´ÐµÑģÑıÑĤÑĮ": 2297,
      "Ð¾Ð±ÑĢÐ°Ð¶": 2298,
      "ĠÐºÐ¾Ð¶": 2299,
      "!\"": 2300,
      "ĠÑĪÐ¸ÑĢ": 2301,
      "ĠÑħÑĥÐ¹": 2302,
      "ÑĢÑĥÐ´": 2303,
      "ÑĭÐ²Ð°Ð»Ð¸": 2304,
      "ÑģÐ»Ð°Ð±": 2305,
      "ĠÑģÐ¸Ð»ÑĮÐ½ÐµÐµ": 2306,
      "Ð°ÑİÑīÐ¸Ðµ": 2307,
      "ÑĢÐµÐ·": 2308,
      "ĠÐ±Ð»Ð¸Ð·": 2309,
      "Ð°ÑĢÐ¸": 2310,
      "ĠÐ¼Ð¾Ðº": 2311,
      "ĠÐ´ÑĥÐ¼Ð°Ñİ": 2312,
      "ĠÐ¼ÐµÐ½ÐµÐµ": 2313,
      "ĠÐ½ÐµÐ»ÑĮÐ·Ñı": 2314,
      "ĠÐ¿ÑĢÐ¸ÑıÑĤÐ½Ð¾": 2315,
      "Ð°ÐµÑĤÐµ": 2316,
      "ÑĭÑģ": 2317,
      "ÐºÐ¸Ð²": 2318,
      "ĠÑħÐ¾Ð»Ð¾Ð´": 2319,
      "Ð²Ð¾Ð·ÑĮ": 2320,
      "Ð°ÐºÑĤ": 2321,
      "ĠÐºÐ¾Ð³Ð¾": 2322,
      "Ð¾Ð»Ð½Ñı": 2323,
      "ĠÐĹÐµÐ¼": 2324,
      "ĠÐ½Ð°ÑĪÐµÐ¹": 2325,
      "ĠÑģÐ¾Ð±Ð¸ÑĢ": 2326,
      "ĠÐ²ÐºÐ»ÑİÑĩ": 2327,
      "ĠÑįÑĤÐ¾Ð¼Ñĥ": 2328,
      "ĠÐ½Ð°ÑģÐ»Ð°Ð¶Ð´": 2329,
      "ĠÐ¾Ð½Ð¾": 2330,
      "ĠÐ²Ð¾Ð²": 2331,
      "ÑĩÐ¾Ð½": 2332,
      "Ð½Ð¸ÑĨÑĥ": 2333,
      "ĠÐĶÐ²": 2334,
      "ĠÐ¿ÑĢÐµÐ¶": 2335,
      "ĠÑĢÐ°Ð±Ð¾ÑĤÑĭ": 2336,
      "Ð¾ÑģÑĤÑĮÑİ": 2337,
      "ĠÐ·Ð°ÑĪ": 2338,
      "Ð¾Ð·Ð¼Ð¾Ð¶Ð½Ð¾": 2339,
      "ĠÐºÐ»Ð°ÑģÑģ": 2340,
      "ĠÐ¿Ð¾Ð½ÑĢÐ°Ð²": 2341,
      "ĠÐ°Ð½Ñĥ": 2342,
      "ĠÐºÐ»Ð¸ÑĤÐ¾ÑĢ": 2343,
      "ĠÐºÐ°Ð·Ð°Ð»Ð¾ÑģÑĮ": 2344,
      "ĠÑģÐ¾Ð»": 2345,
      "ĠÐ³Ð»Ð°Ð·Ð°Ð¼Ð¸": 2346,
      "ĠÑģÐµÑģÑĤÑĢÐ°": 2347,
      "ĠÑģÑħÐ²Ð°ÑĤ": 2348,
      "Ð°ÑĢÐ°": 2349,
      "ÑĢÐ¾ÑĩÐµÐ¼": 2350,
      "ĠÐ¸ÑģÑģÐ»ÐµÐ´": 2351,
      "Ð¾Ð½Ðµ": 2352,
      "ĠÑģÐ¼Ð¾ÑĤÑĢÐµÐ»": 2353,
      "ĠÐ´ÐµÑģÑıÑĤ": 2354,
      "ĠÑĩÐ¸ÑĤ": 2355,
      "ĠÐ¾Ð¿Ð°Ñģ": 2356,
      "ĠÐĿÐ°ÐºÐ¾Ð½ÐµÑĨ": 2357,
      "ĠÐ¥Ð¾ÑĤÑı": 2358,
      "ĠÐŀÐº": 2359,
      "Ð¾Ð´Ð°ÑĢ": 2360,
      "ÑĥÑĪÐºÐ°": 2361,
      "ĠÑģÐ°Ð¼Ð¾Ð³Ð¾": 2362,
      "ĠÑħÐ°Ð»": 2363,
      "ĠÐ¿ÑĢÐ¸ÑıÑĤ": 2364,
      "ĠÐ¿ÑĢÐ¾Ðº": 2365,
      "ĠÐ¢Ð°Ð¼": 2366,
      "ĠÐ¢Ð¾": 2367,
      "ĠÐ¿Ð¾ÑģÐ¼Ð¾ÑĤÑĢÐµÐ»": 2368,
      "ĠÐ¼Ð¾Ðµ": 2369,
      "ÑįÑĢ": 2370,
      "ĠÐ½Ð°Ð»": 2371,
      "ĠÐ°Ð±": 2372,
      "Ð°Ð»ÑĮÐ½Ð¾Ðµ": 2373,
      "ÐµÑĩÐ°ÑĤ": 2374,
      "ĠÐĶÐ»Ñı": 2375,
      "ĠÐ²Ð¸Ð´Ðµ": 2376,
      "ĠÐ¿Ð¾Ð»Ñĥ": 2377,
      "ÑıÑĤÑĮÑģÑı": 2378,
      "ĠÐ¾ÑĤÐ²ÐµÑĢ": 2379,
      "Ð¸Ð²Ð°Ð»Ð°": 2380,
      "ĠÑģÐ¾Ð·Ð½": 2381,
      "ĠÐ¼Ð¸ÑĢÐµ": 2382,
      "ĠÑĢÐ°Ð·Ð¼ÐµÑĢ": 2383,
      "ÑĥÐµÐ¼": 2384,
      "ĠÐºÑĢÑĥÐ³": 2385,
      "Ð°ÐºÑĤÐ¸ÑĩÐµÑģÐºÐ¸": 2386,
      "Ð¸ÑĨÑĭ": 2387,
      "ĠÑģÐ½Ð°ÑĩÐ°Ð»Ð°": 2388,
      "ĠÑĤÐµÑħÐ½Ð¾Ð»Ð¾Ð³": 2389,
      "ĠÑģÐ½Ð¸Ð¼": 2390,
      "ĠÑģÑİÐ´Ð°": 2391,
      "ĠÑħÐ¾ÑĢÐ¾ÑĪ": 2392,
      "ĠÐºÐ²Ð°ÑĢ": 2393,
      "ĠÐ½ÐµÑģ": 2394,
      "ÐĹ": 2395,
      "Ð½Ð¾Ð²ÑĢÐµÐ¼ÐµÐ½Ð½Ð¾": 2396,
      "ÐµÐ¼Ð¾Ð½": 2397,
      "ĠÐºÐ¾Ð½ÑĨÐµ": 2398,
      "Ġ6": 2399,
      "ĠÐºÐ¸Ñģ": 2400,
      "ĠÐ±Ð°Ð½": 2401,
      "ĠÐºÐ¾ÑĢÐ¾ÑĤ": 2402,
      "ĠÑģÐ¿ÐµÑĢÐ¼Ñĭ": 2403,
      "ĠÐ²Ð¾Ð·Ð²": 2404,
      "ĠÑģÐ¸Ð»Ñĭ": 2405,
      "ĠÑĢÑĥÐºÐ°": 2406,
      "ĠÑģÐµÐºÑģÑĥ": 2407,
      "ĠÐ²Ð¿Ð¾Ð»Ð½Ðµ": 2408,
      "ÑĢÑĭÑĤ": 2409,
      "ĠÑĢÐ¾Ð±": 2410,
      "ĠÐ±Ð¾ÑĢ": 2411,
      "?\"": 2412,
      "ĠÑģÐºÐ¾Ð»ÑĮÐ·": 2413,
      "ĠÐ¿ÑĢÐ¸Ð³": 2414,
      "ĠÐ¿Ð¾Ð²ÑĤÐ¾ÑĢ": 2415,
      "ĠÐ¿Ð¾Ð´ÑħÐ¾Ð´": 2416,
      "ĠÑįÐ»ÐµÐºÑĤÑĢ": 2417,
      "âĢ¦.": 2418,
      "ÐµÐ»Ð¸Ñĩ": 2419,
      "ĠÐ²Ð¾Ð·Ð´Ñĥ": 2420,
      "Ð´ÐµÑĢ": 2421,
      "ĠÐ·Ð°Ð´ÑĥÐ¼": 2422,
      "ĠÑĤÐ°": 2423,
      "ÑĥÐºÐ¸": 2424,
      "ÑĢÐ¾Ð¹": 2425,
      "Ð¾ÑģÑĤÐ¾": 2426,
      "ĠÐºÐ¸Ð»": 2427,
      "ĠÑİÐ±": 2428,
      "ĠÐ¿ÑĢÐ¸ÐºÐ°Ð·": 2429,
      "Ð§": 2430,
      "ĠÐµÐ´Ð²Ð°": 2431,
      "ĠÑĥÐ»Ð¸": 2432,
      "ĠÐ²ÑģÑĤÑĢÐµÑĤ": 2433,
      "ĠÐºÑĢÐµÑģ": 2434,
      "ĠÐ¾ÑĪÐ¸Ð±": 2435,
      "ĠÐ±Ð¾Ðº": 2436,
      "ÐºÑĥÐ´Ð°": 2437,
      "ĠÐ¿Ð¾Ð»ÑĮÐ·": 2438,
      "ĠÐ´ÑĥÐ¼Ð°Ð»": 2439,
      "ĠÐ»ÐµÑģ": 2440,
      "Ð¸Ð²Ð°Ð»Ð¸": 2441,
      "ĠÐ½Ð¾ÑĢÐ¼": 2442,
      "ĠÐ¼Ð°ÑģÑĤ": 2443,
      "ĠÐ´ÑĢÐ¾Ñĩ": 2444,
      "Ð±Ð°": 2445,
      "ĠÑĥÐºÐ°Ð·": 2446,
      "ĠÐ±Ð°Ð±": 2447,
      "ĠÑĤÐ¸ÑħÐ¾": 2448,
      "ĠÐ¿Ð¾Ð¿ÑĢÐ¾Ð±": 2449,
      "ÑıÐ½ÑĥÐ»": 2450,
      "ĠÐ¸Ð·Ð±": 2451,
      "ĠÐ¼ÑĭÑģÐ»Ð¸": 2452,
      "ĠÐ¼ÑĭÑģÐ»": 2453,
      "ĠÑģÐ°Ð¼Ð¸": 2454,
      "ĠÐ¼ÐµÐ»": 2455,
      "ĠÐ´ÑĢÑĥÐ³Ð¸Ðµ": 2456,
      "ĠÑģÐµÑĢÑĮ": 2457,
      "ÑĤÐ¸Ð½": 2458,
      "ĠÐ¼ÐµÐ½ÑĮÑĪÐµ": 2459,
      "ĠÑģÐ¸ÑĤÑĥ": 2460,
      "Ð½Ð¾Ñģ": 2461,
      "ÑģÑıÑĤ": 2462,
      "ĠÑģÐ»Ð°Ð±": 2463,
      "ĠÐºÐ°Ð¶ÐµÑĤÑģÑı": 2464,
      "ĠÐľÐ¾Ð¶ÐµÑĤ": 2465,
      "ÑĥÑİÑīÐ¸Ð¹": 2466,
      "ĠÐºÐ¾ÑĤÐ¾ÑĢÐ¾Ðµ": 2467,
      "ĠÐ½ÐµÑĩ": 2468,
      "ĠÐºÑĥÑħ": 2469,
      "ĠÐºÐ¾Ð¼Ð½Ð°ÑĤÐµ": 2470,
      "Ð¾Ð³ÑĢÐ°ÑĦ": 2471,
      "ĠÐ¼Ð°Ð¼Ñĥ": 2472,
      "ĠÑħÐ¾Ð·Ñı": 2473,
      "Ð¾ÑĤÐ°": 2474,
      "ĠÐŁÐµÑĢÐ²": 2475,
      "ĠÑĩÐ¸ÑģÑĤ": 2476,
      "ĠÐ¾ÑĤÐºÑĢÑĭÐ²": 2477,
      "Ð¸Ð²Ð°ÑĤÑĮÑģÑı": 2478,
      "ÑģÐ¸": 2479,
      "Ð±Ñĥ": 2480,
      "ĠÐ¿ÑĢÐ¾ÑģÑĤÑĢÐ°Ð½": 2481,
      "ĠÑĢÐµÐ·ÐºÐ¾": 2482,
      "ÑĭÐº": 2483,
      "ĠÐ¼ÐµÑģÑĤÐµ": 2484,
      "Ð»ÑĥÑĪ": 2485,
      "ĠÐ´ÐµÐ²ÑĥÑĪÐºÐ°": 2486,
      "ÑģÑĤÐµÐ¹": 2487,
      "ĠÐ¿Ð°Ð»ÐµÑĨ": 2488,
      "ĠÐ³ÑĢÑĥÐ¿Ð¿": 2489,
      "ĠÐĵÐ»Ð°Ð²": 2490,
      "ĠÐ¿Ð¾Ð´ÑĢÑĥÐ³": 2491,
      "ĠÐ¿Ð¸ÑģÑĮ": 2492,
      "Ð½Ð¸ÑĨÑĭ": 2493,
      "ĠÐ¾Ð±Ð½Ð°ÑĢÑĥÐ¶": 2494,
      "ĠÐ¿Ð¾ÑĨÐµÐ»": 2495,
      "ĠÑģÐµÑĢÐ´": 2496,
      "Ð°Ð½Ð½Ð¾Ð¹": 2497,
      "ĠÑıÐ²Ð½Ð¾": 2498,
      "ĠÐŁÐ¾ÑįÑĤÐ¾Ð¼Ñĥ": 2499,
      "Ð»Ð°ÑĤ": 2500,
      "Ð¾Ð²Ð°Ð½Ð¸Ðµ": 2501,
      "ĠÑģÑĤÐ°ÑĢÑĥ": 2502,
      "ÐµÐ½ÐµÑĢ": 2503,
      "ĠÑĢÐ°Ð½": 2504,
      "ĠÐ¸Ð½Ð¾Ð³Ð´Ð°": 2505,
      "ÑģÐ¾Ð½": 2506,
      "ĠÑĢÑĥÐ±": 2507,
      "!!!": 2508,
      "Ð¾Ð¼Ðµ": 2509,
      "ĠÐ²ÑĭÑĪÐµÐ»": 2510,
      "ĠÐ¾ÑĤÐºÐ°Ð·": 2511,
      "ĠÐ¾ÑģÐ¾Ð±ÐµÐ½Ð½Ð¾": 2512,
      "ĠÐŃÐ¹": 2513,
      "ÑĢÑıÑģ": 2514,
      "ĠÐ»ÐµÐ³ÐºÐ¾": 2515,
      "ĠÐ¾Ð¶Ð¸Ð´": 2516,
      "ĠÐ½Ð°Ð¼Ð¸": 2517,
      "ÑĦÐµÑģÑģ": 2518,
      "ÐºÐ¸Ð¼Ð¸": 2519,
      "ĠÐľÐ¾Ð¹": 2520,
      "ÑĨÐ¸Ð¿": 2521,
      "ĠÑĩÐ°ÑģÐ¾Ð²": 2522,
      "ĠÐ¿ÐµÑĢÐµÐ¼": 2523,
      "ĠÑĥÐ¶Ð°Ñģ": 2524,
      "ĠÐ¼Ð°Ñģ": 2525,
      "ĠÑĤÐ¸Ð¿": 2526,
      "ĠÑĢÐ°Ð·Ð²Ð¸ÑĤ": 2527,
      "ĠÐ·Ð°Ð¼ÐµÑĩ": 2528,
      "ĠÐ¾Ð±ÑıÐ·": 2529,
      "ĠÐ¿ÑĢÐ¾Ð¸Ð·Ð²Ð¾Ð´": 2530,
      "Ð¼Ð°Ð½": 2531,
      "ÑīÐ°": 2532,
      "ĠÐ½Ð°ÑĩÐ°Ð»Ð¸": 2533,
      "ĠÑĩÐ°ÑģÑĤÐ¸": 2534,
      "ĠÑģÐ¸ÑģÑĤÐµÐ¼Ñĭ": 2535,
      "Ð½Ð°ÑĤÑĮ": 2536,
      "ĠÑģÐ¿Ð°Ñģ": 2537,
      "ĠÑģÐ¾Ð¼": 2538,
      "ĠÐ¿Ð°Ð»ÑĮÑĨÑĭ": 2539,
      "ÑĤÐ¾Ð¶": 2540,
      "Ð°Ð¶Ð´Ñĭ": 2541,
      "ĠÐ¿Ð¾ÑģÐº": 2542,
      "Ð°ÑĪÐºÐ°": 2543,
      "Ð¸Ð½Ð¾": 2544,
      "ÑĢÐ¾Ð²Ð°ÑĤÑĮ": 2545,
      "Ð½Ð°Ð¶": 2546,
      "ÑĢÐ¸Ð¿": 2547,
      "ÑĪÐºÐ°": 2548,
      "ÐµÐ½ÑĤÑĭ": 2549,
      "ĠÐ¿Ð¾Ð´ÑĥÐ¼Ð°Ð»": 2550,
      "ĠÐ¼ÑĥÐ¶ÑĩÐ¸Ð½Ð°": 2551,
      "ĠÐ¸ÑģÐºÑĥÑģ": 2552,
      "ÐµÐ½Ð½ÑĥÑİ": 2553,
      "ĠÑĦÐ¾ÑĢÐ¼": 2554,
      "ĠÐ¾ÑĢÐ³Ð°Ð½Ð¸Ð·": 2555,
      "ĠÑģÐµÐ¼ÑĮ": 2556,
      "ĠÐĺÑĢ": 2557,
      "ĠÑģÐºÐ¾ÑĢÐ¾": 2558,
      "ĠÑģÐ¿Ð°ÑĤÑĮ": 2559,
      "ĠÐŁÑĢÐ°Ð²": 2560,
      "ĠÐ¾Ð´Ð½Ð¾Ð²ÑĢÐµÐ¼ÐµÐ½Ð½Ð¾": 2561,
      "ĠÐ¿ÑĢÐµ": 2562,
      "ÐµÑģÐº": 2563,
      "ĠÐ³Ð¾Ð»Ð¾Ð²Ðµ": 2564,
      "ĠÐ½Ð°Ð²ÐµÑĢÐ½Ð¾Ðµ": 2565,
      "ĠÐ±ÑĥÐº": 2566,
      "ÐµÐ¿ÐµÐ½Ð½Ð¾": 2567,
      "ĠÐŀÑĩ": 2568,
      "ĠÑĤÐµÐ»Ðµ": 2569,
      "ĠÐ´ÑĥÑħ": 2570,
      "ĠÑģÐ¾ÑģÐµÐ´": 2571,
      "ĠÑģÐ»ÑĥÐ¶": 2572,
      "ĠÐ¿Ð°Ð»ÑĮÑĨÐ°Ð¼Ð¸": 2573,
      "ĠÐ¾Ð±Ð½Ñı": 2574,
      "ÑĭÐ²Ð°ÐµÑĤÑģÑı": 2575,
      "ĠÐ´Ð²ÐµÑĢÐ¸": 2576,
      "Ð°ÑİÑīÐ¸Ñħ": 2577,
      "ĠÐ¿Ð¾ÑģÑĤÑĥÐ¿": 2578,
      "ĠÐ¾ÑĤÑĤ": 2579,
      "Ð»ÑıÐ´Ñı": 2580,
      "ĠÑĢÐ°ÑģÑģ": 2581,
      "ĠÐ¿ÑĢÐ¾Ð²Ð¾Ð´": 2582,
      "ĠÐ¿Ð¾Ð´Ð½Ð¸Ð¼": 2583,
      "ÑģÑĤÐµ": 2584,
      "ĠÐ¿Ð¾Ð±ÐµÐ´": 2585,
      "ĠÐ»Ð°Ð´Ð¾Ð½": 2586,
      "ĠÐ½ÐµÐ¶Ð½Ð¾": 2587,
      "ĠÐºÐ¾Ð½ÑĩÐ¸Ð»": 2588,
      "ĠÐĹÐ½Ð°": 2589,
      "ÐµÑĢÑĤÐ²": 2590,
      "ĠÑģÐ°Ð¼Ð¾Ð¹": 2591,
      "ĠÑīÐµÐº": 2592,
      "Ð°Ð²Ð¸Ð»": 2593,
      "Ð»ÐµÑĩ": 2594,
      "ĠÐ²ÑĢÐ°Ð³": 2595,
      "er": 2596,
      "ĠÑģÐ¾ÑĢ": 2597,
      "Ð¾Ð²Ð°": 2598,
      "ĠÐ´Ð¾Ð»Ð³": 2599,
      "Ð¶Ð´": 2600,
      "ĠÑģÐ°Ð¼ÑĭÐ¹": 2601,
      "ĠÐ´Ð¾Ð±ÑĢ": 2602,
      "ĠÑĥÑģÐ»Ð¾Ð²": 2603,
      "ĠÐ±Ð¾Ð¹": 2604,
      "ĠÑģÐµÐºÑģ": 2605,
      "Ð»Ð°Ð½": 2606,
      "ĠÐ¼Ð¸ÑĢÐ°": 2607,
      "ĠÑģÑĤÑĢÐ°ÑĪ": 2608,
      "ĠÐ²Ð·Ð³Ð»Ñı": 2609,
      "ĠÐ»Ð¸ÑĪ": 2610,
      "ĠÐºÐ¾Ð»Ð¸ÑĩÐµ": 2611,
      "ĠÐ¼Ð¾Ð¸Ð¼": 2612,
      "ĠÐ¾ÐºÐ°Ð·Ð°Ð»ÑģÑı": 2613,
      "Ð½ÐµÑĪ": 2614,
      "ĠÐ³Ð¾Ð²Ð¾ÑĢÐ¸Ð»": 2615,
      "ĠÑĥÐ²ÐµÐ»Ð¸Ñĩ": 2616,
      "ĠÐŁÐ¾ÐºÐ°": 2617,
      "ĠÐ±ÑĥÐ´ÑĥÑī": 2618,
      "ĠÐ²ÐµÐ´": 2619,
      "ĠÐ¶ÐµÑģÑĤ": 2620,
      "ĠÐ»Ð¸ÑĨÐ¾Ð¼": 2621,
      "ĠÐ³Ð¾Ð´Ñĥ": 2622,
      "Ð»Ð°ÑģÑĤÐ¸": 2623,
      "ÑĤÑĢÐ°": 2624,
      "Ð¸Ð»Ð¸Ð·": 2625,
      "ĠÐ¾ÑĤÐ²ÐµÑĤÐ¸Ð»Ð°": 2626,
      "ĠÑģÑĤÑĢÐ¾": 2627,
      "ĠÐ¿ÑĢÐ¾Ð½Ð¸Ðº": 2628,
      "Ð»ÑĥÐ±": 2629,
      "ÑĤÐ°Ñī": 2630,
      "Ð¸Ð±Ð¾": 2631,
      "ĠÐ·Ð°Ñī": 2632,
      "Ð°ÑĢÐ°Ðº": 2633,
      "ĠÐ¿Ð°ÑĢÐµÐ½ÑĮ": 2634,
      "Ð½Ð¸ÑĨ": 2635,
      "ĠÐ²ÐºÑĥÑģ": 2636,
      "ĠÐ²Ð¸Ð´Ð½Ð¾": 2637,
      "ĠÐ¼Ð°Ð»ÑĮÑĩÐ¸Ðº": 2638,
      "ĠÐ¼Ð°ÑĪ": 2639,
      "Ġ20": 2640,
      "Ð»Ð¾Ð¿": 2641,
      "ĠÑħÐ¾ÑĤÐµÐ»Ð°": 2642,
      "ĠÐ²Ð·Ð´Ð¾Ñħ": 2643,
      "ÐµÐºÑĤÐ¸Ð²": 2644,
      "ĠÐ´Ð°Ð²Ð°Ð¹": 2645,
      "ĠÐ½ÐµÐº": 2646,
      "ĠÐĴÐ¸Ð´": 2647,
      "Ð¸Ð½ÑĮ": 2648,
      "ĠÐ²ÑģÑĤÐ°Ð»Ð°": 2649,
      "ĠÑģÐ¿ÑĢÐ°Ð²": 2650,
      "ĠÐ´ÑĢÑĥÐ·": 2651,
      "Ð¾ÑĩÑĮ": 2652,
      "ĠÑĥÐ´Ð°Ð»Ð¾ÑģÑĮ": 2653,
      "ĠÐ¿Ð¾ÑħÐ¾Ð¶": 2654,
      "ĠÑįÐºÑģÐ¿": 2655,
      "ĠÐ±ÑĭÑģÑĤÑĢÐµÐµ": 2656,
      "Ð¾Ð»Ñı": 2657,
      "ÐµÑĢÐº": 2658,
      "ĠÐ³Ð¾Ð²Ð¾ÑĢÐ¸ÑĤÑĮ": 2659,
      "ĠÐ¸ÑģÑĩ": 2660,
      "Ð½ÑİÑİ": 2661,
      "Ð°Ð²Ð»Ð¸Ð²": 2662,
      "Ð½Ð¸ÐºÐ¾Ð¼": 2663,
      "Ð½Ð°ÐºÐ¾Ð¼": 2664,
      "ĠÐºÑĢÐ¾Ð¼Ðµ": 2665,
      "Ð½Ð¾Ðº": 2666,
      "ĠÐ¸Ð·ÑĥÑĩ": 2667,
      "ĠÑĢÐ°ÑģÑģÐ¼": 2668,
      "ĠÐ»Ð¸ÑĦ": 2669,
      "ĠÐ¿ÑĢÐ¸ÑĤ": 2670,
      "ĠÐ²ÐµÑĩÐµÑĢ": 2671,
      "ĠÐ¿ÑĢÐ¾Ð²ÐµÑĢ": 2672,
      "ÑĩÐ°Ð»Ð°": 2673,
      "ÑĦÐ¾ÑĢ": 2674,
      "ĠÐ´ÐµÐ²ÑĩÐ¾Ð½": 2675,
      "Ð¸ÑĨÐ¸": 2676,
      "ÑĢÐµÐ²": 2677,
      "ĠÐ½ÑĢÐ°Ð²Ð¸ÑĤÑģÑı": 2678,
      "ĠÐ¿ÑĢÐ°Ð²Ð´Ð°": 2679,
      "ĠÐĶÐ°Ð²Ð°Ð¹": 2680,
      "ĠÐºÐ°Ñģ": 2681,
      "ĠÐĺÐ¼": 2682,
      "ĠÐ´Ð¾Ð»Ð¶Ð½Ð°": 2683,
      "ĠÑģÑĤÑĢÑĥ": 2684,
      "Ð¾Ð¹ÑĤÐ¸": 2685,
      "ĠÐ¿Ð¾Ð´Ð´ÐµÑĢÐ¶": 2686,
      "ĠÐ²ÑĭÑĪÐµ": 2687,
      "ĠÐ¿Ð¾ÑĩÑĥÐ²ÑģÑĤÐ²Ð¾Ð²Ð°Ð»Ð°": 2688,
      "Ð°Ð¹ÑģÑı": 2689,
      "ĠÑģÑĤÐ¾ÑıÐ»Ð°": 2690,
      "ĠÐĲÑĢÑĤÑĥÑĢ": 2691,
      "Ð¸Ð½ÐºÑĥ": 2692,
      "ÑĭÑģÐ»": 2693,
      "ĠÐ¿ÑĥÑĤ": 2694,
      "ĠÐ³Ð¾Ð»Ð¾Ð²ÐºÑĥ": 2695,
      "ĠÐ»ÑİÐ±Ð¸Ð¼": 2696,
      "ĠÐ°ÑĢÐ¼Ð¸": 2697,
      "ĠÐ¾ÐºÐ¾Ð½Ñĩ": 2698,
      "Ð¾Ð²Ð°Ð»ÑģÑı": 2699,
      "Ð»Ð¸Ð¶Ðµ": 2700,
      "ĠÐ¾Ð±ÑĢÐ°Ñī": 2701,
      "ÑģÑĤÑĢÐ¾Ð¹": 2702,
      "ĠÐ¾Ð±Ð¾": 2703,
      "ĠÐ¾Ð±Ð½Ð°Ð¶": 2704,
      "ĠÐ¾ÑĤÐ²ÐµÑĩ": 2705,
      "ĠÐ½Ð°ÑģÑĤÐ¾ÑıÑī": 2706,
      "ĠÐ±ÑĥÑĤ": 2707,
      "ĠÐĽÐµÐ½": 2708,
      "Ð°ÐºÑģÐ¸Ð¼": 2709,
      "Ð½Ð¸ÑĩÑĤÐ¾Ð¶": 2710,
      "ĠÑĪÐµ": 2711,
      "ĠÑĢÐ°Ð±Ð¾ÑĤÑĥ": 2712,
      "ĠÐºÐ°ÐºÐ°Ñı": 2713,
      "ĠÐ½ÐµÐ½": 2714,
      "ĠÐºÐ²Ð°ÑĢÑĤÐ¸": 2715,
      "ĠÐ¾ÑĦ": 2716,
      "ĠÐ³ÑĥÐ±Ð°Ð¼Ð¸": 2717,
      "ĠÐ¾Ð±ÑīÐµÐ¼": 2718,
      "ÑĢÐµÐ¿": 2719,
      "ĠÑģÐµÑģÑĤÑĢÑĭ": 2720,
      "Ð¸ÑĩÐµÑģÐºÐ¸Ðµ": 2721,
      "Ð»ÑıÑĤÑĮ": 2722,
      "ĠÑģÐ¿Ð¸Ð½Ð¾Ð¹": 2723,
      "ĠÐ´Ð°Ð»ÐµÐºÐ¾": 2724,
      "ĠÐ½Ð¾ÑĩÑĮ": 2725,
      "ĠÐ½ÐµÐ¸Ð·": 2726,
      "ĠÐ¾ÑģÑĤÐ¾ÑĢÐ¾Ð¶Ð½Ð¾": 2727,
      "ÑĢÐ¸Ð¼ÐµÑĢ": 2728,
      "ĠÐ²ÑĢÐµÐ¼ÐµÐ½ÐµÐ¼": 2729,
      "ĠÐ¼ÐµÑĢÐµ": 2730,
      "ĠÑģÐ»ÑĥÑĪ": 2731,
      "ÑĥÐ»Ð¸": 2732,
      "ĠÐ²ÐµÑģÑĮÐ¼Ð°": 2733,
      "ĠÐ²Ð½Ð¸Ð¼Ð°Ð½Ð¸Ðµ": 2734,
      "Ġ10": 2735,
      "ĠÑģÐºÐ²Ð¾Ð·ÑĮ": 2736,
      "ĠÑģÐ¼ÐµÑĢ": 2737,
      "ĠÐ¿Ð¾Ð½ÑıÑĤÑĮ": 2738,
      "Ð¸ÑĩÐµÑģÐºÐ¸Ñħ": 2739,
      "ĠÑĤÐµÐ¾ÑĢ": 2740,
      "ĠÐĲÐ»ÐµÐºÑģ": 2741,
      "ĠÐ¿Ð¾Ð½ÑıÐ»Ð°": 2742,
      "ĠÐ¿ÑĢÐ¸Ð½Ð¸Ð¼": 2743,
      "ĠÐ³Ð¾ÑĢÐ¾Ð´Ð°": 2744,
      "ĠÑĪÐºÐ¾Ð»": 2745,
      "Ð»Ð¸ÑĤ": 2746,
      "ĠÐ»Ð¸Ð·": 2747,
      "Ð·Ð°Ð´Ð¸": 2748,
      "ÑģÐ¾Ð»ÑİÑĤ": 2749,
      "ĠÐ¾Ð±Ð»Ð¸Ð·": 2750,
      "ĠÐŁÐ¾ÑĩÐµÐ¼Ñĥ": 2751,
      "ĠÐ´ÐµÐ½ÑĮÐ³Ð¸": 2752,
      "ĠÐ¾Ð±ÑĭÑĩÐ½Ð¾": 2753,
      "Ð°Ð»Ðµ": 2754,
      "ĠÐ¿Ð¾ÑģÐ¼Ð¾ÑĤÑĢÐµÐ»Ð°": 2755,
      "ÐµÐ½ÑĤÐ°": 2756,
      "ĠÐ´ÑĭÑĢÐ¾Ñĩ": 2757,
      "Ð»Ñĥ": 2758,
      "ĠÐ±ÑĥÑĢ": 2759,
      "ĠÐ½Ð°ÐºÐ»Ð¾Ð½": 2760,
      "Ð¸ÑĩÐµÑģÐºÐ¾Ð¹": 2761,
      "Ð°ÑĨÐ¸Ð¾Ð½": 2762,
      "ĠÐ±ÐµÐ´ÑĢÐ°": 2763,
      "Ð¸Ð½Ð¸": 2764,
      "ĠÐ±ÑĥÐ´ÐµÐ¼": 2765,
      "ÐµÑĢÐ²ÑĭÐµ": 2766,
      "ĠÑĢÐ°Ðº": 2767,
      "Ð¾ÑģÑģ": 2768,
      "ĠÑĢÑĥÐºÐ°Ñħ": 2769,
      "ĠÐ´ÐµÐ²Ð¾ÑĩÐºÐ°": 2770,
      "ĠÑħÐ¾ÑĩÐµÑĤ": 2771,
      "ĠÐ²Ð·ÑĢÐ¾Ñģ": 2772,
      "Ð²Ð¸Ð´": 2773,
      "ĠÐŁÐ¾Ð½": 2774,
      "ÐµÑĤÑĥ": 2775,
      "ĠÐ¾ÑģÑĤÐ°Ð½": 2776,
      "ĠÐ½ÐµÐ¾Ð±ÑħÐ¾Ð´Ð¸Ð¼": 2777,
      "Ð¾ÑĤÑĭ": 2778,
      "ĠÑģÐµÐ»": 2779,
      "Ð¾Ð²ÑĭÐµ": 2780,
      "ĠÐļÑĢÐ¸": 2781,
      "ÑįÐ¹": 2782,
      "Ð¸ÑĤÐ°": 2783,
      "ĠÐ¾Ð±Ð¾ÑĢ": 2784,
      "ĠÐ¼Ð°Ð¼Ñĭ": 2785,
      "ĠÑĦÐ¸Ð³": 2786,
      "ĠÐ¿Ð°": 2787,
      "Ð¹ÑĤÐ¸": 2788,
      "ĠÐ´Ð¸": 2789,
      "ĠÑĥÑħÐ¾Ð´": 2790,
      "ĠÐºÐ°ÐºÐ¾Ðµ": 2791,
      "Ð°Ð»ÑĮÐ½ÑĭÐ¼": 2792,
      "ĠÐĿÐ°Ð´Ð¾": 2793,
      "ĠÐ¿ÑĢÐ¾Ð´Ð¾Ð»Ð¶Ð°Ð»": 2794,
      "ĠÐ´ÑĢÐ¾Ð¶": 2795,
      "ĠÐ±Ð¾Ð»ÑĮÐ½Ð¾": 2796,
      "Ð¾Ð±ÑĢÐµÑĤ": 2797,
      "Ð°Ð²Ð°ÑĤÑĮ": 2798,
      "ĠÐ¼ÐµÑĤÐ°Ð»": 2799,
      "ĠÑģÐ°Ð´": 2800,
      "ÑħÑĢÐ°Ð½": 2801,
      "ĠÐ±ÑĥÐ´ÐµÑĪÑĮ": 2802,
      "ĠÑħÐ°Ð»Ð°ÑĤ": 2803,
      "ĠÐ¸ÑģÑĩÐµÐ·": 2804,
      "ÑĩÐ¸Ð½Ñĭ": 2805,
      "ĠÑĩÐ»ÐµÐ½Ð¾Ð¼": 2806,
      "ĠÐ¼Ñĥ": 2807,
      "ĠÑĩÐµÑĤÐ²ÐµÑĢ": 2808,
      "ÐµÐ»ÑģÑı": 2809,
      "Ð½Ð¸ÑĤÐµÐ»ÑĮ": 2810,
      "ĠÐĲÐ»": 2811,
      "ĠÐ±Ð¾Ð»Ð¸": 2812,
      "ĠÐ¿Ð°Ð¼": 2813,
      "ĠÐ¼ÐµÑĪ": 2814,
      "Ð²Ð°Ð½": 2815,
      "ĠÐ¼ÐµÑģÑĤÐ°": 2816,
      "ĠÑĩÐµÑĤÑĭÑĢÐµ": 2817,
      "ĠÑģÐ¼Ð¾ÑĤÑĢÐµÑĤÑĮ": 2818,
      "ĠÐ·Ð½Ð°ÐµÑĪÑĮ": 2819,
      "ĠÑģÐ¶Ð¸Ð¼": 2820,
      "ĠÐ½Ð°Ð¹ÑĤÐ¸": 2821,
      "ÐµÐ»ÐµÐ½": 2822,
      "ĠÑıÑĢ": 2823,
      "ĠÐ´Ð¾ÑģÑĤÐ¸Ð³": 2824,
      "ĠÑģÐ¼Ð°Ð·": 2825,
      "ÑĪÐ¸Ð¹ÑģÑı": 2826,
      "ĠÑģÐµÐºÑĥÐ½Ð´": 2827,
      "Ð°ÑĢÐ°ÐºÑĤÐµÑĢ": 2828,
      "Ð²ÐµÐ´": 2829,
      "ĠÐ±Ð°Ð·": 2830,
      "ĠÐ¿Ð¾ÑģÑĤÐ¾ÑıÐ½Ð½Ð¾": 2831,
      "ĠÐ¤Ðµ": 2832,
      "Ð¥": 2833,
      "Ð¾Ð½Ñĥ": 2834,
      "ĠÐ³Ð»ÑıÐ´Ñı": 2835,
      "ĠÐľÐµÐ½Ñı": 2836,
      "Ð¾Ð»Ð¾ÑĤ": 2837,
      "ĠÐ²Ð¾Ð·ÑĢÐ°ÑģÑĤ": 2838,
      "ĠÐ¡Ð¾Ð²": 2839,
      "ĠÐ´Ð¶": 2840,
      "Ð¾ÑģÐº": 2841,
      "ĠÐĿÐ°ÑģÑĤ": 2842,
      "ĠÑĪÐ¸ÑĢÐ¾ÐºÐ¾": 2843,
      "ĠÐĿÐ°Ð¿Ð¾Ð»Ðµ": 2844,
      "ĠÐºÐ¾Ð¿": 2845,
      "ĠÐ¿ÐµÑĢÐµÐº": 2846,
      "ĠÑĢÐµÐ´": 2847,
      "ĠÑĥÐ½Ð¸ÑĩÑĤÐ¾Ð¶": 2848,
      "ĠÐ¾Ð¿ÐµÑĢ": 2849,
      "ĠÑĥÐ´Ð¾Ð²Ð¾Ð»ÑĮÑģÑĤÐ²Ð¸Ðµ": 2850,
      "Ð½ÑıÑı": 2851,
      "ĠÐ²ÑĢÐ¾Ð´Ðµ": 2852,
      "ĠÑĤÐ¾Ð¹": 2853,
      "Ð¸Ð½Ð³": 2854,
      "in": 2855,
      "Ð¸Ð¶Ñĥ": 2856,
      "ĠÑģÐ¾ÑģÐºÐ¸": 2857,
      "Ð°Ð¼ÐµÑĤ": 2858,
      "ĠÐºÐ¾ÑģÑĤ": 2859,
      "ĠÐ¶Ð°ÑĢ": 2860,
      "ÐµÐºÐ°": 2861,
      "Ð¸Ð²Ð°ÑıÑģÑĮ": 2862,
      "Ð¾ÑĦ": 2863,
      "ĠÐ½Ð¸Ð·": 2864,
      "ĠÐ¥Ð¾ÑĢÐ¾ÑĪÐ¾": 2865,
      "Ð²Ð¾": 2866,
      "Ð¡Ð¡": 2867,
      "Ð°ÑĤÑĭ": 2868,
      "ÑģÑĤÐ°Ð½Ð¾Ð²": 2869,
      "ĠÑģÐ»ÐµÐ´ÑĥÑİÑī": 2870,
      "ĠÐ²Ð»Ð°Ð¶": 2871,
      "ĠÐ¼Ð¾ÐµÐ¼Ñĥ": 2872,
      "ĠÐ¼Ð°Ð¼Ð¸": 2873,
      "Ð½Ð°Ð´ÑĨÐ°ÑĤÑĮ": 2874,
      "ĠÐ¿Ð¾ÑĪÐ»Ð¸": 2875,
      "ĠÐ²Ð½ÑĥÑĤÑĢÑĮ": 2876,
      "ĠÐ±ÑĥÐºÐ²": 2877,
      "ĠÐ³Ð¾Ð²Ð¾ÑĢÐ¸ÑĤ": 2878,
      "ĠÑģÐ²Ð¾ÐµÐ¼Ñĥ": 2879,
      "ĠÑĦÐ¾ÑĢ": 2880,
      "ĠÑĤÐ°Ð¹": 2881,
      "Ð¾Ð·Ð²": 2882,
      "ĠÑģÐ·Ð°Ð´Ð¸": 2883,
      "ĠÐ¿ÑĢÐ¾ÑĨÐµÑģÑģ": 2884,
      "ĠÑģÐµÑĢÑĮÐµÐ·": 2885,
      "ĠÐ¼Ð°ÑĢ": 2886,
      "ÑĥÐ½Ðº": 2887,
      "Ð°Ð»ÑĮÐ½Ð°Ñı": 2888,
      "ĠÐºÐ¾Ð¼Ð½Ð°ÑĤÑĭ": 2889,
      "ĠÑĤÐ¾Ð¿": 2890,
      "ĠÐ¾ÑĤÑĨÐ°": 2891,
      "ĠÐ°Ð²ÑĤÐ¾Ð¼": 2892,
      "ĠÐ½Ð°Ð¿ÑĢÑıÐ¶": 2893,
      "ĠÐ¾Ð±ÑħÐ²Ð°ÑĤ": 2894,
      "ÑģÐºÐ°Ñı": 2895,
      "ĠÐºÑĢÑĭ": 2896,
      "ÑĨÐ¸Ð¹": 2897,
      "ĠÑĥÑĩÐ°ÑģÑĤ": 2898,
      "ĠÑģÐ¼Ð¾ÑĤÑĢÐµÐ»Ð°": 2899,
      "ĠÐ²ÑĭÐ´ÐµÑĢÐ¶": 2900,
      "ĠÐ¸Ð¼Ð¿": 2901,
      "ĠÐ¿Ð¾ÑģÐºÐ¾Ð»ÑĮÐºÑĥ": 2902,
      "Ð´Ð°Ñı": 2903,
      "ĠÐĲÐ½Ð´ÑĢ": 2904,
      "ÐµÑĢÐ¿": 2905,
      "ĠÐ¿ÑĢÐ¾ÑĦÐµÑģÑģ": 2906,
      "Ð½Ð°ÑĩÐµ": 2907,
      "ĠÐ²ÑĭÑĤ": 2908,
      "Ð¾Ð»Ð°Ð³": 2909,
      "ĠÐºÐ¾Ð½ÑĨÐ°": 2910,
      "ĠÐ³Ð»Ð°Ð·Ð°Ñħ": 2911,
      "ĠÐºÐ¾ÑģÐ¼Ð¾Ñģ": 2912,
      "ĠÐ·Ð°Ð¶": 2913,
      "ĠÐ²ÐµÐ»Ð¸": 2914,
      "ĠÑĪÐ»Ñİ": 2915,
      "Ð°ÑĤÐ¸Ð²": 2916,
      "ĠÐ¿ÐµÑĢÐµÐ¿": 2917,
      "ĠÐ¸Ð·Ð´": 2918,
      "ÑģÑĤÐ²ÐµÐ½Ð½ÑĭÐ¹": 2919,
      "ĠÐ°ÐºÑĤÐ¸Ð²": 2920,
      "ĠÐļÐ°ÑĤÑı": 2921,
      "ĠÐºÑĢÐ¸ÑģÑĤÐ°Ð»": 2922,
      "ÑģÐ¾Ð²": 2923,
      "ĠÐ¿Ð¾Ð´Ð±": 2924,
      "Ð»Ð°ÑģÑĤ": 2925,
      "ĠÐ¿Ð¾Ð²ÐµÑĢÑħ": 2926,
      "ÑĢÐ°Ð±Ð¾ÑĤ": 2927,
      "Ð¸ÑĤÐµÐ»Ñı": 2928,
      "ÐºÐ¾Ð½": 2929,
      "ĠÐļÑĤÐ¾": 2930,
      "ĠÐ¿Ð»Ð°ÑĤÑĮ": 2931,
      "Ð¸Ð½ÑĥÐ»": 2932,
      "Ð»ÑıÑı": 2933,
      "ĠÐ²Ð¾Ð´Ñĭ": 2934,
      "ĠÐļÐ°ÑĢ": 2935,
      "ĠÐ°Ð±ÑģÐ¾Ð»ÑİÑĤ": 2936,
      "Ð³Ñĥ": 2937,
      "ĠÐ²ÑĭÑĤÐ°Ñī": 2938,
      "ÐĿÑĥ": 2939,
      "Ð¸Ð²Ð¸Ð»Ð¸Ð·": 2940,
      "ÑĪÐ°": 2941,
      "ĠÐ´Ð½ÐµÐ¹": 2942,
      "ÑĭÐ¿": 2943,
      "ĠÑĢÐ°Ð·ÑĢÐ°Ð±Ð¾ÑĤ": 2944,
      "on": 2945,
      "ĠÐĺÐ»Ð¸": 2946,
      "Ð¨": 2947,
      "ĠÑįÑĦÑĦ": 2948,
      "Ð¸Ð½ÑĤÐµÑĢÐµÑģ": 2949,
      "ÑĩÐµÑĤ": 2950,
      "Ð¾ÑĢÐ¾Ð¶": 2951,
      "ĠÐŀÐ»ÑĮ": 2952,
      "ĠÑĢÑĥÐº": 2953,
      "Ð½ÐµÐ½Ð¸Ñı": 2954,
      "ĠÐ²ÑģÐ¿": 2955,
      "ĠÑģÑĥÐ¿": 2956,
      "ĠÐ¾Ð±Ðµ": 2957,
      "ĠÐºÐ¾ÑģÐ¼Ð¸": 2958,
      "ĠÐ¿ÑĥÑĤÐ¸": 2959,
      "ÑģÑĤÐ°ÑĤÐ¸": 2960,
      "ĠÐ´ÑĭÑħ": 2961,
      "Ð²Ðµ": 2962,
      "ÑıÐ½ÑĥÐ»Ð°": 2963,
      "Ð¶Ð¸": 2964,
      "ĠÐ²ÑĭÐ³Ð»ÑıÐ´": 2965,
      "ĠÐ¾ÐºÑĢÑĥÐ¶": 2966,
      "ĠÐ½Ð°ÑģÑĤÐ¾Ð»ÑĮÐºÐ¾": 2967,
      "ĠÐºÐ°ÑĩÐµ": 2968,
      "ĠÐ»Ð¾Ð²": 2969,
      "ĠÐ½Ð¸Ð¶Ðµ": 2970,
      "ÑĢÐ¾Ð¿": 2971,
      "ĠÐ¿Ð¾Ð´Ð¾ÑĪÐµÐ»": 2972,
      "ĠÑĢÐ°Ð±Ð¾ÑĤÐ°ÑĤÑĮ": 2973,
      "ÐºÑĥÑĢÐ°ÑĤ": 2974,
      "ÑĤÐ¸Ñı": 2975,
      "ĠÐ´ÐµÐ²Ð¾ÑĩÐºÐ¸": 2976,
      "ĠÐ½Ð°ÑĪÐµÐ³Ð¾": 2977,
      "ĠÐ·Ð°ÑģÑĤÐ¾Ð½": 2978,
      "ĠÑĥÐ´Ð°": 2979,
      "ĠÑģÐºÐ¾ÑĢÐµÐµ": 2980,
      "ĠÐ²Ð¾ÑģÑĤ": 2981,
      "ĠÐ°Ð»": 2982,
      "Ð»ÑĥÑĩ": 2983,
      "ĠÑıÐ¹": 2984,
      "ĠÐ´Ð²Ð°Ð´ÑĨÐ°ÑĤÑĮ": 2985,
      "Ð¸Ð¼ÑģÑı": 2986,
      "ĠÑĤÐ¾Ð»ÑģÑĤ": 2987,
      "ĠÑģÐ´ÐµÑĢÐ¶": 2988,
      "ĠÐ·Ð°Ð¼ÐµÑĢ": 2989,
      "ĠÐ´ÐµÐ²ÑĥÑĪÐºÐ¸": 2990,
      "ĠÐĴÐµÐ´ÑĮ": 2991,
      "ĠÐ·Ð½Ð°ÐµÑĤ": 2992,
      "ĠÐ¿Ð»Ð¾ÑħÐ¾": 2993,
      "ĠÐ½ÐµÐ¾Ð¶Ð¸Ð´Ð°Ð½Ð½Ð¾": 2994,
      "Ð°Ð½Ð½Ð°Ñı": 2995,
      "ÐºÐ½ÑĥÐ»Ð°": 2996,
      "ĠÑģÐ¾Ð²ÐµÑĤ": 2997,
      "ĠÐ·Ð°ÑĩÐµÐ¼": 2998,
      "Ð»Ð°Ð·": 2999,
      "ĠÐ²Ð¾Ð·Ð¼Ð¾Ð¶Ð½Ð¾ÑģÑĤÑĮ": 3000,
      "Ð°ÑĤÐµÐ»Ñı": 3001,
      "ÑĤÐ¸ÑĢÐ¾Ð²": 3002,
      "ĠÐ¿Ð»ÐµÐ¼": 3003,
      "ĠÐ¾ÑħÐ¾ÑĤ": 3004,
      "Ð½Ð°ÑĤ": 3005,
      "ĠÑĥÑģÐ¿ÐµÐ»": 3006,
      "ĠÑģÐ¸Ð³": 3007,
      "ĠÐ½Ð°Ð·Ð²": 3008,
      "ĠÑģÑĤÐ°ÑĤÑĮ": 3009,
      "ĠÐ¿ÑĢÐ°ÐºÑĤÐ¸ÑĩÐµÑģÐºÐ¸": 3010,
      "ÐµÐ²Ð¾Ð¹": 3011,
      "ĠÐľÐ°ÑĢÐ¸Ð½Ð°": 3012,
      "Ð¼Ð¾Ð¹": 3013,
      "ĠÐ¿Ð¾ÑĤÑĢÐµÐ±": 3014,
      "ĠÐľÐ¸ÑĪ": 3015,
      "Ġ--": 3016,
      "ÑıÑĤÐ¸Ñı": 3017,
      "ĠÐ¼Ð¸ÑģÑĤ": 3018,
      "Ð¸Ð¾Ð½": 3019,
      "ĠÑĥÑģÑĤÑĢÐ¾": 3020,
      "Ð¾ÑĤÑĢÐ¸": 3021,
      "ĠÐ²Ð¾Ð·Ð´ÑĥÑħ": 3022,
      "Ð°Ð¼Ð¿": 3023,
      "ĠÐ¿Ð¾ÑĪÐ»Ð°": 3024,
      "ĠÐĽÐµÐ½Ð°": 3025,
      "ĠÑģÑĤÐ¾Ð»ÑĮ": 3026,
      "Ð°Ð»Ð¸ÑģÑĤ": 3027,
      "ĠÑħÐ°ÑĢÐ°ÐºÑĤÐµÑĢ": 3028,
      "Ð¸ÑĩÐ½Ð¾": 3029,
      "ĠÐĴÐ¿ÑĢÐ¾ÑĩÐµÐ¼": 3030,
      "ĠÐºÐ¾ÑĤÐ¾ÑĢÐ¾Ð¼": 3031,
      "ĠÐ¿Ð°Ð¿Ð°": 3032,
      "an": 3033,
      "ĠÑģÐ¿Ð°Ð»ÑĮ": 3034,
      "ĠÑģÑĤÑĢÐµÐ¼": 3035,
      "ĠÑģÐ¼ÑĭÑģÐ»": 3036,
      "ĠÐ´Ð¾ÑĩÑĮ": 3037,
      "ĠâĢľ": 3038,
      "ĠÐ¶Ð°Ð»": 3039,
      "ĠÐºÐ¾Ð¼Ð°Ð½Ð´": 3040,
      "ĠÐ½Ð°Ð¿Ð¸Ñģ": 3041,
      "ÐµÑĢÐ¾Ð²": 3042,
      "ĠÐ½Ð°ÑĪÐ¸Ñħ": 3043,
      "ĠÐ²ÐµÑĢÑħ": 3044,
      "Ð°Ð°": 3045,
      "ÑĢÐ¸Ð·": 3046,
      "Ð¼Ð¸ÑĢÐ¾Ð²": 3047,
      "Ð¾Ð¶Ð°Ð»": 3048,
      "ÑģÑĤÐ²Ñĥ": 3049,
      "Ð¸Ð½ÑĥÐ»Ð°": 3050,
      "Ð¾Ð²ÑĭÑħ": 3051,
      "ĠÑĥÐ´Ð¾Ð²Ð¾Ð»ÑĮÑģÑĤÐ²Ð¸Ñı": 3052,
      "ĠÐ¿ÑĢÐ¸Ð¿Ð¾Ð´Ð½Ñı": 3053,
      "Ð½Ð°Ð¶Ð´Ñĭ": 3054,
      "Ð¸Ð²Ð¾": 3055,
      "ĠÐ¿Ð¾ÑĪÐµÐ»": 3056,
      "ĠÑĢÐ¾Ð·": 3057,
      "Ð°ÑİÑīÐµÐ¹": 3058,
      "ÑĢÑĮ": 3059,
      "ÐºÐ¾Ð²Ð¾Ð´": 3060,
      "ĠÐ»ÐµÐ¶Ð°Ð»Ð°": 3061,
      "ĠÐ²Ð¾Ð·Ð²ÑĢÐ°Ñī": 3062,
      "ĠÐ¸ÑģÐ¿ÑĥÐ³": 3063,
      "ĠÑģÐ¾Ð±ÑĢ": 3064,
      "ÑĨÐµÐ¿": 3065,
      "ĠÐ¿Ð¾Ð´ÑĤ": 3066,
      "ĠÐ´Ð¾Ð»Ð¶Ð½Ð¾": 3067,
      "ĠÐ²ÐµÐ»Ð¸Ðº": 3068,
      "Ð¸ÑĩÐµÑģÐºÐ¸Ð¹": 3069,
      "ĠÑĥÐ»ÑĭÐ±Ð½ÑĥÐ»Ð°ÑģÑĮ": 3070,
      "ĠÐ¸Ð´ÑĤÐ¸": 3071,
      "Ð°Ð´Ð¸Ð¼": 3072,
      "ĠÑģÑĤÐµÐº": 3073,
      "ĠÐ¿ÑĢÐ¸Ð½ÑĨÐ¸Ð¿": 3074,
      "ÑģÑĤÑĢÐ¸": 3075,
      "Ð¾ÑĤÐ²ÐµÑĤ": 3076,
      "ĠÐĸÐµÐ½": 3077,
      "ĠÑģÑĢÐ°Ð²": 3078,
      "ĠÐ²ÐµÑĤ": 3079,
      "ĠÐĿÐ°Ð²": 3080,
      "ĠÐĴÐµÑĢ": 3081,
      "ĠÐ®Ð»Ñı": 3082,
      "ĠÑĨÐ¸Ð²Ð¸Ð»Ð¸Ð·": 3083,
      "ÑģÐºÐ¸Ð¼": 3084,
      "ĠÐ¿Ð¾Ð½Ð¸Ð¼Ð°Ñİ": 3085,
      "ĠÑģÐµÐºÑĥÐ½Ð´Ñĥ": 3086,
      "ĠÑĢÐ°ÑģÑģÑĤÐµÐ³": 3087,
      "ĠÐ¶ÐµÐ½ÑīÐ¸Ð½": 3088,
      "Ð¸Ð´ÑĨ": 3089,
      "Ð»ÐµÑĤÐ²Ð¾ÑĢ": 3090,
      "ĠÐ¿Ñģ": 3091,
      "ĠÑĢÐµÐº": 3092,
      "âĢĿ": 3093,
      "ĠÐ´ÐµÐ½": 3094,
      "ĠÑıÐ³Ð¾Ð´Ð¸ÑĨÑĭ": 3095,
      "Ð¾Ð²Ð»ÐµÑĤÐ²Ð¾ÑĢ": 3096,
      "ĠÐ¿Ð¾Ð¶Ð°Ð»ÑĥÐ¹": 3097,
      "ĠÑģÐ¾ÑģÐ°ÑĤÑĮ": 3098,
      "ĠÐ¾Ð¿Ð¸Ñģ": 3099,
      "ĠÐ¼Ð½Ð¾Ð³Ð¸Ðµ": 3100,
      "ĠÑĤÐµÑĩ": 3101,
      "Ð¾Ð»ÑĮÐ½Ð¾": 3102,
      "ÐµÐ¶Ð°Ð»": 3103,
      "ĠÑĩÑĥÐ²ÑģÑĤÐ²Ð¾Ð²Ð°Ð»": 3104,
      "ÑıÑı": 3105,
      "ĠÑĤÐ°Ð½": 3106,
      "ĠÐºÐ¸Ð»Ð¾Ð¼": 3107,
      "ĠÐ¼Ð¸Ð½ÑĥÑĤÑĥ": 3108,
      "ĠC": 3109,
      "Ð°ÑĢÑĤ": 3110,
      "ĠÐŃÐ¹Ð»Ð¸Ð½": 3111,
      "ĠÐ²Ñĩ": 3112,
      "Ð°ÑıÐ²": 3113,
      "ĠÐ¾ÑĤÐ±": 3114,
      "ĠÐ»Ð¸ÑĨÐ°": 3115,
      "ĠÐ¿ÑĢÐ¾Ð¸Ð·Ð¾ÑĪÐ»Ð¾": 3116,
      "ĠÑģÐ¾Ð¿ÑĢÐ¾ÑĤÐ¸Ð²": 3117,
      "ÑģÐºÐ¾ÑĢ": 3118,
      "ĠÐ²Ð¾Ð·Ð½Ð¸Ðº": 3119,
      "ĠÐ±ÐµÐ³": 3120,
      "Ð¾Ð»ÑĮÑĪÐµ": 3121,
      "ĠÑģÑĤÑĢÐ°Ñħ": 3122,
      "ÑģÑĥÐ´Ð°ÑĢ": 3123,
      "ĠÐ²ÑĭÐ´ÐµÐ»": 3124,
      "ĠÑĢÐ°ÑģÑģÐ»Ð°Ð±": 3125,
      "ĠÐ³Ð°Ð·": 3126,
      "ĠÑĩÐ°ÑģÐ°": 3127,
      "Ð°Ð½Ð¸Ñĩ": 3128,
      "ĠÐ·Ð°ÐºÐ»ÑİÑĩ": 3129,
      "ÑĳÐ·": 3130,
      "ĠÐ¾ÑĢÑĥÐ¶Ð¸Ðµ": 3131,
      "Ð³Ð»Ð¸": 3132,
      "Ð¸ÑģÐ»": 3133,
      "ĠÐ´Ðµ": 3134,
      "ĠÐ»Ð¸Ð±Ð¾": 3135,
      "ĠÐ²Ð½Ð¸Ð¼Ð°Ð½Ð¸Ñı": 3136,
      "ĠÑĤÐµÐº": 3137,
      "Ð¾Ð·Ð´": 3138,
      "ĠÐ²Ð¾ÑĪÐµÐ»": 3139,
      "ÑīÐµÑģÑĤÐ²Ð°": 3140,
      "Ð½ÐµÐ¼Ñĥ": 3141,
      "ĠÐ´Ð²ÑĥÐ¼": 3142,
      "ĠÑģÐ¿Ð¾ÑĢ": 3143,
      "ĠÐ³Ð»ÑĥÐ±Ð¾ÐºÐ¾": 3144,
      "Ð¸ÑĤÐµÐ»ÐµÐ¹": 3145,
      "ÐµÐ²Ð°ÑĤÑĮ": 3146,
      "ĠÐ³Ð¾ÑĢÐ°Ð·": 3147,
      "ĠÑĥÐ´ÐµÑĢÐ¶": 3148,
      "ĠÐ¿ÑĢÐ¾Ð¸Ð·Ð½ÐµÑģ": 3149,
      "ĠÐ¾Ð±ÑĢÐ°ÑĤÐ½Ð¾": 3150,
      "ÑĮÐ¼Ð¸": 3151,
      "ÐµÐ»Ð»ÐµÐº": 3152,
      "ĠÐ¾ÐºÐ°Ð·Ð°Ð»Ð¾ÑģÑĮ": 3153,
      "Ð¾Ð²Ð°Ð»Ð¾": 3154,
      "ĠÐ¾ÑĢÐ³Ð°Ð·Ð¼Ð°": 3155,
      "ĠÐ½ÐµÐ¿ÑĢÐ¸": 3156,
      "Ð½ÐµÐ·": 3157,
      "ÑģÑĤÐ¾": 3158,
      "Ð¾ÑĢÐ³": 3159,
      "ĠÐ¿Ð»Ð°Ð²": 3160,
      "ÐµÐ»ÐµÐ¼": 3161,
      "ĠÐ¼Ð¾Ð¶ÐµÑĪÑĮ": 3162,
      "ĠÐ³Ð¾ÑĢÐ°Ð·Ð´Ð¾": 3163,
      "ĠÑģÐ¾Ð´": 3164,
      "ĠÐ¶Ð¾Ð¿": 3165,
      "ĠÑĦÐ¾ÑĤ": 3166,
      "ĠÐ²Ð¿ÐµÑĢÐ²ÑĭÐµ": 3167,
      "ÑĥÐµÑĤÑģÑı": 3168,
      "ĠÑģÐ¸Ð¼": 3169,
      "Ð¾Ð²Ð°Ð²": 3170,
      "ĠÐ¸ÑģÑĤÐ¾ÑĢÐ¸Ð¸": 3171,
      "ĠÐ¿ÐµÑĢÐµÐ±": 3172,
      "ĠÑģÐ¸Ð»Ð¾Ð¹": 3173,
      "ÐµÐºÑĤÐ¾ÑĢ": 3174,
      "Ð°Ð¶Ñĥ": 3175,
      "ĠÐ¿Ð¾Ð·Ð²": 3176,
      "ĠÑģÐ¸Ð´ÐµÐ»": 3177,
      "ĠÑģÑĤÐ²Ð¾Ð»": 3178,
      "ĠÑįÐºÑĢÐ°Ð½": 3179,
      "ĠÑģÑĤÑĭ": 3180,
      "ĠÐ²Ð¸Ð´ÐµÑĤÑĮ": 3181,
      "ĠÐŁÐµÑĤ": 3182,
      "ÐµÐ½Ð½ÑĭÐ¼Ð¸": 3183,
      "ĠÐĴÐ·": 3184,
      "ÑģÐºÐ¾Ð¼": 3185,
      "ÑĤÑĢÐ¸": 3186,
      "ĠÐ´Ð¾Ð³Ð°Ð´": 3187,
      "Ð¾Ð¿ÑĭÑĤ": 3188,
      "ÑĪÐ¸ÐµÑģÑı": 3189,
      "ĠÐ½Ð°Ð¿Ð¾Ð¼": 3190,
      "ĠÑĥÐ²Ð¸Ð´ÐµÑĤÑĮ": 3191,
      "ĠÑģÐ¾Ð±Ñĭ": 3192,
      "ĠÐ¿ÑĥÑģÑĤÑĮ": 3193,
      "ĠÐ¿ÑĢÐµÐ·": 3194,
      "ĠÐ²ÑģÐµÐ¼Ñĥ": 3195,
      "ĠÐĺÐ³Ð¾ÑĢ": 3196,
      "ĠÐ¿ÑĢÐ¾ÑĪÐµÐ¿ÑĤ": 3197,
      "ĠÐ²ÐµÑīÐ¸": 3198,
      "ĠÑģÐ¾Ñĩ": 3199,
      "ĠÐ·Ð½Ð°ÑĤÑĮ": 3200,
      "ĠÑĢÐ°Ð·ÑĢÐµÑĪ": 3201,
      "ĠÐ¿Ð°Ð´": 3202,
      "ĠÐ°ÐºÐºÑĥÑĢÐ°ÑĤ": 3203,
      "ĠÐ¶Ð¸ÑĤÑĮ": 3204,
      "ĠÐ²ÐµÑī": 3205,
      ".,": 3206,
      "ĠÐ»ÐµÐ³Ð»Ð°": 3207,
      "ĠÐ³ÑĥÐ±ÐºÐ¸": 3208,
      "ĠÐŁÑĢÐµÐ´": 3209,
      "ĠÐ³Ð»ÑĥÐ±Ð¶Ðµ": 3210,
      "ĠÐ·Ð°ÑħÐ¾ÑĤ": 3211,
      "Ð°Ð²Ð¸ÑĤÑĮ": 3212,
      "ĠÐ´ÑĢÑĥÐ³Ð¾Ð¼": 3213,
      "ĠÑĢÐµÐ°Ð»ÑĮ": 3214,
      "ĠÐ¾Ð´ÐµÐ¶": 3215,
      "Ð¾Ð»ÐµÐµ": 3216,
      "ĠÑĢÐ°Ð²": 3217,
      "ĠÐ»Ð¾Ð¶": 3218,
      "ĠS": 3219,
      "ĠÐ´ÑĢÑĥÐ¶": 3220,
      "ÐµÐ¶Ð°ÑĤÑĮ": 3221,
      "ĠÐ¿Ð¾Ð´Ð¾ÑĪÐ»Ð°": 3222,
      "ĠÑĥÐ½Ð¸": 3223,
      "Ð°Ð¶Ð¸": 3224,
      "ĠÐ±Ð»Ð°Ð³Ð¾Ð´Ð°ÑĢ": 3225,
      "ĠÐ¿Ð¾ÑģÑĤÐµÐ¿ÐµÐ½Ð½Ð¾": 3226,
      "ĠÐ½ÐµÑģÐºÐ¾Ð»ÑĮ": 3227,
      "ĠÐ½Ð¾Ð²ÑĭÐµ": 3228,
      "ĠÐ¿Ð¾ÑģÑĤÑĢÐ¾": 3229,
      "Ð¾Ð·Ð½": 3230,
      "ĠÐ²Ð¸Ð´ÐµÐ»Ð°": 3231,
      "ĠÑĤÐ²Ð¾Ð¹": 3232,
      "ĠÐŁÐ°Ð¿": 3233,
      "ĠÐ²Ð¾Ð·Ð±ÑĥÐ´": 3234,
      "ĠÐ»ÑİÐ±Ð¾Ð¹": 3235,
      "Ð¸ÑĢÐ¾Ð²Ð°Ð»": 3236,
      "ĠÑĢÐµÐ°Ðº": 3237,
      "ĠÐ»Ð°ÑģÐºÐ°ÑĤÑĮ": 3238,
      "ĠÐ¸Ð·Ð¼": 3239,
      "ĠÐ¾Ð´Ð½Ð¸Ð¼": 3240,
      "ĠÐ³Ð»ÑĥÐ¿": 3241,
      "ĠÐ·ÑĥÐ±": 3242,
      "ĠÐ³Ð¾ÑģÑĥÐ´Ð°ÑĢ": 3243,
      "ÑĥÑģÐºÐ°": 3244,
      "ĠÐ·Ð°Ð¿Ð°Ñħ": 3245,
      "Ð¾Ð²Ð°ÑĤÑĮÑģÑı": 3246,
      "ĠÑĤÑĢÐµÑĤÑĮ": 3247,
      "ĠÐ¿ÑĢÐµÐ¶Ð´Ðµ": 3248,
      "ĠÐłÐ°Ñģ": 3249,
      "ĠÑģÐµÐ»Ð°": 3250,
      "Ð½Ð¸Ñı": 3251,
      "ĠÐ¿Ð¾ÑģÐ»ÐµÐ´Ð½Ð¸Ð¹": 3252,
      "ĠÐ´Ð¾ÑĩÐµÑĢÐ¸": 3253,
      "ĠÑģÐ¿Ð¾ÐºÐ¾Ð¹Ð½Ð¾": 3254,
      "Ð¾Ð»Ð³Ð¾": 3255,
      "ĠÐ¿Ð¾ÑħÐ¾Ð¶Ðµ": 3256,
      "ĠÐºÐ°ÑĤ": 3257,
      "ĠÐ´Ð¸Ð²Ð°Ð½": 3258,
      "Ð¸ÑĤÐµÐ»Ð¸": 3259,
      "ÐµÐ»Ð¸ÑģÑĮ": 3260,
      "ĠÐĵÐ»Ð°Ð²Ð°": 3261,
      "Ð´ÑĢÑĥÐ³": 3262,
      "ÐµÑĪÐ½Ð¾": 3263,
      "ÑĭÐ²Ð°ÑİÑĤ": 3264,
      "ĠÐ·Ð°ÑıÐ²": 3265,
      "ĠÐŀÐ¿": 3266,
      "ĠÑģÐ¾ÑħÑĢÐ°Ð½": 3267,
      "ĠÐĿÐ¸Ñĩ": 3268,
      "ĠÐ¿Ð¾Ð´Ð¿": 3269,
      "ĠÑģÐºÑĥ": 3270,
      "ÐµÐ»Ð°ÑģÑĮ": 3271,
      "ĠÐ±ÑĢÐ°ÑĤÐ°": 3272,
      "Ð¾ÑĢÐ¾Ð´": 3273,
      "ĠÐ½Ð°ÑĩÐ¸Ð½": 3274,
      "ĠÐ¸Ð¼ÐµÐµÑĤ": 3275,
      "ÐµÐ³Ð¾ÑĢÐ¸": 3276,
      "ĠÐ½Ð°Ð´Ðµ": 3277,
      "Ġ7": 3278,
      "ĠÐ²Ð·ÑĢÐ¾ÑģÐ»": 3279,
      "Ð°ÑĢÐ´": 3280,
      "ĠÐ¾ÐºÐ°Ð·Ð°Ð»Ð°ÑģÑĮ": 3281,
      "ĠÐľÐ¾": 3282,
      "Ð²ÐµÑģÑĤ": 3283,
      "ĠÐºÐ¾Ðµ": 3284,
      "ĠÑĤÑĢÐµÑħ": 3285,
      "ĠÐ³Ð¾Ð²Ð¾ÑĢÑı": 3286,
      "Ð½Ð¸ÑĨÐµ": 3287,
      "ĠÐĴÐ°Ð»": 3288,
      "Ð¼Ð°Ñħ": 3289,
      "ĠÐ²ÑģÐºÐ¾ÑĢÐµ": 3290,
      "ĠÑģÐ½": 3291,
      "ĠÑĥÑĢÐ¾Ðº": 3292,
      "ĠÑģÐ°Ð¼ÑĭÐ¼": 3293,
      "ĠÐ±ÐµÑĢÐµÐ³": 3294,
      "Ð°ÑĤÐµÐ»ÐµÐ¹": 3295,
      "Ð¾ÑĩÐµÐº": 3296,
      "ĠÑĢÐ°Ð·Ð»Ð¸Ñĩ": 3297,
      "Ð¸Ð½ÑĥÐ²": 3298,
      "ĠÐ¿ÑĢÐ¸ÑĪÐ»Ð°": 3299,
      "ĠÐ¾Ð±ÐµÑģÐ¿": 3300,
      "ĠÐ°Ð¿Ð¿": 3301,
      "ĠÑĤÐ²ÐµÑĢÐ´": 3302,
      "ĠÐ¿Ð¾Ð»Ð¸ÑĤ": 3303,
      "ĠÑĤÑĢÐ¸Ð´ÑĨ": 3304,
      "ĠÐ¿Ð¸Ð·Ð´Ñĥ": 3305,
      "Ð¸ÐºÑĥ": 3306,
      "ĠÐ½ÐµÐ²ÐµÑĢÐ¾": 3307,
      "ĠÑĤÐµÑĢÐ¿": 3308,
      "ÑĢÑĥÐ¼": 3309,
      "ĠÐĶÐ¾": 3310,
      "ĠÐºÐ¸Ð²Ð½ÑĥÐ»": 3311,
      "Ð²Ð¸Ð³": 3312,
      "ÐµÐ½Ñģ": 3313,
      "Ð¾Ð±ÑĭÑĩ": 3314,
      "ĠÐ·Ð°Ð´Ð°Ñĩ": 3315,
      "ĠÑĢÐµÐ²": 3316,
      "ĠÐľÐ¾Ñı": 3317,
      "ĠÐ¾ÑīÑĥÑĤ": 3318,
      "Ð¡Ð¡Ðł": 3319,
      "ĠÐĺÑĢÐ¸": 3320,
      "ĠÑĤÑĥÐ°Ð»": 3321,
      "ĠÐ¾ÑĢÐ³Ð°Ð·Ð¼": 3322,
      "ĠÐºÐ°Ð±Ð¸Ð½": 3323,
      "ĠÑģÐ°Ð¼ÑĭÐµ": 3324,
      "ĠÐºÑĢÐµÐ¿ÐºÐ¾": 3325,
      "ĠÐ½Ð°ÑģÐº": 3326,
      "ĠÐ¡Ð¾": 3327,
      "ĠÐŁÑĢÐ°Ð²Ð´Ð°": 3328,
      "ĠI": 3329,
      "ĠÐŁÐ¾Ð¼": 3330,
      "ĠÑĦÐ¸Ð½": 3331,
      "ĠÐ¿Ð¾Ð»Ð¾Ð¶Ð¸Ð»": 3332,
      "Ð¸ÑĤÑĭ": 3333,
      "ĠÑģÑĤÐ¾Ð»ÑĮÐºÐ¾": 3334,
      "Ð´ÐµÑģÑıÑĤ": 3335,
      "ĠÐ´Ð¾Ð»Ð»Ð°": 3336,
      "ĠÑĪÐ°ÑĢ": 3337,
      "ĠÐ¡Ð¡Ð¡Ðł": 3338,
      "ÑĢÐµÐ¼Ñı": 3339,
      "ĠÐ¿Ð¾Ð¹Ð´": 3340,
      "ÐµÐ¼ÑģÑı": 3341,
      "ÑĢÑĥÑĩ": 3342,
      "ĠÐ¼ÐµÑĩÑĤ": 3343,
      "ĠÐ²Ð½ÑĥÑĤÑĢÐµÐ½": 3344,
      "ĠÐ¾Ð±ÐµÑī": 3345,
      "Ð»ÐµÐ½Ð°": 3346,
      "ĠÑģÑĤÐ¾Ñı": 3347,
      "ĠÑĥÑģÐ¸Ð»": 3348,
      "ĠÐ¼ÑĭÑģÐ»ÑĮ": 3349,
      "ĠÑĢÐ°Ð·Ð²ÐµÑĢ": 3350,
      "ĠÐ¼Ð°Ð¼Ðµ": 3351,
      "ÑĢÑĥÐ³Ð¾": 3352,
      "ĠÑīÐµÐ»": 3353,
      "ĠÑĥÑĢÐ¾Ð²Ð½Ñı": 3354,
      "Ð¾Ð»Ð½ÐµÑĩ": 3355,
      "ÑĤÐ¾Ð½": 3356,
      "ĠÐ¼Ð°Ð½": 3357,
      "ÑīÐµÑģÑĤÐ²Ð¾": 3358,
      "ĠÐ±ÑĥÑĤÑĭÐ»": 3359,
      "Ġ8": 3360,
      "ĠÐ±ÑĥÐ¼": 3361,
      "ĠÑģÐ¾Ð±Ð¸ÑĢÐ°": 3362,
      "ĠÐ½Ð¾Ð³Ð°Ð¼Ð¸": 3363,
      "Ð°Ð·Ð²": 3364,
      "ÑĳÐ´": 3365,
      "ĠÐºÐ°ÐºÐ¸Ð¼": 3366,
      "ĠÐŁÑĢÐ¾": 3367,
      "Ð°Ð½Ð½Ð¾Ðµ": 3368,
      "ĠÑħÐ¾ÑĢÐ¾": 3369,
      "ĠÐ²Ð½ÐµÑĪ": 3370,
      "Ð¸Ð»ÐµÑĤ": 3371,
      "ĠÐ¿ÑĢÐ¸Ð´ÑĥÐ¼": 3372,
      "Ð¿Ð¾Ð´": 3373,
      "ĠÑģÐ»ÐµÐ´ÑĥÑİÑīÐ¸Ð¹": 3374,
      "ĠÑĥÐ²Ð¸Ð´ÐµÐ»Ð°": 3375,
      "ÑĢÐµÐº": 3376,
      "ĠÐºÐ¾ÑĢÐ°Ð±Ð»Ñı": 3377,
      "ĠÐ±ÑĢÑİ": 3378,
      "ĠÑģÐ¾Ð»Ð½": 3379,
      "ĠÐ±ÑĥÐºÐ²Ð°Ð»ÑĮÐ½Ð¾": 3380,
      "ĠÑıÑģ": 3381,
      "ĠÑģÐ»ÑĥÑĩÐ¸Ð»Ð¾ÑģÑĮ": 3382,
      "ĠÐ²Ð·Ð³Ð»ÑıÐ´Ð¾Ð¼": 3383,
      "ĠÐ±Ð°Ð»": 3384,
      "al": 3385,
      "Ð¸ÑıÑħ": 3386,
      "ĠÐ½Ð°ÑĢÐ¾Ð´": 3387,
      "ĠÐ¿ÑĢÐ¸ÐºÐ¾Ñģ": 3388,
      "ĠÐ¿Ð¾Ð»ÐµÐ·": 3389,
      "ĠÐ´ÑĭÑĪ": 3390,
      "ĠÐ¿Ð¾ÑģÐ¼Ð¾ÑĤÑĢÐµÑĤÑĮ": 3391,
      "ĠÑĢÐ°Ð·Ð´ÐµÐ»": 3392,
      "ÑģÐºÑĥÑİ": 3393,
      "ĠÐ³Ð°Ð»": 3394,
      "ĠÐ¿ÐµÑĢÐµÑģ": 3395,
      "ĠÐ¿ÑĢÐ¸Ð´ÐµÑĤÑģÑı": 3396,
      "ÐµÐ²Ð¸Ð´": 3397,
      "Ġ18": 3398,
      "ĠÐ¿ÑĭÑĤÐ°ÑıÑģÑĮ": 3399,
      "ĠÐ¾ÑĤÐ½Ð¾Ñģ": 3400,
      "ĠÐ¸ÑģÐºÐ»ÑİÑĩ": 3401,
      "ĠÐ¾ÑģÑĤÑĢÐ¾Ð²": 3402,
      "Ġ9": 3403,
      "Ð¾Ð»Ð·": 3404,
      "ĠÑĢÑĥÐºÐ¾Ð²Ð¾Ð´": 3405,
      "ÐµÐ½Ð½Ð¾ÑģÑĤÑĮ": 3406,
      "ĠÐ·Ð½Ð°Ð»Ð°": 3407,
      "ĠÐĲÐ½Ð´ÑĢÐµÐ¹": 3408,
      "ĠÑĢÑĥÑĩ": 3409,
      "ĠÐŁÐµÑĢ": 3410,
      "ĠÐĴÐ°Ð´Ð¸Ð¼": 3411,
      "ĠÐ½Ð°Ð¿ÑĢÑıÐ³": 3412,
      "ĠÐ¾ÑĤÐ½Ð¾ÑĪÐµÐ½Ð¸Ñı": 3413,
      "ĠÑĤÐº": 3414,
      "Ð¾ÑĤÐº": 3415,
      "ĠÐ¼Ð¸Ðº": 3416,
      "ĠÐĺÑĢÐ°": 3417,
      "ĠÐ¼ÑĭÑĪ": 3418,
      "ĠÐ°Ð½ÑĥÑģ": 3419,
      "ĠÐ½Ð¾Ð¼": 3420,
      "Ð±Ð¸": 3421,
      "ÑĥÐºÐ°": 3422,
      "ĠÑģÐ°Ð¼Ð¾": 3423,
      "ÑĳÑĤÑģÑı": 3424,
      "ĠÑģÐ»Ð¾Ð²Ð°Ð¼Ð¸": 3425,
      "ÑİÑīÐ¸Ðµ": 3426,
      "ĠÐºÐ¾ÑĤÐ¾ÑĢÑĭÐ¼": 3427,
      "ĠÑģÐ¾Ð¾ÑĤÐ²ÐµÑĤ": 3428,
      "ĠÐ¸ÑģÐ¿Ð¾Ð»ÑĮÐ·Ð¾Ð²Ð°ÑĤÑĮ": 3429,
      "ĠÐ±Ð¸": 3430,
      "ĠÐ¿ÑĢÐ¸Ð¼ÐµÑĢÐ½Ð¾": 3431,
      "ĠÑģÑĤÐµÑģ": 3432,
      "ĠÐ»ÑİÐ±Ð»Ñİ": 3433,
      "ĠÐ´ÐµÐ»Ð°Ð»": 3434,
      "ĠÐ´ÐµÑĤÐµÐ¹": 3435,
      "ĠÐ½Ð°Ð´ÐµÐ¶": 3436,
      "ÑĩÐ¸ÐºÐ¸": 3437,
      "ÐµÐ½Ð¸ÑĤÑĮ": 3438,
      "ĠÑģÐ°Ð¼ÑĭÑħ": 3439,
      "ĠÑĥÐ´Ð¾Ð²Ð»ÐµÑĤÐ²Ð¾ÑĢ": 3440,
      "ĠÐºÐ¾Ð»ÐµÐ½": 3441,
      "ĠÐ¾Ð±Ð»Ð°Ð´": 3442,
      "ÑĥÑģÑĤÐ¸Ð»": 3443,
      "ĠÑģÐµÐºÑĢÐµÑĤ": 3444,
      "or": 3445,
      "Ð»Ð°ÑĪ": 3446,
      "ĠÐŁÐ°ÑĢ": 3447,
      "ÑıÐµÑĤ": 3448,
      "ĠÑĤÐ¾Ð²Ð°ÑĢ": 3449,
      "ĠÐŁÑĢÐ¾ÑģÑĤÐ¾": 3450,
      "ĠÐ¿Ð°Ð»ÑĮÑĨÐµÐ¼": 3451,
      "ĠÐµÑģÑĤÐµ": 3452,
      "ĠÑģÐ¿ÑĢÐ°ÑĪ": 3453,
      "ĠÑģÐ²Ð¾ÐµÐ¼": 3454,
      "ĠÐ¿ÑĥÑĤÑĮ": 3455,
      "ĠÐĴÐ¸ÐºÐ°": 3456,
      "ĠÐĳÐµÑĢ": 3457,
      "ĠÐ²Ð»Ð°Ð³Ð°Ð»Ð¸ÑīÐ°": 3458,
      "Ð¾Ð¿Ð°Ñģ": 3459,
      "ÑĢÑĭÐ·": 3460,
      "ĠÐĽÐ°Ð´Ð½Ð¾": 3461,
      "ÑĥÑĪÐºÐ¸": 3462,
      "ĠÐ¸Ð½ÑĤÐµÐ»Ð»ÐµÐº": 3463,
      "ÑĮÐµ": 3464,
      "Ġ\\\\\\": 3465,
      "ĠÑģÑĬ": 3466,
      "ĠÑĢÐ¾ÑģÑĤ": 3467,
      "ĠÑĪÐ¸ÑĢÐ¾Ðº": 3468,
      "Ð°ÑĦ": 3469,
      "ĠÐ²Ð·Ð´ÑĢ": 3470,
      "ÑģÑİ": 3471,
      "ĠÐ½Ð¾Ð²ÑĭÐ¹": 3472,
      "ĠÐ¿ÑĢÐ¾Ð¸ÑģÑħÐ¾Ð´Ð¸ÑĤ": 3473,
      "ÑĢÐ¸Ð²": 3474,
      "ĠÑģÐ»ÐµÐ·": 3475,
      "ĠÑıÐ²Ð»ÑıÐµÑĤÑģÑı": 3476,
      "ĠÐºÑĢÐ¸Ðº": 3477,
      "ĠÐ¿ÐµÑĢÐ²Ð¾Ð³Ð¾": 3478,
      "ĠÐ¸Ð³ÑĢÐ¾Ðº": 3479,
      "ĠÑģÑĢÐµÐ´Ð¸": 3480,
      "ĠÐ¾ÑĤÐ¾ÑĢ": 3481,
      "ĠÐºÐ¾ÑĢÐ¸Ð´": 3482,
      "Ð¸ÐµÐ¹": 3483,
      "ĠÐļÐ¾ÑĢ": 3484,
      "ĠÑĢÐµÐ±ÐµÐ½": 3485,
      "ĠÐ¢Ð°Ð½Ñı": 3486,
      "ĠÐ¸Ð½Ð°ÑĩÐµ": 3487,
      "ĠÐ¿Ð¾Ð»ÑĥÑĩÐ¸ÑĤÑĮ": 3488,
      "Ð»ÐµÐ½Ð¸ÐµÐ¼": 3489,
      "ĠÐ½Ð¸ÐºÐ°ÐºÐ¸Ñħ": 3490,
      "Ð°ÐºÐ°": 3491,
      "ĠÑĩÐµÐ»Ð¾Ð²ÐµÑĩÐµ": 3492,
      "ĠÐ¼Ð°Ð»ÐµÐ½ÑĮÐºÐ¸Ð¹": 3493,
      "ĠÐºÐ°Ð¿Ð¸ÑĤ": 3494,
      "ĠÐ³ÑĢÑı": 3495,
      "ĠÐ¾Ð±Ñģ": 3496,
      "Ð°ÑİÑīÐµÐ³Ð¾": 3497,
      "ĠÐ¿Ð¾Ð³Ð¾Ð²Ð¾ÑĢ": 3498,
      "ĠÐ½Ð°ÑģÑĤÑĥÐ¿": 3499,
      "ĠÑĥÑģÑĤÐ°Ð²": 3500,
      "ĠÐ³Ð»Ð¾ÑĤ": 3501,
      "ĠÑĤÐµÐ¼Ð½Ð¾": 3502,
      "ĠÑĤÐµÐ»Ñĥ": 3503,
      "ĠÐºÐ¾ÑĢÐ°Ð±Ð»ÑĮ": 3504,
      "ĠÐ¡Ð½Ð°ÑĩÐ°Ð»Ð°": 3505,
      "ĠÐ·Ð°Ð²ÑĤÑĢÐ°": 3506,
      "ĠÐ½ÐµÐºÐ¾ÑĤÐ¾ÑĢÐ¾Ðµ": 3507,
      "Ð½ÐµÐ·Ð°Ð¿": 3508,
      "ĠÐ¡Ð¼": 3509,
      "ĠÐĳÑĥÐ´": 3510,
      "ĠÑĥÐ´Ð¾Ð±": 3511,
      "ĠÐ°ÑĤÐ°Ðº": 3512,
      "ĠÐ²ÑĭÐ³": 3513,
      "ĠÐ´Ð¾ÑģÑĤÑĥÐ¿": 3514,
      "ĠÑĥÑģÐ¿Ð¾ÐºÐ¾": 3515,
      "Ð¸ÑĩÐµÑģÐºÐ¾Ð³Ð¾": 3516,
      "Ð°ÑģÑĤÐ»Ð¸Ð²": 3517,
      "ĠÐ®Ð»ÑĮ": 3518,
      "ÑİÑīÐ¸Ð¹": 3519,
      "ĠÑģÑĩÐ°ÑģÑĤÑĮ": 3520,
      "ĠÐ·Ð°Ð¹": 3521,
      "ĠÑĤÐ°ÐºÐ¾Ð¼": 3522,
      "ĠÐ¿Ð¾Ð¹Ð¼": 3523,
      "ĠÐŀÐ»ÐµÐ³": 3524,
      "ĠÐ¢ÐµÐ±Ðµ": 3525,
      "ĠÑģÐ»ÐµÐ´ÑĥÐµÑĤ": 3526,
      "ĠÐ¿ÑģÐ¸Ñħ": 3527,
      "ĠÐ¾ÑĩÐµÑĢÐµÐ´ÑĮ": 3528,
      "ĠÐ¿Ð¾ÑıÑģ": 3529,
      "ĠÐ¾Ð±ÑĥÑĩ": 3530,
      "Ð½Ð¸ÐºÑĥ": 3531,
      "ÑģÑĤÐ¾Ñı": 3532,
      "Ð¾Ð²ÑĭÐ¹": 3533,
      "ĠÐ´ÐµÐ´": 3534,
      "ĠÑĥÑħ": 3535,
      "ĠÐ²ÑĭÑĢÐ°Ð¶": 3536,
      "ĠÑĢÑĤÐ°": 3537,
      "ĠÐľÑĥÐ¶": 3538,
      "ĠÐ¸Ð·Ð²ÐµÑģÑĤ": 3539,
      "ĠÑĢÐµÑĪÐ¸Ð»Ð°": 3540,
      "ĠÐĺÐ³Ð¾ÑĢÑĮ": 3541,
      "ÑĥÑģÑĮ": 3542,
      "ĠÑĪÐµÑģÑĤÑĮ": 3543,
      "ĠÐ¿Ð¾Ð²Ð¾Ð´": 3544,
      "ĠÐ¾ÑĤÐ´ÑĭÑħ": 3545,
      "ĠÐ²ÑĭÑĪÐ»Ð°": 3546,
      "ĠÐ¿Ð¾Ð²ÐµÐ´": 3547,
      "ĠÐķÐ²": 3548,
      "ĠÐ¾Ð±Ð°": 3549,
      "ÑĩÐ¸Ñģ": 3550,
      "ÑĳÐ³": 3551,
      "ĠÐ´ÐµÐ¹ÑģÑĤÐ²Ð¸Ñı": 3552,
      "Ð¾Ð»Ñİ": 3553,
      "ĠÐľÐ°ÑĪÐ°": 3554,
      "ĠÐ²ÐµÑĢÐ½ÑĥÐ»ÑģÑı": 3555,
      "ĠÐ¿ÐµÑĢÐµÐ³": 3556,
      "ĠÐ¾ÑĤÐºÑĢÑĭÐ»": 3557,
      "ĠÑĥÑģÐ»ÑĭÑĪÐ°Ð»": 3558,
      "ĠÑĤÑĢÐ°Ð½": 3559,
      "ĠÑģÐºÐ»Ð°Ð´": 3560,
      "ĠÐ²Ð·ÑıÑĤÑĮ": 3561,
      "ĠÐ¿Ð¾Ð´Ð³Ð¾ÑĤÐ¾Ð²": 3562,
      "ĠÑĥÐ¼Ðµ": 3563,
      "ĠÐ¿Ð»ÐµÑĩÐ¸": 3564,
      "ĠÐ¼Ð¾Ð·Ð³": 3565,
      "ĠÐ±Ð¾Ð¼": 3566,
      "Ð°Ð½Ð½Ð¾Ð³Ð¾": 3567,
      "ĠÑĦÐ°Ð½ÑĤ": 3568,
      "ĠÐ²ÐµÑĩÐµÑĢÐ¾Ð¼": 3569,
      "Ð¨ÐĲ": 3570,
      "Ð°Ð½Ð½ÑĭÐ¼": 3571,
      "ÑģÐºÐ¾Ðµ": 3572,
      "ĠÑĢÐµÐ³": 3573,
      "ĠÐ²ÑĭÑĢ": 3574,
      "ĠÑĦÐ»Ð¾ÑĤ": 3575,
      "Ð¾ÑĢÐ¾Ð¼": 3576,
      "ĠÐĿÐ¸ÑĩÐµÐ³Ð¾": 3577,
      "ÑĢÐ¾Ð³": 3578,
      "Ð¸Ð²Ð°ÐµÑĤÑģÑı": 3579,
      "ĠÐ¾Ð±ÐµÑģÐ¿ÐµÑĩ": 3580,
      "ĠÐŀÑĩÐµÐ½ÑĮ": 3581,
      "ĠÑģÐ¾Ð»Ð´": 3582,
      "ĠÑĥÐ²ÐµÑĢÐµÐ½": 3583,
      "ĠÐ§ÑĤ": 3584,
      "ĠÐ¿ÑĢÐ¸ÑĪÐµÐ»": 3585,
      "ĠÐ£Ð¶Ðµ": 3586,
      "ĠÐ³Ð¾ÑģÐ¿": 3587,
      "ĠÑģÐ¿ÐµÑĢÐ¼Ñĥ": 3588,
      "ĠÐ¿Ð¾Ð¼Ð¾ÑĩÑĮ": 3589,
      "ÑĥÐ»ÑĮÑģ": 3590,
      "ÑĭÐ»Ð°": 3591,
      "Ð±ÐµÐ»": 3592,
      "Ð°Ð²Ð°Ñı": 3593,
      "ĠÐºÐ¾Ð¼Ð°Ð½": 3594,
      "Ð»ÑĮÑĦ": 3595,
      "ĠÐ±Ð°ÑĢ": 3596,
      "Ð»Ð¸Ð±Ð¾": 3597,
      "Ġ15": 3598,
      "ĠÐ¡Ð¨ÐĲ": 3599,
      "20": 3600,
      "ĠÑıÐ·ÑĭÑĩ": 3601,
      "ÑıÑĤÐ°": 3602,
      "ĠÐ²Ð°Ð½Ð½Ð¾Ð¹": 3603,
      "ĠÑĢÐ¾Ñģ": 3604,
      "ĠÐ¶Ð¸Ð´": 3605,
      "ĠÐ¿Ð¾Ð´Ð°ÑĢ": 3606,
      "Ð¾Ð¶Ð´ÐµÐ½Ð¸Ñı": 3607,
      "ĠÐ¡ÐµÑĢÐ³ÐµÐ¹": 3608,
      "ĠÐ¿ÑĢÐ¾Ð´Ð¾Ð»Ð¶Ð°Ð»Ð°": 3609,
      "ĠÑĩÐ¸Ñģ": 3610,
      "ĠÐ´Ð¾Ð»Ð»Ð°ÑĢÐ¾Ð²": 3611,
      "ĠÐ¶Ð´Ð°ÑĤÑĮ": 3612,
      "ĠÐ¿ÐµÑĢÐµÐ¶": 3613,
      "ĠÐ²Ð¾ÑģÐº": 3614,
      "ĠÑĨÐµÐ»ÑĮ": 3615,
      "ĠÑĤÑĢÐ°Ð²": 3616,
      "Ð¾ÑĢÑĥÐ¶": 3617,
      "Ð°ÑģÐ¸Ð±Ð¾": 3618,
      "ĠÑĩÑĤÐ¾Ð±": 3619,
      "ĠÑĤÐµÐ»Ð¾Ð¼": 3620,
      "Ð¸Ð½ÐºÐ¸": 3621,
      "ÑĤÐµÐ¼": 3622,
      "ĠÑĪÑĥÐ¼": 3623,
      "ÑģÑĤÐ²ÐµÐ½Ð½Ð¾Ðµ": 3624,
      "ÐµÐ´Ð»ÐµÐ½Ð½Ð¾": 3625,
      "Ð°ÑĤÐµÐ»Ð¸": 3626,
      "ĠÐŀÑģ": 3627,
      "ĠÐºÐ¾Ð½ÑĨÐ¾Ð²": 3628,
      "ĠÐ¼Ð¾Ð»ÑĩÐ°": 3629,
      "ĠÐ·Ð²Ð¾Ð½": 3630,
      "ĠÐķÑĳ": 3631,
      "ĠÐ¿ÑĢÐµÐ²ÑĢÐ°ÑĤ": 3632,
      "ĠÐ¼Ð¾Ð¶ÐµÐ¼": 3633,
      "ĠÐ¾ÑĤÐºÑĢÑĭÑĤ": 3634,
      "ĠÐ¿Ð¾ÑĤÐ¾Ðº": 3635,
      "Ð°Ð´ÑĨÐ°ÑĤÐ¸": 3636,
      "Ð±Ð¾Ð»": 3637,
      "ÑĪÐºÐ¸": 3638,
      "ĠÑĪÐµÑģÑĤ": 3639,
      "ĠÐºÐ°ÑĢÑĤÐ¸": 3640,
      "ĠÐ¼Ð½Ð¾Ð¶Ðµ": 3641,
      "ĠÑĢÑĤÑĥ": 3642,
      "ĠÐ²Ð¸Ð´Ð¸Ð¼Ð¾": 3643,
      "ĠÑĥÑĩÐ¸ÑĤ": 3644,
      "ÑĤÐ¾ÑĢÑĭ": 3645,
      "ĠÑĢÐ°Ð·Ð°": 3646,
      "ĠÐ¾Ð´Ð½Ð¾Ð¼": 3647,
      "ĠÐ½ÐµÐ²Ð¾Ð·Ð¼Ð¾Ð¶Ð½Ð¾": 3648,
      "Ð°ÑģÐº": 3649,
      "ÑĥÑĢÐ±": 3650,
      "ĠÐ·Ð°ÐºÐ¾Ð½": 3651,
      "ĠÐ¿ÑĢÐ¸Ð±Ð»Ð¸Ð¶": 3652,
      "Ð½Ð¾Ð³": 3653,
      "ĠÑĤÐ²Ð¾Ñı": 3654,
      "ĠÑĦÐ¾Ð½": 3655,
      "ÑĦÐ¾Ð½": 3656,
      "ĠÐ·Ð²ÐµÐ·Ð´": 3657,
      "ĠÐ¿ÑĢÐ¾ÑĪÐ»Ð¾": 3658,
      "ĠÐ¿Ð¾Ð´Ð¾Ð·": 3659,
      "ĠÐ³ÑĢÐ¾Ð¼ÐºÐ¾": 3660,
      "ĠÑĤÑĢÑĥÐ´Ð¾Ð¼": 3661,
      "ĠÐŁÐ¾ÑģÑĤ": 3662,
      "ĠÐŀÑģÑĤ": 3663,
      "ĠÑĦÑĥÑĤ": 3664,
      "ĠÐ¼ÑĥÐ¶ÑĩÐ¸Ð½Ñĭ": 3665,
      "ĠÑįÐºÐ¾Ð½Ð¾Ð¼": 3666,
      "ĠÐ¸Ð³ÑĢÐ°": 3667,
      "ĠÑĥÐ³ÑĢ": 3668,
      "ĠÑĤÑıÐ¶ÐµÐ»": 3669,
      "ÑĢÐ°Ð»Ð°": 3670,
      "ĠÐ¿Ð°ÑĢÐ½Ñı": 3671,
      "ĠÐĶÐ¶Ð¾Ð½": 3672,
      "ĠÑģÐ¸Ð»Ð°": 3673,
      "ĠÐºÑĢÑĥÐ¶": 3674,
      "ĠÐ½ÐµÐ³": 3675,
      "ĠÑĥÐ±ÐµÐ´": 3676,
      "ĠÐ¿Ð»Ð°Ð½ÐµÑĤÑĭ": 3677,
      "ĠÐ´ÑĭÑħÐ°Ð½Ð¸Ðµ": 3678,
      "ĠÐ±Ð¾Ð»ÑĮÑĪÐ¸Ðµ": 3679,
      "ÑĭÑĪÐ»ÐµÐ½": 3680,
      "ĠÐ²ÑĭÐ³Ð»Ñı": 3681,
      "Ð°Ð±Ð°ÑĤ": 3682,
      "Ð¢Ñĭ": 3683,
      "ĠÑıÐ¹ÑĨÐ°": 3684,
      "Ð¾ÑĤÐµÐ½": 3685,
      "Ð°Ð»ÑĮÐ½ÑĥÑİ": 3686,
      "ĠÐ¾Ð´Ð½Ð°ÐºÐ¾": 3687,
      "ĠÐĵÐ¾Ð»": 3688,
      "ĠÑĤÐ°ÐºÑĥÑİ": 3689,
      "ĠÐºÐ¾Ð½ÐµÑĨ": 3690,
      "ĠÐ¡Ð°ÑĪÐ°": 3691,
      "ĠÐ¿ÑĭÑĤÐ°Ð»ÑģÑı": 3692,
      "ĠÑĢÑĥÑģ": 3693,
      "ÑģÑĤÑĢÐµÐ»": 3694,
      "ĠÐ³Ð»Ð°Ð²Ð½Ð¾Ðµ": 3695,
      "ĠÑħÑĥ": 3696,
      "ĠÐ½Ð¸ÐºÐ¾Ð³Ð¾": 3697,
      "ĠÐ²Ð·Ð°": 3698,
      "ĠÐ¼ÐµÑĤÑĢÐ¾Ð²": 3699,
      "ÐºÐ¾ÑģÑĤÑĮ": 3700,
      "ĠÑģÐ»Ð¾Ð²Ð¾": 3701,
      "Ð°ÐºÐ¸": 3702,
      "ĠÐ·Ð¾Ð»Ð¾ÑĤ": 3703,
      "ĠÐ¸Ð·Ð¾Ð±ÑĢÐµÑĤ": 3704,
      "ĠÐ´Ð²ÑĥÐ¼Ñı": 3705,
      "ÐµÐ½ÑĮÐºÐ°": 3706,
      "ĠÑģÐ´ÐµÐ»Ð°Ð»Ð°": 3707,
      "ĠÐ½Ð¾ÑĩÑĮÑİ": 3708,
      "ĠÐ¾ÑĤÐ´ÐµÐ»ÑĮ": 3709,
      "ĠÑĪÐµÑİ": 3710,
      "ĠÐĴÑģÑĳ": 3711,
      "ĠÐ§ÑįÐ½": 3712,
      "Ð°Ð»Ñĭ": 3713,
      "Ð¾Ð³Ðµ": 3714,
      "ĠÐ¸Ð³ÑĢÑĭ": 3715,
      "ĠÐ¾ÑīÑĥÑīÐµÐ½Ð¸Ñı": 3716,
      "ĠÐ²ÑĭÐ¶": 3717,
      "ĠÐºÐ¾Ð¼Ð¿Ð°Ð½Ð¸Ð¸": 3718,
      "ÐµÑħÐ°": 3719,
      "ĠÐ·Ð°ÐºÑĢÑĭÐ²": 3720,
      "ÐµÑĢÐ½Ð¾Ðµ": 3721,
      "ĠÐ²Ð·ÑĢÑĭÐ²": 3722,
      "ĠÐ´Ð¾Ð¶Ð´": 3723,
      "ĠÐºÐ¸ÑģÐºÑĥ": 3724,
      "ĠÐ¼Ð¸Ð¼Ð¾": 3725,
      "ĠÐ½Ð¾Ð³Ñĥ": 3726,
      "ĠÐ¿Ð¾Ð½Ð¸Ð¼Ð°Ð»": 3727,
      "ĠÐ¿Ð¾Ð´Ð½ÑıÐ»": 3728,
      "ĠÐ¾ÑħÑĢÐ°Ð½": 3729,
      "ĠÑĨÐµÐ»Ð¾Ð²Ð°ÑĤÑĮ": 3730,
      "ÑĤÐ¾Ðµ": 3731,
      "ĠÐ¶ÐµÐ»Ð°Ð½Ð¸Ðµ": 3732,
      "ĠÑĥÐ»ÑĭÐ±Ð½ÑĥÐ»ÑģÑı": 3733,
      "ĠÑĥÑĢÐ¾Ð²ÐµÐ½ÑĮ": 3734,
      "Ð½Ð¸ÑģÑĤ": 3735,
      "ĠÐŀÐ»Ñı": 3736,
      "ĠÐ¼Ð°ÑĤÐµÐ¼": 3737,
      "ĠÐ³ÑĢÐ°Ð½Ð¸": 3738,
      "ĠÐ½Ð¾Ð¶ÐºÐ¸": 3739,
      "ĠÑģÐ¼Ð¾Ð¶": 3740,
      "ĠÐ²Ð¾Ð·Ð¼Ð¾Ð¶Ð½Ð¾ÑģÑĤÐ¸": 3741,
      "ĠÐ¼Ð°Ð¼Ð¾Ð¹": 3742,
      "Ð¾Ð¹Ð´Ñı": 3743,
      "ÐµÐ²Ð¸Ñĩ": 3744,
      "ĠÑģÐºÑĢÑĭÐ²": 3745,
      "ĠÑĪÑĥÑĤ": 3746,
      "Ð»ÐµÑĢ": 3747,
      "Ð»ÐµÐ·": 3748,
      "ĠÐĳÑĭÐ»Ð¾": 3749,
      "ĠÐ´ÑĢÑĥÐ³Ñĥ": 3750,
      "ĠÐ¡Ð²ÐµÑĤÐ°": 3751,
      "ĠÑģÐ¸Ð´ÐµÐ»Ð°": 3752,
      "Ð¾ÑĢÑĥ": 3753,
      "ĠÐĺÑħ": 3754,
      "ÑĢÑĥÐ³Ð¾Ðµ": 3755,
      "ĠÑģÑħÐ¾Ð´": 3756,
      "ĠÐ¼Ð¸ÑģÑģ": 3757,
      "ĠÐ·Ð°ÑħÐ²Ð°ÑĤ": 3758,
      "ĠÑĪÐµÐ»": 3759,
      "Ð¾Ð½ÑĮÐºÐ¾": 3760,
      "ÐµÐ¼ÑĮ": 3761,
      "Ð¸Ð²Ð°Ð»ÑģÑı": 3762,
      "ĠÐ±Ð»Ð¸Ð¶": 3763,
      "ĠÑģÐ¼ÑĥÑī": 3764,
      "ĠM": 3765,
      "Ð½ÑĥÐ»Ð¾": 3766,
      "ÐĿÐµ": 3767,
      "ĠP": 3768,
      "ĠÐļÐ¾ÑģÑĤ": 3769,
      "ÑĥÐ¶Ð´Ð°": 3770,
      "ĠÐ²Ð¾Ð½": 3771,
      "ĠÐºÐµÐ¼": 3772,
      "ĠÐ·Ð°Ð²Ð¾Ð´": 3773,
      "Ð¾ÑħÐ¾ÑĤ": 3774,
      "ĠÐ´ÐµÐ½ÐµÐ³": 3775,
      "Ð¾ÑĩÐºÐµ": 3776,
      "ÑħÐ¾Ð¶": 3777,
      "ĠÐ²Ð¾Ð²ÑģÐµ": 3778,
      "Ð»Ð¸Ñı": 3779,
      "Ð»Ð¸Ðº": 3780,
      "Ð»Ð°ÑģÑģ": 3781,
      "ĠÐ´ÑĥÐ¼Ð°ÑĤÑĮ": 3782,
      "ĠÐ¡Ð¸Ð½ÑĮ": 3783,
      "ĠA": 3784,
      "ĠÐºÐ¾Ð¼Ñĥ": 3785,
      "ÐµÐ´Ñĥ": 3786,
      "ÑĤÐ¾ÑĢÐ¸Ð¸": 3787,
      "ĠÐ¸Ð½ÑĤÐµÑĢ": 3788,
      "ĠÐĹÐ½Ð°ÑĩÐ¸ÑĤ": 3789,
      "ĠÐ²Ð²": 3790,
      "ĠÐ²Ð¾ÑģÑħ": 3791,
      "ĠÐ¿ÐµÑĢÐ¸": 3792,
      "ĠÐ¿ÑĢÐ¸ÑģÑĥÑĤÑģÑĤÐ²": 3793,
      "Ð¸Ð²Ð°Ñİ": 3794,
      "ĠÐ¾ÑģÑĤÐ°Ð»Ð¾ÑģÑĮ": 3795,
      "ÑģÑĤÐ²ÐµÐ½Ð½Ð¾Ð³Ð¾": 3796,
      "ÑĪÐµÐ¼Ñĥ": 3797,
      "ĠÑģÐ²ÐµÑĢÑħÑĥ": 3798,
      "ĠÐ±ÐµÐ·Ð¾Ð¿Ð°Ñģ": 3799,
      "ÑĪÐ¸ÑħÑģÑı": 3800,
      "ĠÐ²ÑĭÑģÑĤÑĥÐ¿": 3801,
      "ĠÑįÑĤÐ¸Ð¼Ð¸": 3802,
      "ĠÐŃÑĤÐ¾ÑĤ": 3803,
      "ĠÐ¿Ð¾Ð»ÑĥÑĩÐ¸Ð»": 3804,
      "ĠÐ¼Ð¾ÐºÑĢ": 3805,
      "ĠÐ§ÑĤÐ¾Ð±Ñĭ": 3806,
      "ĠÐ¿ÑĢÐ¸Ð²ÑĭÐº": 3807,
      "ĠÐ¿Ð¾Ð½ÑĢÐ°Ð²Ð¸Ð»Ð¾ÑģÑĮ": 3808,
      "ĠÐ½ÐµÑģÐ¼": 3809,
      "ÑĦÐµÑĢ": 3810,
      "ÑİÑīÐ¸Ñħ": 3811,
      "Ð¾ÑĤÑĥ": 3812,
      "ÑĭÐ²Ð°Ñİ": 3813,
      "ĠÐ¼ÑĥÐ¶ÑĩÐ¸Ð½": 3814,
      "ÑĩÐ¸Ð²Ð¾": 3815,
      "ĠÑģÐ¸Ð½": 3816,
      "ÑİÐ·": 3817,
      "ĠÐ²ÑĭÑģÐº": 3818,
      "ÐµÐ²Ð¸Ð·": 3819,
      "ÑģÑĤÑĢÐµÑĩ": 3820,
      "ĠÐ¿Ð¾ÑģÐ»ÑĥÑĪ": 3821,
      "ĠÑĩÑĥÐ²ÑģÑĤÐ²Ð¾": 3822,
      "ĠÑĤÑıÐ¶ÐµÐ»Ð¾": 3823,
      "ĠÐ¼Ð¸Ð½": 3824,
      "ĠÐĴÑģÐº": 3825,
      "ĠÐ¸Ð¼ÐµÑĤÑĮ": 3826,
      "ĠÑĢÐ°ÑģÐ¿Ð¾Ð»Ð¾Ð¶": 3827,
      "ĠÑĢÐ¾Ð´Ð¸ÑĤÐµÐ»Ð¸": 3828,
      "ĠÐ²Ð¸Ð´Ñĥ": 3829,
      "ĠÐ²Ð¸ÑĢ": 3830,
      "ÐµÐ·Ð¶": 3831,
      "ÑĢÑĭÐ³": 3832,
      "ĠÐ¶ÐµÐ»ÐµÐ·": 3833,
      "ĠÑģÐ²ÑıÐ·Ð¸": 3834,
      "ĠÑģÑĩÐ°ÑģÑĤÐ»Ð¸Ð²": 3835,
      "ĠÑĢÐ°Ð±Ð¾Ñĩ": 3836,
      "ĠÐ½ÐµÑģÐºÐ¾Ð»ÑĮÐºÐ¸Ñħ": 3837,
      "ĠÐºÐ¾Ð»ÐµÐ½Ñı": 3838,
      "ĠÐ¿ÑĢÐ¸Ð¶Ð¸Ð¼": 3839,
      "Ð»ÐµÐ½Ð¸Ð¸": 3840,
      "ĠÐ¿Ð¾ÑģÐ¿": 3841,
      "ĠÑģÐ¸ÑģÑĤÐµÐ¼Ð°": 3842,
      "ĠÐ¸Ð¼ÐµÐ»": 3843,
      "ĠÐ¿ÑĢÐ¸Ð²Ð»ÐµÐº": 3844,
      "ĠÐºÑĥÑģ": 3845,
      "ĠÐ¼ÐµÑħ": 3846,
      "ĠÐ½Ð°ÑĤ": 3847,
      "ĠÐµÐ´Ð¸": 3848,
      "ĠÐľÐ¾Ð¶Ð½Ð¾": 3849,
      "ĠÑĢÑĥÐºÐµ": 3850,
      "ĠÐ¼Ð°ÑĪÐ¸Ð½Ñĭ": 3851,
      "ĠÐĽÐ¾": 3852,
      "ĠÐ·Ð°ÑģÑĥ": 3853,
      "ĠÑįÐºÑģÐ¿ÐµÑĢ": 3854,
      "ĠÐ±Ð»Ð¸Ð¶Ðµ": 3855,
      "ĠÐ¾ÑĤÐºÑĥÐ´Ð°": 3856,
      "ĠÐ·Ð°Ð²Ð¸Ñģ": 3857,
      "ĠÐ½Ð°Ð¹Ð´": 3858,
      "Ð¾Ð²Ð°ÑĤÐµÐ»ÑĮ": 3859,
      "ĠÐ½ÐµÐ¾Ð±ÑĭÑĩ": 3860,
      "ĠÑģÑĤÐ°Ð²": 3861,
      "ĠÑģÐ½ÑıÐ»": 3862,
      "ĠÐºÐ°ÐºÑĥÑİ": 3863,
      "ĠÐ½ÐµÐ´Ð¾ÑģÑĤ": 3864,
      "Ð°Ð´ÑĨÐ°ÑĤ": 3865,
      "ĠÐ¤ÐµÐ¾Ð»Ð°": 3866,
      "ĠÑĢÐ¸Ñģ": 3867,
      "ĠÑĥÐ¿ÑĢÑĥÐ³": 3868,
      "ÑĭÑĢ": 3869,
      "ĠÐĲÐ²": 3870,
      "ĠÐ¿Ð»Ð°ÑĤ": 3871,
      "Ð¾Ð²Ð¾Ð³Ð¾": 3872,
      "ÐºÐ°ÑĦ": 3873,
      "ĠÐ¿ÑĢÐ¾ÐµÐº": 3874,
      "ĠÐ¿Ð¾Ð¿Ð°Ð´": 3875,
      "ĠÑĢÐ°ÑģÑģÐ¼Ð°ÑĤÑĢ": 3876,
      "ĠÐ´ÑıÐ´": 3877,
      "ĠÐ¿ÑĢÐ¸Ð½ÑıÐ»ÑģÑı": 3878,
      "ĠÐ¼ÐµÑģÑıÑĨ": 3879,
      "ĠÐºÐ¾Ð»ÑĮ": 3880,
      "ĠÐ¶ÑĥÑĢ": 3881,
      "ĠÑģÑĤÑĢÐ¾Ð¹": 3882,
      "ĠÐ°Ð±ÑģÐ¾Ð»ÑİÑĤÐ½Ð¾": 3883,
      "Ð´Ð¶": 3884,
      "Ð¾Ð²ÐµÑĢ": 3885,
      "ĠÐ¼ÑĭÑģ": 3886,
      "ĠÐ¸ÑĤ": 3887,
      "ĠÑĤÐ¾ÑĢÐ¾Ð¿": 3888,
      "ÑĭÐ²Ð°ÐµÐ¼": 3889,
      "ĠÐŁÐ¾ÑĤÐ¾Ð¼Ñĥ": 3890,
      "ĠÐŀÐ´Ð¸Ð½": 3891,
      "ĠÐ¿Ð¾Ð¶Ð¸Ð»": 3892,
      "ĠÐ½ÐµÐ±Ð¾Ð»ÑĮÑĪÐ¾Ð¹": 3893,
      "Ð½Ð¾ÑĪ": 3894,
      "ĠÐ²ÑĭÐ²Ð¾Ð´": 3895,
      "ĠÐ²Ð°ÑĢÐ¸": 3896,
      "ĠÐ½ÐµÐºÐ¾ÑĤÐ¾ÑĢÑĭÐµ": 3897,
      "ĠÑĩÐµÑĤÑĭÑĢ": 3898,
      ".\"": 3899,
      "ĠÐĴÐ¸ÑĤ": 3900,
      "ĠÐ¶ÐµÐ½ÑīÐ¸Ð½Ñĥ": 3901,
      "ĠÐ½Ð¸Ð¶": 3902,
      "ĠÐ²Ð°Ð½Ð½ÑĥÑİ": 3903,
      "Ð¾ÑĩÐ½Ð¾": 3904,
      "ĠÐ¾Ð´ÐµÐ¶Ð´Ñĥ": 3905,
      "ĠÐĲÐ»ÐµÐºÑģÐ°Ð½Ð´": 3906,
      "en": 3907,
      "Ð»Ð¾Ð¹": 3908,
      "ÑĪÑĤ": 3909,
      "ĠÐ¿Ð¾Ð¼Ð¾ÑīÑĮÑİ": 3910,
      "ĠÐ¿ÑĢÐ¸Ð½ÐµÑģ": 3911,
      "ĠÐ±Ð»ÐµÑģÑĤ": 3912,
      "ĠÐ´Ð°ÑĤÑĮ": 3913,
      "ĠÐ¿ÑĢÐ¾Ð¼ÐµÐ¶Ð½Ð¾ÑģÑĤÑĮ": 3914,
      "Ð§ÑĤÐ¾": 3915,
      "ĠÑģÑĤÑĢÐ°ÑģÑĤ": 3916,
      "Ð¸Ð½ÑģÑĤÐ²Ð¾": 3917,
      "ĠÑģÐ²ÐµÑĤÐ°": 3918,
      "ĠÐ·Ð°Ð¼ÐµÑĤÐ¸Ð»Ð°": 3919,
      "ĠÐ¸Ð½ÑĤÐµÑĢÐµÑģÐ½Ð¾": 3920,
      "ĠÑĥÑģÑĤÐ°Ð½Ð¾Ð²": 3921,
      "ĠÐ²Ð¾Ð¹Ð½Ñĭ": 3922,
      "ĠÐ¿ÐµÑī": 3923,
      "ĠÐ²Ð°Ð¼Ð¸": 3924,
      "ĠÐ¼Ð¸Ð³": 3925,
      "Ð¸Ð½ÐºÐ°": 3926,
      "ĠÐ¿ÐµÑģ": 3927,
      "ÐµÐ²ÐµÐ»": 3928,
      "ÐµÐ¶Ð°Ð»Ð°": 3929,
      "ĠÐ¶ÐµÐ½Ð°": 3930,
      "Ð´Ð¸Ð²": 3931,
      "ĠÐ²Ð¼ÐµÑģÑĤÐ¾": 3932,
      "ĠÐ¼Ð³Ð½Ð¾Ð²ÐµÐ½Ð¸Ðµ": 3933,
      "ĠÑĢÐµÑĪÐ¸Ð»Ð¸": 3934,
      "ĠÐ²Ð¿ÐµÑĩÐ°ÑĤ": 3935,
      "ĠÑģÐ²Ð¾Ñĳ": 3936,
      "ĠÑĩÑĥÐ¶": 3937,
      "ĠÐ³Ð»Ñı": 3938,
      "ĠÐĶÑĥÐ¼": 3939,
      "ĠÐ¿ÑĢÐ¾Ð±Ð»ÐµÐ¼Ñĭ": 3940,
      "ĠÐ³Ð¾ÑģÑĤÐ¸": 3941,
      "ĠÐ¾ÑĤÐºÑĢÑĭÐ»Ð°": 3942,
      "ĠÐĶÐ¸Ð¼Ð°": 3943,
      "ĠÐ´Ð²ÐµÑĢ": 3944,
      "ĠÑĦÐ¸Ð»ÑĮ": 3945,
      "ĠÑįÐ¿": 3946,
      "ĠÑĤÐµÐ»ÐµÐ²Ð¸Ð·": 3947,
      "Ð°Ð²Ð°Ð»": 3948,
      "Ð»ÐµÐ½Ð½ÑĭÐ¹": 3949,
      "ĠÐ²Ð¾Ð´Ñĥ": 3950,
      "ĠÐ»ÐµÐ¶Ð°Ð»": 3951,
      "ĠÑģÐ¾Ð¾ÑĤÐ²ÐµÑĤÑģÑĤÐ²": 3952,
      "ĠÑģÐ¸Ñħ": 3953,
      "ĠÑģÐ¸Ð»Ñĥ": 3954,
      "Ð½Ð¸Ð»Ð°": 3955,
      "Ð²ÐµÑĢÑģ": 3956,
      "ĠÐ¸Ð´Ð¸": 3957,
      "ĠÐ¾Ð±Ð¼": 3958,
      "ÑĥÑĤÑģÑı": 3959,
      "ĠÐ¸Ð½ÑģÑĤÑĢÑĥÐ¼": 3960,
      "ÑĩÐ°ÑĤ": 3961,
      "ĠÐ¿ÑĢÐµÐºÑĢÐ°ÑģÐ½Ð¾": 3962,
      "ÑıÐ»Ð¸ÑģÑĮ": 3963,
      "ĠÐºÐ¾ÑĢÐ¿": 3964,
      "ĠÑįÐ»ÐµÐºÑĤÑĢÐ¾Ð½": 3965,
      "ĠÐ¡Ð°ÑĪ": 3966,
      "ÑĢÑıÐ¼": 3967,
      "ĠÐºÐ¾Ð½ÑĩÐ¸Ð»Ð°": 3968,
      "ĠÑģÐ¼ÐµÑĢÑĤÐ¸": 3969,
      "Ð½Ð¸Ð²": 3970,
      "ĠÑĢÐ°Ð±Ð¾ÑĤÐµ": 3971,
      "ĠÑĥÑĩÐµÐ½": 3972,
      "ĠÑĥÑģÐºÐ¾ÑĢ": 3973,
      "ĠÐ¸Ð½ÑĦÐ¾ÑĢÐ¼Ð°ÑĨÐ¸Ð¸": 3974,
      "ĠÑĥÑĤÑĢÐ¾Ð¼": 3975,
      "ĠÐ·Ð°ÑģÑĤÐ¾Ð½Ð°Ð»Ð°": 3976,
      "ĠÐ³Ð¾Ð»Ð¾Ð²Ð°": 3977,
      "ĠÐ¿ÐµÑĢÐ²Ð¾Ð¹": 3978,
      "ĠÐĸÐµÐ½ÑīÐ¸": 3979,
      "ĠÐ¿Ð¾Ð³Ð»Ð°Ð¶": 3980,
      "ĠÑģÑĩÐµÑĤ": 3981,
      "ĠÐ¿Ð¾Ð¿ÑĭÑĤÐ°Ð»ÑģÑı": 3982,
      "!Â»": 3983,
      "ĠÐ´Ð»Ð¸": 3984,
      "Ð°Ð¼ÐµÐ½": 3985,
      "Ð¸ÐºÐ°Ð½": 3986,
      "ĠÐĶÐµÐ½Ð¸Ñģ": 3987,
      "ĠÐ¿Ð¾ÐºÐ°Ñĩ": 3988,
      "ĠÑĩÐµÐ»Ð¾Ð²ÐµÑĩÐµÑģ": 3989,
      "ĠÑģÑĤÐµÑģÐ½Ñı": 3990,
      "Ð»ÑıÑĤÑĮÑģÑı": 3991,
      "ĠÐ¿ÑĢÐ¾ÑıÐ²": 3992,
      "ĠÐ¿Ð¾ÑħÐ¾Ð´": 3993,
      "ĠÐ±Ð¾Ð»ÑĮÑĪÐ¸Ð¼": 3994,
      "Ð»ÑĭÐµ": 3995,
      "ĠÐ¿Ð°Ñħ": 3996,
      "Ð¸ÑĤÑĥÑĤ": 3997,
      "ÑĩÐ¸ÐºÐ°": 3998,
      "es": 3999,
      "ĠÐ¾ÑĨÐµÐ½": 4000,
      "ĠÑģÐ¿Ð¸Ð½Ðµ": 4001,
      "ĠÐ½Ð°Ð¶": 4002,
      "ĠÐ³Ð»ÑĥÐ±Ð¾Ðº": 4003,
      "ĠÐ²ÑĩÐµÑĢÐ°": 4004,
      "Ð¾Ð»ÐµÐ¿": 4005,
      "ÑĨÐ¾Ð¼": 4006,
      "Ð°Ð»Ð¾Ð²": 4007,
      "ÐµÐ½Ð½Ð¾ÑģÑĤÐ¸": 4008,
      "ĠÐ¿Ð¾ÑĤÑı": 4009,
      "ĠÐ·Ð²ÐµÐ·": 4010,
      "ĠÑĢÐ°Ð·Ð´ÐµÐ²": 4011,
      "ĠÐ¿Ð¾ÑģÐ»ÐµÐ´Ð½Ð¸Ðµ": 4012,
      "ĠÐ¿Ð¾Ð»Ð¾ÑĤÐµÐ½": 4013,
      "ĠÑģÐ¼Ð¾Ð¶ÐµÑĤ": 4014,
      "ĠÐ´ÑĢÑĥÐ³Ð¸Ð¼": 4015,
      "ĠÐ¿ÑĢÐ°Ð²Ð¸Ð»ÑĮÐ½Ð¾": 4016,
      "ÑĭÐ²Ð°ÑĤÑĮÑģÑı": 4017,
      "ĠÐ¿Ð»Ð°ÑĤÑĮÐµ": 4018,
      "ĠÐķÐ¹": 4019,
      "ÑģÑĤÐ²ÐµÐ½Ð½Ð¾Ð¹": 4020,
      "ĠÐ´Ð²Ð¸Ð³Ð°ÑĤÑĮÑģÑı": 4021,
      "ĠÐĽÐ¸Ð·": 4022,
      "Ð¸Ð²Ð°Ð»Ð°ÑģÑĮ": 4023,
      "ĠÑģÐµÑģÑĤÑĢÑĥ": 4024,
      "ĠÑĦÐ¸Ð½Ð°Ð½Ñģ": 4025,
      "ĠÐ³Ð¾Ð»Ð¾ÑģÐ¾Ð¼": 4026,
      "ĠÐ¾ÑĤÐ¾ÑĢÐ²": 4027,
      "ÐµÐ½ÑĮÐºÐ¾": 4028,
      "ĠÐĹÐ´ÐµÑģÑĮ": 4029,
      "ĠÐ½Ð°Ð¿ÑĢÐ¸Ð¼ÐµÑĢ": 4030,
      "ĠÐ¿Ð¾Ð³Ð¸Ð±": 4031,
      "ĠÑĢÐ°Ð·Ð²ÐµÐ´": 4032,
      "Ð½ÐµÐ·Ð°Ð¿Ð½Ð¾": 4033,
      "ĠÐ¼ÐµÑĢ": 4034,
      "ĠÐ´ÐµÐ¼Ð¾Ð½": 4035,
      "Ð¾Ð±Ð¾ÑĢÐ¾ÑĤ": 4036,
      "ĠÐºÐ¾Ð½ÑĩÐ¸ÑĤÑĮ": 4037,
      "ĠÑĤÑĢÐ°ÑħÐ°ÑĤÑĮ": 4038,
      "ĠÑģÐ²ÐµÑĢÑħ": 4039,
      "ĠÐºÐ¸Ð»Ð¾Ð¼ÐµÑĤÑĢÐ¾Ð²": 4040,
      "ĠÐ³Ð¾Ð´Ñĭ": 4041,
      "ĠÑģÐ¾ÑģÑĤÐ¾ÑıÐ½Ð¸Ð¸": 4042,
      "ÐµÐµÑĤÑģÑı": 4043,
      "ĠÐ±Ñĥ": 4044,
      "ĠÑģÐºÐ»Ð¾Ð½": 4045,
      "ĠÐ¿Ð¾Ð¿Ñĥ": 4046,
      "ĠÐĵÐ¾ÑģÐ¿": 4047,
      "Ð¾ÑĢÑĭ": 4048,
      "ĠÐĴÑĤÐ¾ÑĢ": 4049,
      "ĠÐ¿ÑĢÐ¸Ð²ÑĭÑĩ": 4050,
      "ĠÐ¿ÑĢÐ¸Ð±Ð»Ð¸Ð·": 4051,
      "ĠÐºÐ°Ð½": 4052,
      "Ð»ÐµÐ½Ð½ÑĭÐµ": 4053,
      "ĠÐ¾ÑĤÐ´ÐµÐ»": 4054,
      "ĠÐ»Ð°Ð´Ð½Ð¾": 4055,
      "ĠÐºÐ¾Ð»Ð¸ÑĩÐµÑģÑĤÐ²Ð¾": 4056,
      "ÐµÐ²Ð°": 4057,
      "ĠÐ°ÐºÐºÑĥÑĢÐ°ÑĤÐ½Ð¾": 4058,
      "Ð°ÑİÑīÑĥÑİ": 4059,
      "ĠÐ²Ð»Ð°Ð´": 4060,
      "ĠÐ´Ð¾ÐºÐ°Ð·": 4061,
      "ĠÑĢÐ°ÑģÑĪÐ¸": 4062,
      "ĠÐ¿ÑĢÐµÐ´Ð»Ð¾Ð¶Ð¸Ð»": 4063,
      "ĠÐ¿Ð»Ð¾Ñī": 4064,
      "ĠÐ²Ð·Ð°Ð¸Ð¼": 4065,
      "ĠÐ¿ÑĢÑĭ": 4066,
      "ĠÐĵÐ´Ðµ": 4067,
      "ÑĪÐ¸Ð¼Ð¸": 4068,
      "Ð¾Ð¶Ð¸Ð»": 4069,
      "ĠÐŃÑĤÐ°": 4070,
      "ĠÑģÐµÑĢÐ´ÑĨÐµ": 4071,
      ".\\\\\\": 4072,
      "Ð°Ð»Ñĥ": 4073,
      "ĠÐ¿Ð¾Ð·Ð´Ð½Ð¾": 4074,
      "ĠÑģÐ»ÑĭÑĪÐ°Ð»": 4075,
      "Ð¾Ð´Ñĭ": 4076,
      "ĠÐ²ÑĭÑĢÐ²": 4077,
      "ÑĥÑĪÐºÑĥ": 4078,
      "ĠÐ½Ð¾Ð²ÑĭÑħ": 4079,
      "Ð¸ÐºÐ°Ð¼Ð¸": 4080,
      "ÑıÑīÐµÐ³Ð¾": 4081,
      "Ð½ÐµÑĢ": 4082,
      "ĠÐ¶ÐµÐ»Ð°Ð½Ð¸Ñı": 4083,
      "ÐµÐ½Ð´": 4084,
      "ĠÐ¾ÐºÐ°Ð·Ð°Ð»Ð¸ÑģÑĮ": 4085,
      "ĠÐĿÐ°ÑĤÐ°ÑĪÐ°": 4086,
      "Ð³Ð¾Ð²": 4087,
      "ĠÐ·Ð°Ð¿Ð¸Ñģ": 4088,
      "ĠÐ¿Ð°ÑĢÑĤÐ¸": 4089,
      "ĠÐ½ÐµÐ´ÐµÐ»Ñİ": 4090,
      "ĠÑĨÐµÐ½ÑĤÑĢ": 4091,
      "ÑĨÐµÐ¼": 4092,
      "ĠÐ¼Ð¸ÑĢÐ¾Ð²": 4093,
      "ĠÐ¿Ð¾Ð»Ð°Ð³": 4094,
      "ĠÐ¼Ð°ÑĪÐ¸Ð½": 4095,
      "ĠÐ¡ÑĤÐ°ÑĢ": 4096,
      "Ð¼Ð¾Ð¼": 4097,
      "ÐµÑħÐ°Ð»": 4098,
      "ĠÐ³Ð°ÑĢ": 4099,
      "ĠÑĤÐ¾Ð»Ñĩ": 4100,
      "ĠÑĢÐ°Ð¹": 4101,
      "Ð¸Ð²Ð°ÑİÑĤ": 4102,
      "ĠÐ·ÐµÑĢÐº": 4103,
      "Ð°ÑĤÑĮÑı": 4104,
      "ĠÑħÐ¾ÑĩÐµÑĤÑģÑı": 4105,
      "ĠÐŀÐºÑģ": 4106,
      "ĠÑĦÐ¾ÑĤÐ¾Ð³ÑĢÐ°ÑĦ": 4107,
      "ÑĭÐ»Ð¸": 4108,
      "ĠÐ¼Ð»Ð°Ð´": 4109,
      "ÑĪÐµÐ¼": 4110,
      "Ð¸Ð²Ð°Ð»Ð¸ÑģÑĮ": 4111,
      "ÐµÑĤÐ¸": 4112,
      "ĠÐ¾ÑĤÑģÑĥÑĤÑģÑĤÐ²": 4113,
      "Ð¾Ð³Ð¸": 4114,
      "ĠÐ²ÐµÑĢÐ¾": 4115,
      "ĠÑĤÐ¸Ð¿Ð°": 4116,
      "ÑģÐ»ÑĥÑĪ": 4117,
      "ÑĤÑĥÑĢÐ°": 4118,
      "ĠÐ½Ð°ÑģÐºÐ¾Ð»ÑĮÐºÐ¾": 4119,
      "ÑĢÐ°Ð¼Ð¸": 4120,
      "ĠÑģÑĤÑĥÐ¿": 4121,
      "ĠÐ¡ÐµÐ¹": 4122,
      "ĠÐ½Ð°ÑĪÐ°": 4123,
      "ĠÐ¿Ð°Ð»ÑĮÑĩÐ¸Ðº": 4124,
      "ĠÑĪÐºÐ¾Ð»Ðµ": 4125,
      "ĠÐ¿ÑĢÐ¸Ð·Ð½": 4126,
      "ĠÐ¸Ð·Ð¾": 4127,
      "ĠÐ½Ð¾ÑĩÐ¸": 4128,
      "ĠÐ¼Ð°ÐºÑģÐ¸Ð¼": 4129,
      "ÑĩÐµÑģÐºÐ¸Ñħ": 4130,
      "Ð»Ð°ÑģÑĤÑĮ": 4131,
      "ĠÐ´Ð²Ð¸Ð¶ÐµÐ½Ð¸Ðµ": 4132,
      "Ð»Ð°Ðº": 4133,
      "ĠÐ°Ð´": 4134,
      "ĠÑħÑĥÐ´": 4135,
      "ĠÑĤÐ²Ð¾ÑĢ": 4136,
      "ĠÐĴÑģÐºÐ¾ÑĢÐµ": 4137,
      "ĠÐ½Ð°Ð¿ÑĢÐ¾ÑĤÐ¸Ð²": 4138,
      "Ð»ÐµÐ¿": 4139,
      "ĠÐ»Ð°Ð´Ð¾Ð½ÑĮ": 4140,
      "Ð»ÑĭÐ¹": 4141,
      "ĠÐ»Ð°Ð±": 4142,
      "ĠÐ¿ÑĢÐµÐ´Ð¾ÑģÑĤ": 4143,
      "ÐµÑĢÑĭÐ²": 4144,
      "ĠÑįÐ½ÐµÑĢÐ³Ð¸Ð¸": 4145,
      "ĠÐ¿ÑĢÐµÐ¿": 4146,
      "ĠÑĢÐµÑĪÐµÐ½Ð¸Ðµ": 4147,
      "ĠÐ¿ÑĢÐµÐºÑĢÐ°ÑĤ": 4148,
      "ÐŃÑĤÐ¾": 4149,
      "ĠÐ¿ÐµÑĢÐµÑħÐ¾Ð´": 4150,
      "ĠÐĿÐ°Ð¼": 4151,
      "ĠÐ½ÐµÑĢÐ²": 4152,
      "ĠÐ²Ð¸Ð¶Ñĥ": 4153,
      "ĠÑĢÐµÐ¼": 4154,
      "ĠÑĤÑī": 4155,
      "ĠÐ¼Ð¾Ð³Ð»Ð¾": 4156,
      "ĠÑģÑĤÐ°ÑĢÐ°ÑıÑģÑĮ": 4157,
      "ĠÑĤÐµÑĤÑı": 4158,
      "ĠÑĤÑĥÐ¿": 4159,
      "ĠÑĩÑĥÐ²ÑģÑĤÐ²Ð¾Ð²Ð°Ð»Ð°": 4160,
      "ÐµÐ»Ðµ": 4161,
      "ĠÐ³ÐµÐ½ÐµÑĢ": 4162,
      "Ð°Ð½ÑĤÐ¸Ð¼": 4163,
      "ĠÐĴÐ°Ñģ": 4164,
      "ÑĩÐ½Ð¾": 4165,
      "ĠÑıÐ´ÐµÑĢ": 4166,
      "ĠÐ¾ÑĤÐºÐ¸": 4167,
      "ÐĿÐµÑĤ": 4168,
      "?Â»": 4169,
      "Ð¼ÐµÑĪ": 4170,
      "ĠÐ´Ð¾Ñģ": 4171,
      "ĠÑĩÐµÐ¼Ñĥ": 4172,
      "Ð¾ÑĢÐ¾Ð½": 4173,
      "ĠÐ³Ð¸Ð³": 4174,
      "ĠÐ¿ÐµÑĢÐµÑĪ": 4175,
      "ĠÐļÐ°ÑĥÐ¿ÐµÑĢÐ²ÑĥÐ´Ð°": 4176,
      "ĠÐ»Ð¸ÑĨÐµ": 4177,
      "ĠÐ¿ÑĢÐµÐ´Ð¼ÐµÑĤ": 4178,
      "ĠÐ»Ð¸ÑĦÑĩÐ¸Ðº": 4179,
      "ĠÑģÐ¾Ð½": 4180,
      "ĠÐ´ÑĢÑĥÐ³Ð¾Ðµ": 4181,
      "ĠÐ³Ð¾Ð»Ð¾Ð²Ñĭ": 4182,
      "ĠÐ¼Ð¸Ð½ÑĥÑĤÑĭ": 4183,
      "ĠÐ²ÑģÐµÐ¼Ð¸": 4184,
      "Ð»ÐµÐ¶": 4185,
      "ĠÐ§Ð»ÐµÐ½": 4186,
      "ĠÐ¡Ð¿Ð°ÑģÐ¸Ð±Ð¾": 4187,
      "ĠÑħÐ²Ð°ÑĤÐ¸ÑĤ": 4188,
      "ĠÐĳÐ°ÑĢ": 4189,
      "Ð°ÑĩÐµÐ¼": 4190,
      "ĠÐ¼ÑĥÑĩ": 4191,
      "ĠÑģÐ¾Ð·Ð½Ð°Ð½Ð¸Ðµ": 4192,
      "ĠÐ¡ÐµÐ¹Ð±ÐµÐ»": 4193,
      "ÑģÐ¾ÑĤ": 4194,
      "ÑĢÐ¸Ð½": 4195,
      "ĠÑĤÐ°Ð»Ð¸": 4196,
      "ĠÑĩÐ»ÐµÐ½Ñĥ": 4197,
      "ĠÐ¿ÐµÑĢÐ²ÑĭÐ¼": 4198,
      "ĠÑĪÑĤÐ°Ð½Ñĭ": 4199,
      "ĠÑĨÐ¸": 4200,
      "ĠÐļÐ¾Ð¼": 4201,
      "ĠÐ¢Ð°Ð½": 4202,
      "ĠÐ¡ÐµÑĢÐµÐ¶": 4203,
      "ĠÐŁÐµÑĢÐµÐ´": 4204,
      "ĠÑģÑĥÐ´ÑĮ": 4205,
      "ĠÐ´Ð¾Ð³Ð¾Ð²Ð¾ÑĢ": 4206,
      "Ð°Ð²ÑĪÐ¸Ð¹": 4207,
      "ĠÐºÑĢÐ¾Ð²Ð¸": 4208,
      "ĠÐ²Ð¾Ð·Ð±ÑĥÐ¶Ð´ÐµÐ½Ð¸Ñı": 4209,
      "ĠÐ´Ð¾ÑģÑĤÐ°Ð»": 4210,
      "ĠÑĥÐ´Ð¾Ð²Ð¾Ð»ÑĮÑģÑĤÐ²Ð¸ÐµÐ¼": 4211,
      "ĠÐĶÐ¸": 4212,
      "Ġ12": 4213,
      "ĠÐ½Ð°Ð¼Ð½Ð¾Ð³Ð¾": 4214,
      "Ð»Ð°Ñĩ": 4215,
      "10": 4216,
      "Ð¸Ð½Ðº": 4217,
      "ĠÐ´ÑĢÑĥÐ·ÑĮÑı": 4218,
      "ÑĥÑĢÐ°": 4219,
      "ĠÐ´Ð¸ÑĢ": 4220,
      "ÐµÐ»ÑĮÐµ": 4221,
      "ÑĥÐ¶ÐµÐ»Ð¸": 4222,
      "Ð»Ð°Ñı": 4223,
      "ĠÐ·Ð¾Ð²": 4224,
      "ĠÑĥÐ¼Ð°": 4225,
      "ĠÑįÐ»ÐµÐ¼": 4226,
      "Ð¾ÑĩÐ¸Ð»": 4227,
      "ĠÑĪÐ°Ð½Ñģ": 4228,
      "ĠÐ·Ð°Ð¿Ð°Ñģ": 4229,
      "ÐµÑĢÐ°ÑĤÐ¾ÑĢ": 4230,
      "ĠÐ¼Ð¸Ð½Ð¸Ð¼": 4231,
      "ĠÐ·ÐµÐ¼Ð»Ñİ": 4232,
      "Ð°Ð»ÑĮÑĪÐµ": 4233,
      "ĠÑĤÑĥÐ¼": 4234,
      "ĠÐĿÐ¸": 4235,
      "ĠÐŁÑĥ": 4236,
      "ĠÐ¿Ð¾Ð¶Ð°Ð»ÑĥÐ¹ÑģÑĤÐ°": 4237,
      "ĠÐ¾Ð±Ð»Ð°ÑģÑĤÐ¸": 4238,
      "ĠÐĲÑĢÑĤÐµÐ¼": 4239,
      "ÐµÐ½ÑĤÐ¸": 4240,
      "ÑĥÑīÐµÑģÑĤÐ²": 4241,
      "ĠÐ²Ð¸Ñģ": 4242,
      "Ð»ÑıÐ»": 4243,
      "ĠÐ¼Ð°ÑĤÐµÑĢ": 4244,
      "ĠÐ¤ÑĢ": 4245,
      "ĠÐ´ÐµÑĤÐ¸": 4246,
      "ĠÐ²Ð¾ÑĢÐ¾ÑĤ": 4247,
      "ĠÐŃÐ½": 4248,
      "ĠÐ¾ÑģÑĤÐ°Ð»ÑģÑı": 4249,
      "ĠÐ±Ð¾Ð»ÑĮÑĪÐ°Ñı": 4250,
      "ĠÐŃÑĤÐ¸": 4251,
      "ĠÐ¿ÑĢÐ¾Ð¼ÑĭÑĪÐ»ÐµÐ½": 4252,
      "ĠÑģÐ½ÑıÐ»Ð°": 4253,
      "ĠÐ´ÐµÐ»Ð°ÐµÑĤ": 4254,
      "ĠÑģÐ¿ÐµÑĢÐ¼Ð°": 4255,
      "Ð´ÐµÑĤÑĮ": 4256,
      "ĠÑħÐ¾Ð·ÑıÐ¹": 4257,
      "ĠÐ¼Ð°ÑĤÐµÐ¼Ð°ÑĤ": 4258,
      "ĠÑĥÑģÐ¼": 4259,
      "ĠÐ¿ÑĢÐ¸ÑĢÐ¾Ð´": 4260,
      "ĠÐ±ÑĥÐ¼Ð°Ð³": 4261,
      "ĠÑĥÑģÑĤÑĢÐ¾Ð¹": 4262,
      "ĠÐ¿Ð¾Ð¼ÐµÑī": 4263,
      "ÑĢÐ¾Ð¼Ðµ": 4264,
      "ĠÐĿÐ°Ð·Ð²": 4265,
      "ĠÐ¿ÑĢÐ¸Ð½ÑıÐ»Ð°ÑģÑĮ": 4266,
      "ĠÐ´ÑĢÐµÐ²": 4267,
      "Ð¾Ð·ÑĢÐ°Ñĩ": 4268,
      "ĠÑĢÐ°Ð·Ð½ÑĭÑħ": 4269,
      "ĠÐ¥Ð¾Ñĩ": 4270,
      "ĠÑįÐºÑģÐ¿ÐµÑĢÐ¸Ð¼": 4271,
      "Ð¹Ð´": 4272,
      "ĠÑĦÐ°Ðº": 4273,
      "ÑģÑĤÐ²Ð¸Ñı": 4274,
      "ĠÑħÑĢÐ°Ð½": 4275,
      "ĠÐ¿Ð¾ÑĢÐ°": 4276,
      "Ð¾Ð²Ð°Ð»Ð°ÑģÑĮ": 4277,
      "ĠÑģÑĤÑĢÐ°": 4278,
      "ĠÐ¢ÑĢÐ¸": 4279,
      "ĠÑĢÐ°ÑģÑģÑĤÐ¾Ñı": 4280,
      "ĠÐ·Ð°ÐºÐ»Ð¸Ð½": 4281,
      "ĠÐ½Ð°ÐºÐ°Ð·": 4282,
      "ĠÐ±Ð»Ð¸Ð¶Ð°Ð¹": 4283,
      "ĠÐ¡Ð°Ð´": 4284,
      "ĠÑĪÐµÐ¿": 4285,
      "ĠÐĳÐµÐ·": 4286,
      "ĠÐ¿Ð¾Ð½ÑıÑĤÐ½Ð¾": 4287,
      "ĠÐ¿Ð¾Ð¼Ð½Ñİ": 4288,
      "Ġ25": 4289,
      "ĠÑĤÐµÑģ": 4290,
      "ĠÐ¿Ð¾Ð²ÐµÑĢÐ½ÑĥÐ»ÑģÑı": 4291,
      "Ð½Ð¾Ð¶": 4292,
      "ĠÐ»Ð¸ÑĨÑĥ": 4293,
      "ĠÐºÐ°Ð¶Ð´Ð¾Ð³Ð¾": 4294,
      "ĠÐºÐ¾Ð½ÑĤÑĢÐ¾Ð»": 4295,
      "ĠÐ¿ÑıÑĤÐ¸": 4296,
      "ĠÐ³Ð¾Ð²Ð¾ÑĢÑİ": 4297,
      "ĠÐ·Ð°Ð»ÐµÐ·": 4298,
      "ĠÐ½ÐµÑģÐ¼Ð¾ÑĤÑĢÑı": 4299,
      "ĠÐºÑĥÑħÐ½Ñİ": 4300,
      "ĠÐĹÐ°Ðº": 4301,
      "ĠÐ½Ð¾Ð²Ð¾Ð¹": 4302,
      "ĠÐ¿Ð¾Ð²ÐµÑĢÐ½ÑĥÐ»Ð°ÑģÑĮ": 4303,
      "ĠÐ¿Ð¾Ð´ÑĩÐ¸Ð½": 4304,
      "ĠÐ¶Ð¸Ð·Ð½": 4305,
      "ĠÐ´ÑĥÐ¼Ð°Ð»Ð°": 4306,
      "ÑĪÐµÐ¹ÑģÑı": 4307,
      "ĠÐ¿Ð¾Ð»Ð½Ð¾Ð¹": 4308,
      "ÑģÑĤÐ²ÐµÐ½Ð½ÑĭÐ¼": 4309,
      "ÑĨÐ°Ð¼Ð¸": 4310,
      "ĠÑĢÐ¾Ð±Ð¾ÑĤ": 4311,
      "ĠÐ¿ÐµÑĩ": 4312,
      "ÐµÐ½Ð½Ð¾Ð¼": 4313,
      "ĠÐ²Ð½Ð¸Ð¼Ð°ÑĤÐµÐ»ÑĮÐ½Ð¾": 4314,
      "Ð°Ð½Ð½ÑĥÑİ": 4315,
      "ĠÑĩÐµÑĢÑĤ": 4316,
      "ĠÑģÑĤÑĢÐµÐ»": 4317,
      "ĠÐ¿Ð¾Ð³ÑĢÑĥÐ·": 4318,
      "ĠÐ¼Ð¾Ð»Ð¾Ð´Ð¾Ð¹": 4319,
      "ĠÑĤÑĭÑģÑıÑĩÐ¸": 4320,
      "ĠÐ³ÑĥÑģÑĤ": 4321,
      "Ð¸ÐºÐ¾Ð¹": 4322,
      "ĠÐŃÐ»": 4323,
      "ĠÐ³Ð¾Ð²Ð¾ÑĢÐ¸Ð»Ð°": 4324,
      "Ð¾Ð»Ðº": 4325,
      "ĠÐ°ÑĤ": 4326,
      "ĠÐ¾Ð±ÐµÑĢ": 4327,
      "ĠÐ¿Ð¾Ð´Ð²": 4328,
      "ÑĥÑģÐºÐ°Ñı": 4329,
      "ĠÐ¼ÑĥÐ¶Ñĩ": 4330,
      "ĠÐ´Ð¶Ð¸Ð½": 4331,
      "ĠÐĿÐ°Ð·Ð²Ð°Ð½Ð¸Ðµ": 4332,
      "Ð¾Ð³Ð°": 4333,
      "ĠÐ²Ð¾ÑģÐ¿ÑĢÐ¸": 4334,
      "ĠÐºÑĢÐ°Ð¹Ð½ÐµÐ¹": 4335,
      "Ð¸ÑĤÐµÐ»ÑĮÐ½ÑĭÐ¹": 4336,
      "ĠÐ½Ð°ÑģÐµÐ»": 4337,
      "ĠÐ²ÑĭÐ¿Ð¾Ð»Ð½Ñı": 4338,
      "ĠÐ³ÑĢÑıÐ·": 4339,
      "ĠÐŀÐ»ÑĮÐ³Ð°": 4340,
      "ÐµÑģÑĮ": 4341,
      "ĠÐ½ÐµÑĢ": 4342,
      "ĠÐ±Ð¾ÐµÐ²": 4343,
      "ÐµÐ³Ð¾ÑĢÐ¸Ñı": 4344,
      "ĠÐºÐ¾Ð»ÐµÐ½ÑıÑħ": 4345,
      "ÑģÑĤÑĢÐµÑĩÑĥ": 4346,
      "ÑħÐ¸": 4347,
      "Ð½ÑıÐºÐ°": 4348,
      "ĠÑģÑĤÐ¾Ð½Ð°Ð»Ð°": 4349,
      "ĠÐ´ÑĥÑĢ": 4350,
      "ĠÑģÑĤÐ¾Ð»Ð°": 4351,
      "ĠÑĤÑĢÐ¾Ð³": 4352,
      "ĠÐ¿Ð¾ÐºÐ°Ð·Ð°Ð»Ð¾ÑģÑĮ": 4353,
      "ĠÑĢÐ¾Ð²": 4354,
      "ĠÐľÐ°Ð¹": 4355,
      "ar": 4356,
      "ĠÐ´Ð°Ð½Ð½ÑĭÑħ": 4357,
      "ĠÐ¿ÑĢÐ¸Ð¾ÑĤÐº": 4358,
      "ĠÐ¢Ð¾Ð¼": 4359,
      "ĠÑģÐ¾Ð±ÑĭÑĤÐ¸": 4360,
      "ĠÑģÐ°Ð½ÑĤÐ¸Ð¼": 4361,
      "ĠÐ°ÑĤÐ¾Ð¼": 4362,
      "ĠÐ¿Ð¾Ð´ÑĢÐ¾Ð±": 4363,
      "Ð°Ð»ÑĮÐ½Ð¾Ð¼": 4364,
      "ĠÐ¿Ð¾Ð´ÑĥÐ¼Ð°Ð»Ð°": 4365,
      "ĠÐºÑĥÑĩ": 4366,
      "ĠÐ¾Ð±ÑĬÑıÐ²": 4367,
      "ĠÐĽÑİÐ´": 4368,
      "ÐµÑĢÑĮÑİ": 4369,
      "ĠÐ½Ð°ÑĪÑĥ": 4370,
      "ĠÑģÐµÐºÑģÐ°": 4371,
      "ĠÐ½Ð¸ÐºÐ°ÐºÐ¾Ð³Ð¾": 4372,
      "ĠÐ¾ÑģÐ¾Ð±Ð¾": 4373,
      "ĠÐ¾ÑģÑĤÐ°Ð½Ð¾Ð²Ð¸Ð»ÑģÑı": 4374,
      "ĠÐºÐ¾Ð½ÑģÑĤ": 4375,
      "ĠÑĤÐ¾ÑĩÐºÐ¸": 4376,
      "ĠÐ¿ÐµÑĢÐµÐ½": 4377,
      "ĠÐ¿Ð¾ÑģÑĤÐ°ÑĢ": 4378,
      "ĠÑĥÐ¼ÐµÑĢ": 4379,
      "ĠÑĨÐµÐ»Ð¸": 4380,
      "ĠÐ²ÑĭÐ·Ð²": 4381,
      "ĠÐ¿Ð¾Ð¿ÑĢÐ¾ÑģÐ¸Ð»Ð°": 4382,
      "ĠÐ¿ÑĢÐµÐ»": 4383,
      "ĠÐ·Ð°Ð³Ð¾": 4384,
      "ĠÐµÐ´": 4385,
      "ĠÐ²ÑĭÐ»Ð¸Ð·": 4386,
      "Ġ200": 4387,
      "ĠÐ²Ð°Ð³": 4388,
      "ĠÐķÑģÑĤÑĮ": 4389,
      "ĠÐ¿Ð¾Ð³ÑĢÑĥÐ¶": 4390,
      "ĠÐ¿ÑĢÐ¸Ð³Ð¾ÑĤÐ¾Ð²": 4391,
      "ÑĥÑģÑĤÐ¸Ð»Ð°": 4392,
      "ĠÐ¼Ð¸Ð»Ð»Ð¸Ð¾Ð½Ð¾Ð²": 4393,
      "ÑıÑīÐ¸Ð¹": 4394,
      "ÐºÐ°Ðº": 4395,
      "Ð¸Ð½Ð¾Ð¼": 4396,
      "ĠÐ´Ð²Ð¾ÑĢ": 4397,
      "ĠÐ´ÑĢÑĥÐ³ÑĥÑİ": 4398,
      "ÑģÑĤÑĢÐ°Ð½": 4399,
      "ÐµÐ½Ð½Ð¸": 4400,
      "ĠÑĤÐ¾Ð»Ð¿": 4401,
      "ĠÐ¿ÑĢÐ¸ÑħÐ¾Ð´Ð¸Ð»Ð¾ÑģÑĮ": 4402,
      "ÐµÑĪÑĮÑģÑı": 4403,
      "ĠÐ¿Ð¾Ð´Ð½ÑıÐ»ÑģÑı": 4404,
      "ĠÐ²ÑĭÐ±ÑĢ": 4405,
      "ĠÐ¼Ð¾ÐµÐ¼": 4406,
      "ÐļÐ°Ðº": 4407,
      "ĠÑĥÐ³Ð¾Ð´": 4408,
      "ĠÐºÐ¾Ð´": 4409,
      "ĠÐ½ÑĢÐ°Ð²Ð¸Ð»Ð¾ÑģÑĮ": 4410,
      "ĠÐļÐ°ÑĤÐµÐ³Ð¾ÑĢÐ¸Ñı": 4411,
      "Ð°Ð½Ñĥ": 4412,
      "ĠÑģÐ¾Ð²ÑĢÐµÐ¼": 4413,
      "ĠÐ²ÑģÐºÑĢÐ¸Ðº": 4414,
      "19": 4415,
      "Ð½ÑĥÐ¶Ð´": 4416,
      "ĠÐ½Ð°Ð²ÑģÑĤÑĢÐµÑĩÑĥ": 4417,
      "ĠÐ¾Ð³ÑĢÐ°Ð½Ð¸Ñĩ": 4418,
      "ĠÐ°Ð²ÑĤ": 4419,
      "ĠÐ²ÑĭÑıÑģ": 4420,
      "ÑĢÑıÑĤ": 4421,
      "ĠÐ·Ð°Ð´Ð½Ð¸ÑĨÑĥ": 4422,
      "ĠÑģÐºÐ¾ÑĢÐ¾ÑģÑĤÑĮ": 4423,
      "ĠÑĦÑĥÑĤÐ±Ð¾Ð»": 4424,
      "ĠÑģÑĥÑĤ": 4425,
      "ĠÑĤÑĢÐ¸Ð´ÑĨÐ°ÑĤÑĮ": 4426,
      "ĠÐ½Ð°ÑĢÑĥÐ¶": 4427,
      "ĠÐ´ÑĢÑĥÐ³Ð¾Ð³Ð¾": 4428,
      "ĠÐ³Ð¾ÑĢÐ¾Ð´Ðµ": 4429,
      "ĠÑģÐ¼Ð¾Ð³Ñĥ": 4430,
      "ĠÐ¿Ð»Ñİ": 4431,
      "ĠÐ¿ÑĥÐ³": 4432,
      "ĠÐľÐ°ÑĤÑĮ": 4433,
      "ĠÑĪÐ¾ÑĢ": 4434,
      "ĠÑĤÐµÐ¼Ð¿": 4435,
      "ÑĤÑĭÐ¼Ð¸": 4436,
      "ĠÐ²ÑĭÐ¿Ð¾Ð»Ð½": 4437,
      "ĠÐ¶ÐµÑĢÑĤÐ²": 4438,
      "ÑĳÐ¶": 4439,
      "ĠÐ·Ð°Ð´ÐµÑĢÐ¶": 4440,
      "ĠÑģÐ¾ÑĤÑĢÑĥÐ´": 4441,
      "Ð¾Ð¾": 4442,
      "ĠÑģÑĤÐµÐ¿": 4443,
      "ÐµÐ½Ð¸ÑıÐ¼Ð¸": 4444,
      "ĠÐ½Ð°ÑĪÐµÐ»": 4445,
      "ĠÐ½Ð¾Ð²Ð¾Ð³Ð¾": 4446,
      "ĠÐĿÐ°Ð²ÐµÑĢÐ½Ð¾Ðµ": 4447,
      "ti": 4448,
      "ĠÐ³Ð¾ÑģÑĤ": 4449,
      "ĠÐ·Ð°ÐºÑĢÐ¸": 4450,
      "ĠÑĩÑĥÐ´ÐµÑģ": 4451,
      "ĠÑĦÑĥÐ½Ðº": 4452,
      "ĠÐ¡Ð»": 4453,
      "ĠÑĥÐ³Ð¾Ð»": 4454,
      "ĠÐºÑĢÐ°": 4455,
      "ĠÑģÐºÑĢÑĭ": 4456,
      "ĠÐĹÐ°Ð¿": 4457,
      "ĠÑĥÐ·Ð½Ð°ÑĤÑĮ": 4458,
      "Ġ_": 4459,
      "ĠÐ¿ÑĢÐµÑģÑĤ": 4460,
      "ĠÑģÐ²ÐµÑĤÐµ": 4461,
      "ĠÑħÐ¾Ð»": 4462,
      "ĠÐ¿Ð¾Ð»Ñı": 4463,
      "ĠÐ¼Ð¸ÑģÑĤÐµÑĢ": 4464,
      "ÑĤÐ¾ÑĢÑĥ": 4465,
      "ÐµÐ»ÐµÐ¿": 4466,
      "ĠÑĥÑĤÑĢÐ¾": 4467,
      "ĠÑĤÑİ": 4468,
      "ĠÑĥÐ±ÐµÐ¶": 4469,
      "ĠÐ¿Ð¾ÑıÐ²Ð¸Ð»Ð°ÑģÑĮ": 4470,
      "ĠÐ»ÑİÐ±Ð¾Ð¿ÑĭÑĤ": 4471,
      "ĠÑĤÐµÑĢÑĢÐ¸": 4472,
      "ĠÑıÑģÐ½Ð¾": 4473,
      "ĠÑģÐ³": 4474,
      "ĠÐļÐ¾Ð»": 4475,
      "Ð¤": 4476,
      "ĠÑģÐ¿ÑĥÑģÑĤÑı": 4477,
      "ĠÐ´Ð°Ð¼": 4478,
      "ĠÐ´Ð¾Ð²ÐµÑĢ": 4479,
      "ÑĩÐ°ÑĤÑĮ": 4480,
      "ĠÐ¾Ð±ÐµÐ´": 4481,
      "ĠÐ¿Ð¾Ð·Ð²Ð¾Ð½": 4482,
      "ĠÑĢÐ¾ÑĤÐ¸Ðº": 4483,
      "ĠÐ²Ð¸ÑĢÑĤÑĥ": 4484,
      "Ð¾Ð²Ð¾": 4485,
      "Ð½Ð¸ÐºÐµ": 4486,
      "ĠÐ¾ÑģÑĤÐ°ÑĤ": 4487,
      "ĠÐ¿Ð°Ð¼ÑıÑĤÐ¸": 4488,
      "ĠÑĥÐ·Ð½": 4489,
      "ĠÐ¼ÑĥÐ·Ñĭ": 4490,
      "ĠÐ¡ÑĤÐ¾": 4491,
      "ĠÐ±Ð»Ð°Ð³Ð¾": 4492,
      "ĠÐºÑĥÐ»ÑĮ": 4493,
      "ĠÐ½Ð°Ð¸Ð±": 4494,
      "ÑĢÐ¸ÑģÑĤ": 4495,
      "ĠÑĨÐµÐ½": 4496,
      "ĠÐ´ÐµÐ»Ð°Ð»Ð°": 4497,
      "ĠÐ¿ÑĢÐ¸Ð½ÑıÑĤÑĮ": 4498,
      "ĠÑĥÐ·Ð½Ð°": 4499,
      "ĠÑĥÑģÐ¸Ð»Ð¸": 4500,
      "ÑĪÐµÐ³Ð¾ÑģÑı": 4501,
      "ĠÑĢÐ°Ð·Ð½ÑĭÐµ": 4502,
      "ĠÐ¾ÑĤÐºÑĢÐ¾Ð²": 4503,
      "ĠÐºÐ°ÐºÐ¾Ð³Ð¾": 4504,
      "ĠÑĪÑĤÑĥ": 4505,
      "ĠÑģÑĤÐ¾ÑıÐ»Ð¸": 4506,
      "ĠÐ±Ð¾Ð»ÑĮÑĪÑĥÑİ": 4507,
      "ĠÑģÐ¾ÑģÑĤÐ°Ð²": 4508,
      "ĠÐĽÑİÐ±": 4509,
      "ĠÑĤÑı": 4510,
      "ĠÐ¥Ð¾Ð·Ñı": 4511,
      "ĠÐ¿Ð¾ÑģÑĤÐµÐ»Ð¸": 4512,
      "ĠÐ´Ð¾Ð¼Ðµ": 4513,
      "ĠÐ¿Ð¾Ð»ÑĥÑĩÐ¸Ð»Ð¾ÑģÑĮ": 4514,
      "ĠÐĴÐ¾Ð·": 4515,
      "ĠÐ§Ð°ÑģÑĤÑĮ": 4516,
      "Ð°ÑĪÐµ": 4517,
      "ĠÐ»Ð¾Ðº": 4518,
      "ĠÐ¿ÑĢÐµÐ´Ð»Ð°Ð³": 4519,
      "Ġ16": 4520,
      "Ð½Ð¾ÑģÑĤ": 4521,
      "ĠÐ¾Ð´ÐµÑı": 4522,
      "ĠÑĨÐµÐ¿": 4523,
      "Ð°ÐºÑĥ": 4524,
      "ÐµÐ²Ð½Ð°": 4525,
      "ÐµÑĪÐµ": 4526,
      "ĠÐ¿Ð¾Ð·Ð¶Ðµ": 4527,
      "ĠÐ²Ð¾Ð¿ÑĢÐ¾ÑģÑĭ": 4528,
      "ĠÑĢÐ¾Ð´Ð¸ÑĤÐµÐ»ÐµÐ¹": 4529,
      "ĠÑĤÑĢÑĥÐ´Ð½Ð¾": 4530,
      "ĠÐ·Ð°Ð½Ð¸Ð¼Ð°ÑĤÑĮÑģÑı": 4531,
      "ĠÐ¼Ð½Ð¾Ð³Ð¸Ñħ": 4532,
      "ĠÐķÐ²ÑĢÐ¾Ð¿": 4533,
      "ĠÐ¾ÑħÐ²Ð°ÑĤ": 4534,
      "ĠÑĢÐ°Ð·Ð²Ðµ": 4535,
      "ĠÐ½ÑĥÐ¶ÐµÐ½": 4536,
      "ĠÑĤÑĥÐ°Ð»ÐµÑĤ": 4537,
      "ÑİÑĢ": 4538,
      "ÑģÑĤÐ²Ð¸Ðµ": 4539,
      "ĠÐľÐ¾ÑģÐº": 4540,
      "ĠÐ¸Ð·Ð¾Ð±ÑĢÐ°Ð¶": 4541,
      "ĠÐ¿ÑĢÐ¸ÑģÑĤ": 4542,
      "ÐµÐ½ÑĮÐºÐ°Ñı": 4543,
      "ĠÐ¤ÑĢÐ°Ð½": 4544,
      "ĠÐ±ÐµÑģÐºÐ¾Ð½": 4545,
      "ĠÐ±Ð¾Ð³Ð°ÑĤ": 4546,
      "Ð»Ð¸ÑĤÐµÐ»ÑĮ": 4547,
      "Ð°ÑİÑīÐ¸Ð¼": 4548,
      "ĠÐŁÐ¾ÑģÐ»ÐµÐ´": 4549,
      "ĠÐ¿ÑĢÐµÐ´Ð¿ÑĢÐ¸": 4550,
      "ĠÐ¾ÑĩÐµÑĢÐµÐ´Ð½Ð¾Ð¹": 4551,
      "ĠÐ¿ÑĮÑı": 4552,
      "ĠÐļÑĢÐ¾Ð¼Ðµ": 4553,
      "ĠÐ¿ÑĢÐµÐ´ÑĥÐ¿": 4554,
      "Ð¼ÐµÑĢÐ¸ÐºÐ°Ð½": 4555,
      "ÑĢÐ¾ÑģÑĤÑĢÐ°Ð½": 4556,
      "ÑĤÐ¸Ð¼": 4557,
      "ĠÐ½ÐµÐ¿Ð¾Ð½": 4558,
      "ĠÐ¸ÑģÑħÐ¾Ð´": 4559,
      "ĠÑģÑĤÐ°Ð½ÐµÑĤ": 4560,
      "ĠT": 4561,
      "ĠÐ²Ð°Ð»": 4562,
      "ĠÐŁÐ¾Ð¿": 4563,
      "Ð¸ÑĢÐ°ÑĤÑĮ": 4564,
      "Ð°ÑİÑīÐ°Ñı": 4565,
      "ĠÑĥÑĩÐ¸ÑĤÐµÐ»ÑĮ": 4566,
      "ĠÑģÑħ": 4567,
      "ÑİÐ¼": 4568,
      "ĠÐ·Ð»": 4569,
      "ĠÐºÐ¾ÑĦ": 4570,
      "ĠÐ¿Ð¾ÑĨÐµÐ»Ñĥ": 4571,
      "ĠÐ¿ÑĢÐ¾ÑĢ": 4572,
      "ĠÑĤÐ²Ð¾ÐµÐ¹": 4573,
      "ĠÑĢÐ°Ð·Ð³Ð¾Ð²Ð°ÑĢ": 4574,
      "ĠÐ¾ÑīÑĥÑīÐµÐ½Ð¸Ðµ": 4575,
      "ĠÑĢÐ°Ð·Ð´Ð²Ð¸Ð½ÑĥÐ»Ð°": 4576,
      "ĠÑİÐ±ÐºÑĥ": 4577,
      "ĠÐĸÐµÐ½ÑīÐ¸Ð½Ð°": 4578,
      "ĠÐ½Ð°ÑģÑĤÑĢÐ¾": 4579,
      "ÐµÑħÐ°Ð»Ð¸": 4580,
      "Ð¸ÑĤÐµÑĤ": 4581,
      "ĠÑħÐ»Ð¾Ð¿": 4582,
      "ĠÐ²Ð¾Ð·Ð´": 4583,
      "ĠÑĥÑĤÑĢÐ°": 4584,
      "ĠÑģÐ¾Ð´ÐµÑĢÐ¶": 4585,
      "ĠÐ¿ÐµÑĢÐ¸Ð¾Ð´": 4586,
      "Ð·ÐµÐ¼": 4587,
      "ĠÑģÑĤÐµÐ½Ñĭ": 4588,
      "ĠÐ»Ð°Ð±Ð¾ÑĢÐ°": 4589,
      "ĠÐ´Ð¾Ð½": 4590,
      "ĠÐ³Ð½Ð¾Ð¼": 4591,
      "Ð¾ÑĩÐºÐ¾Ð¹": 4592,
      "ĠÐļÐ°Ð¶Ð´": 4593,
      "ĠÐºÐ¾Ð»Ð¾Ð½": 4594,
      "ĠÐ¿Ð¾ÑĢÑĤ": 4595,
      "ĠÑħÑĥÐ¶Ðµ": 4596,
      "ĠÐ¿Ð¾ÐºÑĢÐ°Ñģ": 4597,
      "Ð¸ÑĩÐµÑģÐºÐ¾Ðµ": 4598,
      "ĠÑģÐ¿ÐµÑĢÐ¼Ð¾Ð¹": 4599,
      "ĠÐ°Ð½Ð°Ð»": 4600,
      "ĠÑĤÐµÑĩÐµÐ½Ð¸Ðµ": 4601,
      "ĠÑĤÐµÑĢÐ¼": 4602,
      "ĠÐ´ÑĢÐ¾ÑĩÐ¸ÑĤÑĮ": 4603,
      "ĠÐ±ÑĢÐ¾Ð½": 4604,
      "ĠÐ¿Ð¾Ð¿ÑĢÐ¾ÑģÐ¸Ð»": 4605,
      "ÐµÐ´Ð¸": 4606,
      "Ð°Ð¶Ð°": 4607,
      "ĠÐ¾Ð±ÑĬÐµÐº": 4608,
      "ÑİÐ½": 4609,
      "ĠÐ¿ÑĢÐ¾Ð´Ð¾Ð»Ð¶Ð¸Ð»": 4610,
      "ĠÐ¼Ð°ÑģÑĤÑĥÑĢÐ±": 4611,
      "ĠÐ°Ð¿Ð¿Ð°ÑĢ": 4612,
      "ÑıÐº": 4613,
      "ĠÑģÐµÐ²": 4614,
      "ĠÐ¾ÑģÑĤÐ°Ð½Ð°Ð²Ð»Ð¸Ð²": 4615,
      "ĠÐ²ÐµÐ»Ð¸ÐºÐ¾Ð»ÐµÐ¿": 4616,
      "ĠÐľÐ¾Ð¸": 4617,
      "Ð°Ð·Ð´": 4618,
      "ĠÐ¾Ð±Ð²": 4619,
      "ÑĭÐ²Ð°Ð»ÑģÑı": 4620,
      "ĠÐ¸ÑģÑĤÐ¾Ñĩ": 4621,
      "ĠÐ³Ð¾Ð²Ð¾ÑĢÐ¸Ð»Ð¸": 4622,
      "ĠÑģÑĦ": 4623,
      "ĠÐĴÐ°Ð½": 4624,
      "ĠÐĴÐ´ÑĢÑĥÐ³": 4625,
      "Ð´ÑĥÑī": 4626,
      "ĠÐ¿ÐµÑĢÐµÐ´Ð¾": 4627,
      "ĠÐ±Ð»Ð¾Ðº": 4628,
      "ĠÐ¼Ð°Ð»ÑĮÑĩÐ¸ÐºÐ°": 4629,
      "ĠÐ¿Ð¾ÑĤÑĢÑıÑģ": 4630,
      "ĠÐ¿Ð¾ÐºÑĥÐ¿": 4631,
      "ĠÐ¼Ð°Ð³Ð°Ð·": 4632,
      "ĠÑģÐ»ÑĥÑĩÐ°Ð¹Ð½Ð¾": 4633,
      "Ð¸ÑĪÐ¸": 4634,
      "ĠÐ½Ð°ÑĩÐ°Ð»Ð¾": 4635,
      "ĠÐ¾ÑģÑĤÐ°Ð»ÑĮÐ½ÑĭÐµ": 4636,
      "ĠÑĢÐ°Ð±Ð¾ÑĤÐ°": 4637,
      "ĠÐ¿ÑĢÐ¸ÐºÑĢÑĭ": 4638,
      "ĠÐ¼ÑĥÑģ": 4639,
      "ĠÐŁÐ¾Ñħ": 4640,
      "Ð¸Ð´Ñĥ": 4641,
      "ĠÐķÐ¼Ñĥ": 4642,
      "Ð¸Ð½ÑĥÑĤ": 4643,
      "ĠÐ¿ÑĢÐ¸Ð½Ð°Ð´": 4644,
      "ÑĭÑĤÑĮ": 4645,
      "ĠÐ¾Ð±Ð»ÐµÐ³": 4646,
      "ĠÑģÐ¿ÑĥÑĤ": 4647,
      "ĠÐ»Ð°ÑģÐºÐ¾Ð²": 4648,
      "ĠÐ²ÑĭÑĤÐ°ÑīÐ¸Ð»": 4649,
      "ĠÐ²Ð¾ÑģÐµÐ¼ÑĮ": 4650,
      "ĠÑĦÐ°Ð½ÑĤÐ°Ð·": 4651,
      "Ð°ÑĩÐ¸": 4652,
      "ĠÐĴÐ¾Ð·Ð¼Ð¾Ð¶Ð½Ð¾": 4653,
      "ĠÐ¿Ð¾ÐºÐ¾ÑĢ": 4654,
      "ĠÑĥÐ½Ð¸Ð²ÐµÑĢÑģ": 4655,
      "ĠÐ½Ð°ÑĪÐµ": 4656,
      "ĠÐºÐ°ÐºÐ¸Ñħ": 4657,
      "ĠÐ¿ÑĢÐ¸ÑģÑĤÑĥÐ¿": 4658,
      "ÑĥÐ´Ð¾Ð±": 4659,
      "ĠÐºÑĥ": 4660,
      "ĠÐłÐ¾ÑģÑģ": 4661,
      "ĠÐ¾ÑĩÐµÐ²Ð¸Ð´": 4662,
      "ÑĥÐ»ÑıÑĢ": 4663,
      "ĠÐ¿Ð¾Ð´ÑĢÑĥÐ¶": 4664,
      "ĠÐ¢Ð¾ÑĤ": 4665,
      "ĠÑģÐ¾Ð·Ð´Ð°ÑĤÑĮ": 4666,
      "ĠÑģÑĤÑĢÑĥÐº": 4667,
      "ĠÐłÐ¾Ð±": 4668,
      "Ð¸ÑĩÐµÑģÐºÐ°Ñı": 4669,
      "ĠÐ¶Ð¾Ð¿Ñĥ": 4670,
      "ĠÐºÐ»ÑİÑĩ": 4671,
      "Ð°ÑĪÐºÑĥ": 4672,
      "Ð¾Ð¹Ð´ÐµÑĤ": 4673,
      "ĠÐ°Ð²ÑĤÐ¾Ð¼Ð°ÑĤ": 4674,
      "Ð¾Ð½Ð´": 4675,
      "ĠÐ¿Ð¾Ð´Ñģ": 4676,
      "ĠÑĤÑĢÑĥÐ±": 4677,
      "ĠÐ´ÐµÐ²ÑĥÑĪÐºÑĥ": 4678,
      "ĠÐ¶Ð¸Ð²Ð¾ÑĤÐ°": 4679,
      "ĠÐ¡Ð²ÐµÑĤÐºÐ°": 4680,
      "ÐºÑĥÑĢ": 4681,
      "ĠÑģÐ¿ÐµÑĪ": 4682,
      "ĠÐ³Ð¾ÑĢÐ»Ð¾": 4683,
      "ĠÐ´ÑĭÑĢÐ¾ÑĩÐºÑĥ": 4684,
      "ĠÐĿÐ°Ð¿Ð¾Ð»ÐµÐ¾Ð½": 4685,
      "ĠÐ²ÑĭÑĪÐ»Ð¸": 4686,
      "ĠÑĤÐ²Ð¾Ð¸": 4687,
      "Ð¾ÑĤÐ¾": 4688,
      "Ð°ÑģÑĤÐ²": 4689,
      "ĠÐ½Ð¸ÐºÐ¾Ð¼Ñĥ": 4690,
      "Ð»ÐµÐ½Ñĭ": 4691,
      "ĠÐ´Ð°Ð»ÑĮÐ½ÐµÐ¹": 4692,
      "ĠÑģÑĤÐ¾Ð½Ñĭ": 4693,
      "ĠÐ½Ð°ÑĩÐ¸Ð½Ð°ÐµÑĤ": 4694,
      "ĠÐ¿Ð¾Ð¿ÑĢÐ¾Ð±Ð¾Ð²Ð°ÑĤÑĮ": 4695,
      "ĠÑĪÐºÐ¾Ð»Ñĭ": 4696,
      "Ð°ÑīÐµ": 4697,
      "ĠÑģÐ¼ÑĭÑģÐ»Ðµ": 4698,
      "ÑĤÐ¾ÑĢÐ¾Ð²": 4699,
      "ĠÐ¼Ð¾Ñĳ": 4700,
      "ĠÑĥÑĢÐ¾Ð²Ð½Ðµ": 4701,
      "Ð¾ÑģÐ°": 4702,
      "ĠÑĥÐ·Ð½Ð°Ð»": 4703,
      "ĠÑģÐ¾Ð»Ð´Ð°ÑĤ": 4704,
      "ĠÑĤÐ°Ð±": 4705,
      "ĠÑıÑī": 4706,
      "ÑĢÐ¸ÑĢÐ¾Ð²": 4707,
      "ĠÐ²Ð°Ð¶Ð½Ð¾": 4708,
      "ÐĻ": 4709,
      "ĠÐ½Ð°ÑħÐ¾Ð´Ð¸ÑĤÑģÑı": 4710,
      "ÑĩÑĤÐ¾": 4711,
      "ĠÐłÐ¾Ð´": 4712,
      "ĠÐ½ÐµÐ´Ð°Ð²Ð½Ð¾": 4713,
      "Ð¾Ð²Ð°Ð»Ð¾ÑģÑĮ": 4714,
      "Ð¿ÑĢÐµÐ¶": 4715,
      "ĠÑģÐ²Ð¸Ð´": 4716,
      "Ð°ÑĨÐ¸ÐµÐ¹": 4717,
      "ĠÐ½ÐµÐ¿Ð»Ð¾": 4718,
      "ĠÑıÐ³Ð¾Ð´Ð¸ÑĨ": 4719,
      "ĠÐ¿Ð¾ÑĨÐµÐ»Ð¾Ð²Ð°Ð»": 4720,
      "ĠÐ³Ð¸Ð±": 4721,
      "Ð½Ð¸ÐºÐ°Ð¼Ð¸": 4722,
      "ĠÐ³Ð¾ÑĤÐ¾Ð²Ð°": 4723,
      "ĠÐ½Ð¾ÑĢÐ¼Ð°Ð»ÑĮÐ½Ð¾": 4724,
      "Ð»ÐµÐ½Ð¸Ñİ": 4725,
      "ĠÐ½Ð°Ð¾Ð±Ð¾ÑĢÐ¾ÑĤ": 4726,
      "ĠÐ¿Ð¾Ð´ÑĬ": 4727,
      "ĠÐ³Ð¾Ð»Ð¾Ð²ÐºÐ°": 4728,
      "ĠÐºÐ»": 4729,
      "ĠÐ»Ð°Ð¿": 4730,
      "ĠÐ²Ð¾Ð·Ð»Ðµ": 4731,
      "ĠÑģÐ¸ÑģÑĤÐµÐ¼Ñĥ": 4732,
      "ĠÐ»ÐµÑģÑĤ": 4733,
      "Ð»ÑıÐµÑĤ": 4734,
      "Ð²ÐµÑĢÐ¶Ð´": 4735,
      "ĠÐ´Ð²Ð¸Ð³Ð°ÑĤÑĮ": 4736,
      "ĠÐºÑĢÑĥÑĤ": 4737,
      "Ð¾ÑĪÐ»Ð¸": 4738,
      "ÑĢÐ¾ÑģÐ¸Ð»": 4739,
      "ĠÑĨÐ°ÑĢ": 4740,
      "ĠÐ·ÐµÐ¼Ð»Ð¸": 4741,
      "ĠÐ¿Ð¾Ð´Ð¾ÑĪÑĳÐ»": 4742,
      "ĠÐ²Ð¾ÑĪÐ»Ð°": 4743,
      "ÑĥÐ±Ð»Ð¸": 4744,
      "ÑĢÐµÐ´Ð¸": 4745,
      "ĠÑĥÐ¿ÑĢÐ°Ð²Ð»ÐµÐ½Ð¸Ñı": 4746,
      "Ð¿ÑĢÐµÐ¶Ð½ÐµÐ¼Ñĥ": 4747,
      "ĠÑĢÑĤÐ¾Ð¼": 4748,
      "ĠÐ¿ÑĢÐ¸ÐºÑĢÑĭÐ²": 4749,
      "ĠÑĩÐµÑģÑĤÐ½Ð¾": 4750,
      "Ð½Ð¸Ð¼Ð¸": 4751,
      "Ð°ÑĤÑĥÑĢ": 4752,
      "ĠÐ¾ÑģÑĤÐ°Ð²Ð°Ð»Ð¾ÑģÑĮ": 4753,
      "ĠÐ¿Ð¾Ð¿ÑĭÑĤÐ°Ð»Ð°ÑģÑĮ": 4754,
      "ĠÐ»ÐµÐ²": 4755,
      "ÑĤÑĢÐ°Ðº": 4756,
      "Ġ14": 4757,
      "ĠÑģÐµÐºÑģÐ¾Ð¼": 4758,
      "ĠÐĵÐ°Ð»": 4759,
      "ĠÐ·Ð°ÐºÐ°Ð·": 4760,
      "ĠÐºÑĢÐ¾Ð²ÑĮ": 4761,
      "ĠÐľÐ°Ð»ÑĮ": 4762,
      "Ð¸ÑĤÐµÐ»ÑĮÐ½ÑĭÐµ": 4763,
      "ĠÐ¿Ð¾ÑıÐ²Ð¸Ð»ÑģÑı": 4764,
      "ĠÑģÑĤÑĢÐ°Ð½Ð½Ð¾": 4765,
      "ĠÐ³Ð»Ð°Ð´Ð¸ÑĤÑĮ": 4766,
      "Ð¾Ð´Ð¾Ð»": 4767,
      "ÐµÑĤÑĮÑģÑı": 4768,
      "ĠÐ¸Ð´ÐµÑĤ": 4769,
      "ĠÐ·ÑĢÐµÐ½Ð¸Ñı": 4770,
      "ĠÐ¿Ð¾ÑĨÐµÐ»Ð¾Ð²Ð°Ð»Ð°": 4771,
      "Ð¸ÑĤÐµÑĢ": 4772,
      "ÐµÐ½Ð¸ÑĢÐ¾Ð²": 4773,
      "ÑĨÐµÐ»": 4774,
      "ĠÐ²Ð´Ð¾Ð»ÑĮ": 4775,
      "Ġ0": 4776,
      "ĠÐ¿Ð¾Ð´Ð½ÑıÐ»Ð°": 4777,
      "ĠÐ¡Ð»ÐµÐ´": 4778,
      "ĠÐ¿Ð¾Ð´ÑģÑĤÐ°Ð²": 4779,
      "ĠÐ·Ð°ÑģÐ¼Ðµ": 4780,
      "ĠÐºÐ¾ÑĢÐ°Ð±Ð»Ð¸": 4781,
      "ĠÑĥÐ»Ð¸ÑĨÐµ": 4782,
      "ĠÑĩÐ¸ÑģÐ»": 4783,
      "ĠÐĺÐĺ": 4784,
      "ĠÐ¾ÐºÐ¾Ð½ÑĩÐ°ÑĤÐµÐ»ÑĮÐ½Ð¾": 4785,
      "ĠÐ¿ÐµÑĢÐµÐ²ÐµÑĢ": 4786,
      "ÑĳÑĪÑĮ": 4787,
      "Ð»ÐµÐ½Ð½ÑĭÑħ": 4788,
      "ĠÑģÐ¾ÑģÑĤÐ¾ÑıÐ½Ð¸Ðµ": 4789,
      "Ð´ÑĢÐµ": 4790,
      "Ð¸ÑĤÐµÐ»ÑĮÐ½Ð¾Ð¹": 4791,
      "ĠÐ½Ð°Ð·Ð½Ð°Ñĩ": 4792,
      "ĠÐ²Ð½Ð¸Ð·Ñĥ": 4793,
      "ĠÑĢÐ°Ð±Ð¾ÑĤÐ°ÐµÑĤ": 4794,
      "ĠÐ¼ÐµÑģÑıÑĨÐ°": 4795,
      "ĠÑģÐ¼ÑĥÑĤ": 4796,
      "ĠÑģÐ»Ð¾Ð¶Ð½Ð¾": 4797,
      "ĠÐ¿ÐµÑĢÐ²ÑĭÐµ": 4798,
      "ĠÐ¿Ð»Ð¾Ñħ": 4799,
      "ĠÐ¿Ð¾Ð¼Ð¾ÑīÑĮ": 4800,
      "ĠÐ»Ð¾Ð³": 4801,
      "ĠÐ¼Ð¾Ð¶ÐµÑĤÐµ": 4802,
      "ÑıÑīÐµÐ¹": 4803,
      "ÑıÑīÐ¸Ñħ": 4804,
      "ĠÑįÐ¼Ð¾": 4805,
      "ĠÑĢÐ°ÑģÑģÑĤÐ°Ð²": 4806,
      "ĠÐ±ÑĭÐ²Ð°ÐµÑĤ": 4807,
      "ĠÐ»Ð¸Ð·Ð°ÑĤÑĮ": 4808,
      "Ð¸ÑģÐ°": 4809,
      "ĠÐ¼ÐµÑĤÐ¾Ð´": 4810,
      "ĠÐ¿Ð¾ÑĢÑıÐ´ÐºÐµ": 4811,
      "ĠÐ¿Ð¾Ð²Ð¾ÑĢ": 4812,
      "ĠÐºÑĥÐ»": 4813,
      "Ð¾Ð¼Ð°": 4814,
      "ĠÑĩÑĳÑĢ": 4815,
      "Ð¾Ð´Ð¸": 4816,
      "ĠÑĤÐµÐ¼Ð¿ÐµÑĢ": 4817,
      "ĠÐ³ÐµÐ½": 4818,
      "Ð¸ÑĨÐ°": 4819,
      "Ð°Ð´Ð¾Ð±": 4820,
      "ĠÐ¿Ð¾Ð»Ð¾Ð¶Ð¸Ð»Ð°": 4821,
      "ĠÐ¿ÑĢÐ¸ÑĩÐ¸Ð½": 4822,
      "ĠÐ½Ð°ÑĩÐ°Ð»ÑĮ": 4823,
      "ĠÐ½ÐµÐ¼ÐµÐ´Ð»ÐµÐ½Ð½Ð¾": 4824,
      "ĠÐ¦Ð·Ð¸": 4825,
      "ĠÑģÐ¸ÑĤÑĥÐ°ÑĨÐ¸Ð¸": 4826,
      "ÐºÑĥÐ¿": 4827,
      "ĠÑĢÐ°ÑģÑĤÐµÑĢ": 4828,
      "ĠÐ¾Ð´ÐµÑıÐ»Ð¾": 4829,
      "Ð¾Ð»Ð½Ð¸ÑĤÐµÐ»ÑĮ": 4830,
      "Ð»ÑİÐ±": 4831,
      "ĠÐºÐ¾Ð½ÑĩÐ°ÑĤÑĮ": 4832,
      "ĠÐ²ÐµÐº": 4833,
      "ĠÐ¿ÑĢÐµÑģ": 4834,
      "ÑīÑĥÐ¿": 4835,
      "ÑĢÑĥÑĤ": 4836,
      "ĠÐĿÐµÑģÐº": 4837,
      "ĠÐ¿Ð¾Ð·Ð´": 4838,
      "ĠÐĶÐ¶Ð¸Ð¼": 4839,
      "ĠÐ¸Ð³ÑĢÐ°ÑĤÑĮ": 4840,
      "ÑıÑĤÐ¸Ðµ": 4841,
      "ĠÐ½ÐµÑĩÑĤÐ¾": 4842,
      "ĠÑģÐ½Ð°": 4843,
      "ĠÑĤÐ¾ÑĢÑĩ": 4844,
      "ĠÐ²ÐµÐ·": 4845,
      "Ð²Ð¾ÑģÑĤ": 4846,
      "ĠÐ¿Ð¾ÑģÐ¼": 4847,
      "ĠÐ¡Ð²": 4848,
      "ĠÐ½ÐµÐ±Ð¾Ð»ÑĮ": 4849,
      "ĠÐ»Ð¾Ð±Ð¾Ðº": 4850,
      "ĠÑĢÐ°ÑģÑģÑĩÐ¸ÑĤ": 4851,
      "Ð½Ð¾Ð¿": 4852,
      "ĠÐ²Ðº": 4853,
      "ĠÐ½Ð°ÑĤÑı": 4854,
      "ĠÐĿÐ°Ñĩ": 4855,
      "ĠÐ¼Ð°Ð»ÐµÐ½ÑĮÐºÐ°Ñı": 4856,
      "ĠÑĢÐ°Ð·Ð²Ð¸ÑĤÐ¸Ñı": 4857,
      "ĠÐŀÑĤÐµÑĨ": 4858,
      "ÑĩÐµÑģÐºÐ¾Ð¹": 4859,
      "ÑĢÐµÐ¶Ð´": 4860,
      "ĠÐ¿ÑĢÐ¸ÐºÐ¾ÑģÐ½Ð¾Ð²": 4861,
      "ÐµÐ»ÑıÐ¼": 4862,
      "Ð¸Ð¼Ð¾ÑģÑĤÐ¸": 4863,
      "ĠÐ¢Ð°ÑĤÑĮÑı": 4864,
      "ĠÐ¸Ð¼Ñı": 4865,
      "ĠÑĩÑĥÐ²ÑģÑĤÐ²ÑĥÑı": 4866,
      "ĠÐ½ÑĥÐ¶Ð½Ñĭ": 4867,
      "'.": 4868,
      "ÑĳÐ¿": 4869,
      "ĠÑĢÐ°ÑģÑģÐº": 4870,
      "ĠÐ¿Ð¾Ð¼Ð¾": 4871,
      "ĠÐ¾Ð±ÑıÐ·Ð°ÑĤÐµÐ»ÑĮÐ½Ð¾": 4872,
      "ĠÐ¼Ð½Ð¾Ð¶ÐµÑģÑĤÐ²Ð¾": 4873,
      "ÑĪÑĤÐ°Ð±": 4874,
      "ĠH": 4875,
      "ĠÐµÑħ": 4876,
      "ĠÐĿÐµÐ¼": 4877,
      "ĠÑĢÐ°Ð·Ð³Ð»ÑıÐ´": 4878,
      "ĠD": 4879,
      "ĠÐ¿ÑĢÐ¾ÑģÑĤÑĭ": 4880,
      "Ġ+": 4881,
      "Ð¾Ð»Ð¾Ð²": 4882,
      "ÑİÑīÐµÐ¹": 4883,
      "ĠÐºÐ¾ÑĢÐ°Ð±Ð»ÐµÐ¹": 4884,
      "ĠÐĲÐ½Ð¶": 4885,
      "ĠÐĺÐ¼ÐµÐ½Ð½Ð¾": 4886,
      "Ð¸Ð»Ñı": 4887,
      "ĠÑĢÐ¾Ð»ÑĮ": 4888,
      "Ð°Ð½Ð¸ÑĢÐ¾Ð²": 4889,
      "ĠÑģÐ¾Ð³Ð»Ð°ÑģÐ¸Ð»ÑģÑı": 4890,
      "ÑģÑģ": 4891,
      "ĠÐ»ÑĳÐ³": 4892,
      "ĠÐ¢ÑĢ": 4893,
      "ĠÐ¾Ð´ÐµÐ²": 4894,
      "Ġ11": 4895,
      "ĠÐ¿Ð°ÑĢÑĤ": 4896,
      "ĠÐ¶Ð´Ð°Ð»": 4897,
      "ĠÐ¿Ð»Ñı": 4898,
      "Ð²Ð°": 4899,
      "ĠÐºÑĢÐµÐ¼": 4900,
      "ĠÑĢÐ°Ð½Ð¾": 4901,
      "Ð¾ÑĢÐ´Ð¸": 4902,
      "ĠÐ°Ð¿": 4903,
      "ĠÐĽÑĥ": 4904,
      "Ð¾Ð²Ð¾ÑĢÐ¸Ð»": 4905,
      "ÑĪÑĥÑİÑģÑı": 4906,
      "ĠÐĴÐ¸Ðº": 4907,
      "ĠÐ°Ð³": 4908,
      "ĠÐ¿Ð¾Ð»Ðµ": 4909,
      "ĠÑģÐ°Ð¼Ð°Ñı": 4910,
      "ĠÑĩÐµÐ»Ð¾Ð²ÐµÐºÐ¾Ð¼": 4911,
      "ĠÐ¿ÑĢÐµÐ´Ð¿Ð¾Ð»Ð°Ð³": 4912,
      "ĠÐ°ÑĢÐ¼Ð¸Ð¸": 4913,
      "ĠÐ¿ÑĢÐ¾ÑĪÐµÐ¿ÑĤÐ°Ð»Ð°": 4914,
      "ĠÐ½Ð°ÑĢÑĥÐ¶Ñĥ": 4915,
      "Ð±Ðµ": 4916,
      "ĠÐ¿Ð»ÐµÑĩÐ¾": 4917,
      "ĠÐ¿ÑĢÐ¾Ð¼ÐµÐ¶Ð½Ð¾ÑģÑĤÐ¸": 4918,
      "ĠÐ¿Ð»Ð¾ÑīÐ°Ð´": 4919,
      "Ð²Ð¸Ð¶": 4920,
      "ĠÐ¼Ð¾Ñĩ": 4921,
      "ĠÐ¼Ð°Ñħ": 4922,
      "ÐµÑĤÐ¸Ð¹": 4923,
      "ĠÑģÐµÑģÑĤÑĢÐ¾Ð¹": 4924,
      "ĠÐľÐ¸Ñħ": 4925,
      "ĠÐļÑįÑĢ": 4926,
      "ĠÐ¿Ð¾Ð·Ð½Ð°ÐºÐ¾Ð¼": 4927,
      "ĠÑģÐ¸Ð´ÐµÐ»Ð¸": 4928,
      "ĠÐľÐµÐ»": 4929,
      "ĠÑĤÑĢÑĥÑģÐ¸ÐºÐ¾Ð²": 4930,
      "ĠÐ²Ð¸Ð·": 4931,
      "ĠÐ¿Ð¾Ð¿ÐºÐ¸": 4932,
      "ĠÑĢÐ°Ð±Ð¾ÑĤÐ°Ð»": 4933,
      "ĠÑģÑĥÐ¿ÐµÑĢ": 4934,
      "ĠÐŁÐ°Ð¿Ð°": 4935,
      "ĠÐ²Ð¾ÑģÐºÐ»Ð¸": 4936,
      "ĠÑĪÐ»Ð¸": 4937,
      "ĠÑģÐ»Ð¸Ð·": 4938,
      "ĠÐĶÑĢÑĥÐ³": 4939,
      "ĠÐ¿Ð¾ÑĢÐ°Ð¶": 4940,
      "ĠÑĥÐ±Ð¸ÑĤÑĮ": 4941,
      "ĠÐ»ÑİÐ´ÑĮÐ¼Ð¸": 4942,
      "ĠÐ·Ð°Ð³Ð»Ñı": 4943,
      "ÐºÐ¸Ð¿": 4944,
      "ÑıÑīÐ¸Ðµ": 4945,
      "ĠÑĢÐ°ÑģÐºÑĢÑĭ": 4946,
      "ĠÑįÐ»ÑĮÑĦ": 4947,
      "ĠÐ¿ÐµÑĢÐ²ÑĥÑİ": 4948,
      "ÑĥÑģÑĤÐ¸ÑĤÑĮ": 4949,
      "ÑģÑĤÐ²ÐµÐ½Ð½ÑĭÑħ": 4950,
      "ĠÐ¿ÑĢÐ¾ÑĤÑıÐ½ÑĥÐ»": 4951,
      "ÑĩÐµÑģÐºÐ¸Ðµ": 4952,
      "ĠÐŁÐ¾Ð»ÑĥÑĩ": 4953,
      "ĠÐ¼Ð³Ð½Ð¾Ð²ÐµÐ½Ð½Ð¾": 4954,
      "ĠÑĥÑģÐ¼ÐµÑħ": 4955,
      "ĠÐ²ÑĭÑģÑĤÐ°Ð²": 4956,
      "ĠÑģÑĤÐ°ÑĢÐ°Ð»ÑģÑı": 4957,
      "ĠÐ»ÐµÐ¶Ð°Ð»Ð¸": 4958,
      "ĠÑģÑħÐ²Ð°ÑĤÐ¸Ð»": 4959,
      "ĠÐ²Ð´Ð²": 4960,
      "ĠÐľÐ°Ð³": 4961,
      "ĠÐĲÐ»ÑĮ": 4962,
      "ĠÐ½ÐµÐ´ÐµÐ»Ð¸": 4963,
      "Ġ196": 4964,
      "Ð½Ð¸ÑĨÐµÐ¹": 4965,
      "ĠÐ¸Ð·Ð²ÐµÑģÑĤÐ½Ð¾": 4966,
      "ĠÐ²Ð·Ð´ÑĢÐ¾Ð³": 4967,
      "el": 4968,
      "ĠÑģÐ½Ð¸Ð·": 4969,
      "Ð½ÐµÐ½Ð¸Ðµ": 4970,
      "ĠÐ¡Ð°ÑĪÐºÐ°": 4971,
      "ĠÐ²Ð·ÑıÐ²": 4972,
      "ĠÐĹÐ°Ð²": 4973,
      "ĠÐ¼Ð¾Ð¼ÐµÐ½ÑĤÐ°": 4974,
      "ĠÐ¾Ð¶Ð¸Ð´Ð°": 4975,
      "ĠÑģÐ¿Ð°Ð»ÑĮÐ½Ñİ": 4976,
      "ÑĪÐºÑĥ": 4977,
      "ĠÑĤÑĢÐ°ÑħÐ°Ð»": 4978,
      "ĠÐ½Ð°ÑģÐ»Ð°Ð¶Ð´ÐµÐ½Ð¸Ñı": 4979,
      "ĠÐĿÐµÑģÐºÐ¾Ð»ÑĮÐºÐ¾": 4980,
      "ĠÑģÑĥÑĩ": 4981,
      "ĠÐĳÐµÑĤ": 4982,
      "Ð°ÑĨÐ¸Ð¹": 4983,
      "ĠÐ³ÑĢÐ°Ð¶Ð´": 4984,
      "ĠÐĺÐ½Ð¾Ð³Ð´Ð°": 4985,
      "Ð¾ÐµÐ¼": 4986,
      "ĠÐ´Ð°ÑĢ": 4987,
      "ĠÐ·Ð°Ð±Ð¾ÑĤ": 4988,
      "ĠÑģÐ¼Ð¾ÑĤÑĢÐµÐ»Ð¸": 4989,
      "om": 4990,
      "Ð½Ð¸ÑĤÐµ": 4991,
      "ĠÐĴÐµÑĢÐ°": 4992,
      "ĠÐĶÐ¶ÐµÐ¹": 4993,
      "ĠÐ²Ð¾Ð·Ð±ÑĥÐ¶Ð´Ð°": 4994,
      "ĠÐ¿Ð¾Ð»Ð¾Ð¶ÐµÐ½Ð¸Ðµ": 4995,
      "ÑĢÑĥÐ±": 4996,
      "ĠÐ²ÑĭÐº": 4997,
      "ĠÐºÐ¾Ð½ÑĤ": 4998,
      "ĠÐ¿Ð»Ð¾ÑĤÐ½Ð¾": 4999,
      "ĠÐ½Ð°Ð¸Ð±Ð¾Ð»ÐµÐµ": 5000,
      "Ð¿ÐµÑĢÐ²": 5001,
      "ĠÐ¿Ð¾Ð´ÑĢÐ¾ÑģÑĤ": 5002,
      "ĠÐºÐ½Ð¸Ð³": 5003,
      "Ð¾Ð²ÑĭÐ¼": 5004,
      "Ð°Ð½ÑĤÐ°": 5005,
      "ĠÐºÐ¾ÑĤÐ¾ÑĢÑĭÐ¼Ð¸": 5006,
      "ÑĢÐ°ÑĤÐµÐ³": 5007,
      "ĠÑħÐ¾ÑĤÐ¸ÑĤÐµ": 5008,
      "Ð»Ð°Ð¼": 5009,
      "Ð¸Ð²Ð°": 5010,
      "ĠÐŁÑĢÐ¸Ð²": 5011,
      "ĠÐ´ÑĭÑĢ": 5012,
      "ĠÑĢÐµÑĩ": 5013,
      "ÐµÐ»ÑĮÐ½Ð¾": 5014,
      "ĠÑĩÑĳÐ¼": 5015,
      "ĠÐ²Ð¾ÑģÑģÑĤÐ°Ð½Ð¾Ð²": 5016,
      "ĠÑģÐ¸ÑģÑĮ": 5017,
      "ĠÐ¸Ð´ÐµÑı": 5018,
      "ÑĢÐµÑģÑģ": 5019,
      "ĠÐĳÑĢ": 5020,
      "Ġ17": 5021,
      "ĠÐĸÐµÐ½Ñı": 5022,
      "ĠÐ»Ð°Ð´Ð¾Ð½Ð¸": 5023,
      "ĠÐ¡ÐµÐ³Ð¾Ð´Ð½Ñı": 5024,
      "ĠÐ¢Ð¾Ð»": 5025,
      "ĠÐŁÑĢÐ¸Ð¼": 5026,
      "ĠÑĤÐ²Ð°ÑĢÑĮ": 5027,
      "ĠÐĹÐµÐ¼Ð»Ð¸": 5028,
      "ĠÐ½ÐµÐ½Ð°Ð²": 5029,
      "ĠÐŀÑħ": 5030,
      "ĠÑģÐ¼Ð¾ÑĤÑĢÑı": 5031,
      "Ð°ÑĤÐµÐ»ÑĮÐ½ÑĭÐ¹": 5032,
      "Ð¸ÑĢÐ¾Ð²Ð°Ð»Ð°": 5033,
      "Ð¾Ð»Ð¾Ðº": 5034,
      "ĠÐ±Ð¸ÑĤ": 5035,
      "ĠÐŀÐ¹": 5036,
      "Ð¸ÐºÑģ": 5037,
      "ĠÐ¾Ð´Ð½Ð°Ð¶Ð´Ñĭ": 5038,
      "ĠÐ½ÐµÑĩÐµÐ³Ð¾": 5039,
      "ĠÐ½Ð¾Ð¼ÐµÑĢ": 5040,
      "ĠÐ²Ð²Ð¾Ð´": 5041,
      "Ð¾ÑĪÐ»Ð°": 5042,
      "ĠÑģÐ¾ÑĨÐ¸": 5043,
      "ĠÐ¾ÑģÐ²Ð¾Ð±Ð¾Ð´": 5044,
      "Ð´Ð¾Ð¹": 5045,
      "Ð¼Ð¾Ðº": 5046,
      "ĠÐ´Ð°Ð¹": 5047,
      "ĠÐ³ÐµÑĢ": 5048,
      "ÑĥÐ´ÑĢ": 5049,
      "ĠÑĤÐ²Ð¾Ñİ": 5050,
      "Ð°Ð»Ð»": 5051,
      "ĠâĢ¢": 5052,
      "ĠÐ¸ÑģÑĤÐ¾ÑĢÐ¸Ñı": 5053,
      "ĠÐĴÐ¾Ð»Ð¾Ð´": 5054,
      "ĠÑģÐ¼ÐµÑĪ": 5055,
      "ĠÑĥÐ²Ð°Ð¶": 5056,
      "Ð¾ÑĤÐµ": 5057,
      "ĠÑħÐ¸ÑĤ": 5058,
      "ĠÐ¾Ð³ÑĢÐ¾Ð¼Ð½ÑĭÐ¹": 5059,
      "ĠÐĳÐµÑĢÐµÐ½Ð¸Ñģ": 5060,
      "ĠÑĢÐ¸ÑģÐº": 5061,
      "ĠÐ»ÑİÐ±Ð²Ð¸": 5062,
      "ĠÐ¿Ð¾Ð»Ð¾Ð²ÑĭÐµ": 5063,
      "ĠÐ±Ñİ": 5064,
      "ĠÑĢÐ°Ð·ÑĢÑĥÑĪ": 5065,
      "ĠÐ¾ÑģÑĤÐ°Ð»Ð°ÑģÑĮ": 5066,
      "ĠÐ¿Ð¾Ð¹ÑĤÐ¸": 5067,
      "ĠÑĥÐ³Ð¾Ð´Ð½Ð¾": 5068,
      "ÐµÐºÑĥ": 5069,
      "ĠÐ¾ÑģÐ¼Ð¾ÑĤÑĢ": 5070,
      "ĠÐ¾ÑĢÐ±": 5071,
      "ÑĢÐ¾ÑĪ": 5072,
      "ĠÐ¼ÐµÐ¶": 5073,
      "ĠÑĢÐ¸ÑĤ": 5074,
      "Ð°Ð´Ð¸Ð»": 5075,
      "ĠÐŁÑĢÐ¾Ð´": 5076,
      "ĠÑĪÐºÐ°ÑĦ": 5077,
      "ĠÐ½Ð°Ð¼ÐµÑĢ": 5078,
      "ĠÐ¸ÑģÐºÐ°ÑĤÑĮ": 5079,
      "ĠÐ¿ÑĢÐµÐ´Ð¿Ð¾Ñĩ": 5080,
      "ĠÐ¾ÑĤÐ¼": 5081,
      "ĠÐļÐ¾": 5082,
      "Ð¸ÑĤÐµÐ»ÑĮÐ½ÑĭÐ¼": 5083,
      "ĠÐ´Ð²Ð¸Ð¶ÐµÐ½Ð¸ÐµÐ¼": 5084,
      "ĠÐ¿Ð¸Ð»": 5085,
      "ĠÑģÑĨÐµÐ½": 5086,
      "ĠÐ½Ð°ÑĢÑĥÑĪ": 5087,
      "ÐºÐ¸Ð½": 5088,
      "ÑĭÐ²Ð°ÑıÑģÑĮ": 5089,
      "ĠÐ¿Ð¾ÐºÑĢÑĭÐ²": 5090,
      "ĠÐ¿ÑĢÐ¸ÑĪÐ»Ð¸": 5091,
      "ÑĩÐºÐ°": 5092,
      "ĠÐ¾Ð±Ð¸Ð´": 5093,
      "ÑĤÑĥÑĢÑĭ": 5094,
      "ĠÐ¿ÑĢÐ¾Ð´ÑĥÐº": 5095,
      "ĠÐ¿ÑĢÐµÐ´ÑģÑĤÐ°Ð²Ð¸ÑĤÑĮ": 5096,
      "ĠÑģÐºÐ°Ð¶Ñĥ": 5097,
      "ĠÑģÐ¿ÑĢÑıÑĤ": 5098,
      "ĠÑģÐ»Ñİ": 5099,
      "ĠÑģÐ¼ÐµÐ½": 5100,
      "ĠÐ¿Ð¾Ð½Ð°Ð´Ð¾Ð±": 5101,
      "ĠÐ¿ÐµÑĤ": 5102,
      "Ð¼ÑĥÑĢ": 5103,
      "ĠÑĥÐ¿ÐµÑĢ": 5104,
      "ÑĢÐ¾Ð¸Ð·": 5105,
      "ĠÐĴÑģÐµÐ»": 5106,
      "Ð°Ð½Ð½Ð¾ÑģÑĤÐ¸": 5107,
      "ĠÐ±Ð»Ð°Ð¶": 5108,
      "Ð¾ÑģÑħÐ¾Ð´": 5109,
      "ĠÑģÑĤÑĥÐ´": 5110,
      "ĠÐ¿ÑĢÐ¾Ð¸Ð³": 5111,
      "ĠÑıÐ·ÑĭÐºÐ°": 5112,
      "ĠÐ²ÑģÐ¿Ð¾Ð¼Ð½Ð¸Ð»": 5113,
      "ĠÑĦÐ¾ÑĢÐ¼Ñĥ": 5114,
      "ĠÐ¸Ð¼Ð¸": 5115,
      "ĠÐ³ÑĢÑĥÐ·": 5116,
      "ĠÐ±Ð¾Ð»ÑĤ": 5117,
      "ĠÑĢÐµÑĪÐµÐ½Ð¸Ñı": 5118,
      "ĠÑĥÐ¿Ð°Ð»": 5119,
      "ĠÑĥÑģÐ¿ÐµÑħ": 5120,
      "ĠÑģÐ´ÐµÐ»Ð°": 5121,
      "Ð»Ð¾Ðº": 5122,
      "ĠÐ»ÑıÐ¶": 5123,
      "ĠÐ¿ÑĢÐ¾ÑĪÐµÐ»": 5124,
      "Ð°ÐµÐ¼ÑģÑı": 5125,
      "ĠÐ±ÑĥÐ´ÑĥÑīÐµÐ¼": 5126,
      "ÑĳÑģ": 5127,
      "ĠÑģÐ¾ÑĤÐ½Ð¸": 5128,
      "Ð¾ÑĤÐ¾Ñĩ": 5129,
      "ĠÐ·Ð°ÑħÐ¾Ð´": 5130,
      "ĠÐ¼Ð¾ÑĢÐµ": 5131,
      "ĠÐĹÐ°ÑĩÐµÐ¼": 5132,
      "Ð¸ÑĪÑĮÑģÑı": 5133,
      "ĠÐ¡ÐµÑģÑĤ": 5134,
      "ĠÐĲÐ¹": 5135,
      "Ð¾ÑĪÐµÐ»": 5136,
      "ĠÐ¿Ð¾ÑģÑĤÐµÐ»ÑĮ": 5137,
      "ĠÑĥÑĪÐµÐ»": 5138,
      "ĠÐ¼Ð°ÑĪÐ¸Ð½Ñĥ": 5139,
      "ĠÐ°Ð¼ÐµÑĢÐ¸ÐºÐ°Ð½": 5140,
      "ĠÐ¿Ð¾Ð´Ðº": 5141,
      "ĠÐ¿ÑĢÐ¾Ð²ÐµÐ»": 5142,
      "ĠÐ½ÐµÐ±Ð¾": 5143,
      "Ð¾Ð½ÑĮÐºÑĥ": 5144,
      "ĠÐľÑĥÐ¶ÑĩÐ¸Ð½Ð°": 5145,
      "Ð¾Ð²Ð°Ñı": 5146,
      "ĠÐ¾ÑģÐ¾Ð·Ð½": 5147,
      "ĠÐ¿Ð¾Ð³Ð»Ð°Ð´": 5148,
      "ĠÐ¿Ð»Ð¾ÑĤÑĮ": 5149,
      "ĠÑĦÑĢÐ°Ð½": 5150,
      "ĠÐ¾Ð³Ð»Ñı": 5151,
      "ĠÐ·Ð½Ð°Ñı": 5152,
      "ĠÐ¼Ð°ÑģÑĤÐµÑĢ": 5153,
      "ÑģÑĤÐ¸Ðµ": 5154,
      "Ð¸Ð»Ð»Ð¸": 5155,
      "ĠÐ¾ÑĤÑĢÑĭÐ²": 5156,
      "Ð»ÑıÐµÑĤÑģÑı": 5157,
      "Ð¸ÑĤÐµÑģÑĮ": 5158,
      "ĠÐ½Ð°ÑĩÐ°Ð»Ðµ": 5159,
      "ĠÐ²Ð¾Ð·Ð±ÑĥÐ¶Ð´ÐµÐ½Ð¸Ðµ": 5160,
      "ĠÐºÑĢÐµÑģÐ»Ð¾": 5161,
      "ĠÑģÐ¸Ð¼Ð¿": 5162,
      "ĠÐŁÑĥÑģÑĤÑĮ": 5163,
      "ĠÐ¾Ð±ÑĢ": 5164,
      "ĠÑģÐ¿ÐµÑĨÐ¸Ð°Ð»ÑĮÐ½Ð¾": 5165,
      "ĠÑįÐ»ÐµÐºÑĤÑĢÐ¸": 5166,
      "ĠÐ¾ÑģÑĤÑĢ": 5167,
      "ĠÐ´Ð¸Ñģ": 5168,
      "ĠÑģÑĤÑĢÐ°ÑĤÐµÐ³": 5169,
      "ĠÐ¾ÑĤÑĩÐ°Ñı": 5170,
      "Ð°Ð·Ð°Ð»Ð¾ÑģÑĮ": 5171,
      "ĠÑĥÐ´Ð°Ð»": 5172,
      "ĠÑģÑĤÐµÐ½Ðµ": 5173,
      "ĠÐºÐ¾Ð½ÑĤÐ°Ðº": 5174,
      "ĠÐ¿Ð¾Ð¿ÐºÐ°": 5175,
      "ĠÐ½ÐµÐ¿Ð¾Ð´": 5176,
      "ĠÐĲÐ½Ð´ÑĢÐµ": 5177,
      "ĠÑĪÐ»ÑİÑħÐ°": 5178,
      "ĠÐ´Ð¸ÑģÐº": 5179,
      "ĠÐ¡Ð»Ð°Ð²": 5180,
      "ĠÐ¿Ð¾Ð»ÐµÑĤ": 5181,
      "ÑģÑĤÐ²ÐµÐ½Ð½ÑĭÐµ": 5182,
      "ĠÐ²Ð·Ð´Ð¾ÑħÐ½ÑĥÐ»": 5183,
      "ĠÑĤÐµÐ¿Ð»Ð¾": 5184,
      "ĠÐ·Ð°ÑīÐ¸ÑĤ": 5185,
      "ĠÐĹÐ°ÑĤÐ¾": 5186,
      "Ð°Ð»Ð¾Ð¼": 5187,
      "ĠÑĤÑĢÑı": 5188,
      "ĠÑĢÐµÐ¶": 5189,
      "ĠÐ½Ð°Ñħ": 5190,
      "ĠÐ¾ÑĤÑģÑĤÑĥÐ¿": 5191,
      "ĠÐ¿Ð¾Ð¿ÐºÐµ": 5192,
      "Ð²ÐµÑĢÐ¶": 5193,
      "ĠÐĶÐµÐ²ÑĥÑĪÐºÐ°": 5194,
      "ÑıÐ»Ð¾": 5195,
      "ĠÑĢÐ°ÑģÑģÐ¼Ð¾ÑĤÑĢ": 5196,
      "ĠÑģÐ´ÐµÐ»Ð°Ð»Ð¸": 5197,
      "Ð¸ÑĩÐµÑģÐºÐ¸Ð¼": 5198,
      "ĠÐ´ÐµÑģÑıÑĤÐ¸": 5199,
      "ĠÑĪÐºÐ¾Ð»ÑĮ": 5200,
      "ĠÐ¿ÑĢÐµÐ´Ð¿Ð¾Ð»Ð¾Ð¶": 5201,
      "ĠÐ¿ÑĥÑĤÐµÑĪÐµ": 5202,
      "ĠÑıÐ´": 5203,
      "ĠÐĿÐµÑģ": 5204,
      "ĠÑģÐ¿ÑĥÑģÐº": 5205,
      "ĠÐ²Ð¸Ð´ÐµÐ»Ð¸": 5206,
      "ĠÑĢÐµÐ·ÑĥÐ»ÑĮÑĤÐ°ÑĤÐµ": 5207,
      "ĠÑĤÐ°ÐºÐ¸Ð¼Ð¸": 5208,
      "ĠÐ¾ÐºÑĢÑĥÐ³": 5209,
      "ĠÐ½ÐµÐ¾Ð±ÑħÐ¾Ð´Ð¸Ð¼Ð¾": 5210,
      "ĠÐ²ÑĭÑģÑĤÑĢÐµÐ»": 5211,
      "ĠB": 5212,
      "ĠÐºÑģÑĤÐ°ÑĤÐ¸": 5213,
      "ĠÐŀÐ»": 5214,
      "ĠÑģÐ¾ÑģÐ¾Ðº": 5215,
      "ĠÐ³ÑĥÐ±Ð°Ð¼": 5216,
      "ĠÑĥÑģÐ¿ÐµÐ»Ð°": 5217,
      "ÑĥÑİÑīÐ¸Ðµ": 5218,
      "ĠÐ¾ÑģÑĤÐ°Ð»Ð¸ÑģÑĮ": 5219,
      "ĠÐ½Ð°ÑģÐ°Ð¶": 5220,
      "ĠÐ¾Ð¿ÑĥÑģÑĤÐ¸Ð»Ð°ÑģÑĮ": 5221,
      "ĠÐ´ÐµÑıÑĤÐµÐ»ÑĮ": 5222,
      "ĠÐ·ÐµÐ»ÐµÐ½": 5223,
      "Ð¾ÑĤÐ¾Ð¼": 5224,
      "ÐµÐ½ÑĮÐºÐ¸Ð¹": 5225,
      "ĠÑģÐ¾ÑĢÐ¾Ðº": 5226,
      "ĠÐ¼Ð°Ð¹": 5227,
      "ĠÐľÐ°ÐºÑģÐ¸Ð¼": 5228,
      "ĠÐ¿Ð¾Ð»Ð¾Ñģ": 5229,
      "ĠÐ´Ð¾ÑģÑĤÐ°Ð²": 5230,
      "ÑĨÑĥÐ·": 5231,
      "ĠÐ³Ð¸Ð³Ð°Ð½ÑĤ": 5232,
      "Ð»ÐµÐ±": 5233,
      "Ð»ÐµÐ½Ð¸Ð¹": 5234,
      "ĠÑģÑĥÐ±": 5235,
      "Ð²Ñĥ": 5236,
      "ĠÐ¡Ð¾Ð»Ð½": 5237,
      "ĠÐ½Ð°Ð¿Ð°Ð´": 5238,
      "ĠÐ·Ð½Ð°Ð½Ð¸Ñı": 5239,
      "ĠÑģÐºÐ¸": 5240,
      "ĠÑĢÐµÑĩÑĮ": 5241,
      "ĠÐ¡ÑĤÑĢ": 5242,
      "ĠÐ·Ð½Ð°Ð»Ð¸": 5243,
      "ĠÐ½ÐµÐ²ÐµÑĢÐ¾ÑıÑĤ": 5244,
      "ĠÐ»ÑİÐ´ÑıÐ¼": 5245,
      "ÑĩÐµÑģÐºÐ¸Ð¹": 5246,
      "ĠÐĺÑĢÐºÐ°": 5247,
      "ĠÐ¶Ð¸Ð»": 5248,
      "ÑģÑĤÐ²ÐµÐ½Ð½Ð¾ÑģÑĤÑĮ": 5249,
      "ĠÑĢÐµÑģ": 5250,
      "ĠÐ²ÑĭÑĤÑı": 5251,
      "ĠÐ·Ð¾Ð²ÑĥÑĤ": 5252,
      "ĠÐŁÐ¾ÑħÐ¾Ð¶Ðµ": 5253,
      "Ġ100": 5254,
      "ĠÐŀÐ´Ð½Ð°Ð¶Ð´Ñĭ": 5255,
      "ÐºÐ¾ÑģÑĤÐ¸": 5256,
      "ÐµÐ½ÑĨÐ¸": 5257,
      "ĠÑģÐ¾Ð±ÑģÑĤÐ²ÐµÐ½Ð½Ð¾Ð¹": 5258,
      "ĠÑģÐ½ÑıÑĤÑĮ": 5259,
      "ĠÐ·ÑĢÐµÐ»Ð¸": 5260,
      "ĠN": 5261,
      "ĠÐ½Ð°ÑĥÐºÐ¸": 5262,
      "ĠÐļÑģÑĤÐ°ÑĤÐ¸": 5263,
      "ĠÐĲÑħ": 5264,
      "ĠÐ¸ÑģÑģÐ»ÐµÐ´Ð¾Ð²": 5265,
      "ĠÐ¿ÑĢÐ¾Ñħ": 5266,
      "ĠÐĿÐ°ÑģÑĤÑı": 5267,
      "ĠÐ²ÑĭÐ¹ÑĤÐ¸": 5268,
      "Ð¸ÑĢÐ°Ñı": 5269,
      "ĠÐ¿Ð¾ÑĤÐ¸Ñħ": 5270,
      "ĠÐ±ÐµÐ·ÑĥÐ¼": 5271,
      "ĠÐ¼Ð¸Ð½Ð¸Ð¼ÑĥÐ¼": 5272,
      "Ð¸ÑĩÑĮ": 5273,
      "ĠÑģÐ¼Ð¾Ð³Ð»Ð°": 5274,
      "ĠÐ¾ÑĤÐ²ÐµÑĢÑģÑĤÐ¸Ðµ": 5275,
      "ĠÐ¿Ð¾Ð³Ð¾Ð²Ð¾ÑĢÐ¸ÑĤÑĮ": 5276,
      "ÑģÑĤÐ¾ÑıÑī": 5277,
      "ĠÑģÐµÑĢÐµÐ´": 5278,
      "ĠÐ¼ÐµÐ»ÑĮ": 5279,
      "Ð¾ÑĢÑıÐ´": 5280,
      "ĠÐ²Ð¾Ð¾ÑĢÑĥÐ¶": 5281,
      "ĠÐ½ÑĥÐ¶Ð½Ð°": 5282,
      "ĠÑĩÐ°ÑīÐµ": 5283,
      "ĠÑģÐ°Ð¼Ð¾Ð¼Ñĥ": 5284,
      "ÐµÑħÐ°Ð»Ð°": 5285,
      "ĠÐ²Ð½ÐµÐ·Ð°Ð¿Ð½Ð¾": 5286,
      "ĠÐ¡ÑĤÐ°": 5287,
      "ĠÐĺÑĢÐ¸Ð½Ð°": 5288,
      "ĠÑĤÐ¾Ð²Ð°ÑĢÐ¸Ñī": 5289,
      "Ð»ÑİÐ´": 5290,
      "ÑįÐº": 5291,
      "ĠÑĥÑģÐ¿ÐµÐ²": 5292,
      "ÑĨÐµÑģÑĤ": 5293,
      "ĠÐ¾Ð±ÑģÑĥÐ¶Ð´": 5294,
      "ĠÑģÐ¾Ð¶Ð°Ð»": 5295,
      "Ð¼Ð°ÑĤ": 5296,
      "ĠÐ¿Ð¾Ð²ÐµÐ·": 5297,
      "ĠÐ´ÑĥÑĪÐ¸": 5298,
      "ĠÑĨÐ¸Ð²Ð¸Ð»Ð¸Ð·Ð°ÑĨÐ¸Ð¸": 5299,
      "ĠÐ¾ÑĤÐ¾": 5300,
      "Ð´Ð°ÐµÑĤ": 5301,
      "ĠÐ²ÐµÑĢÐ½ÑĥÑĤÑĮÑģÑı": 5302,
      "ĠÑĥÐ»ÑĭÐ±ÐºÐ¾Ð¹": 5303,
      "ĠÐ·Ð´Ð¾ÑĢÐ¾Ð²Ð¾": 5304,
      "ĠÑĪÐºÐ¾Ð»Ñĥ": 5305,
      "ĠÐ·Ð°Ð¸Ð½ÑĤÐµÑĢÐµÑģ": 5306,
      "ÑĢÐ°Ðº": 5307,
      "Ð¾Ð²ÑĥÑİ": 5308,
      "ĠÐ¾ÑĤÐ¼ÐµÑĤ": 5309,
      "ĠÐ¿ÑĢÐ¾Ð³ÑĢÐ°Ð¼Ð¼Ð¸": 5310,
      "Ð¼Ð¼": 5311,
      "Ð¾ÑĤÐ°Ð»": 5312,
      "ĠÐŁÐµÑĤÑĢÐ¾Ð²": 5313,
      "ĠÑģÐ¼Ðµ": 5314,
      "ĠÐ²ÐµÑĢÑĤ": 5315,
      "ĠÐ´ÑĥÑĪÐµ": 5316,
      "ĠÐ¾ÑĦÐ¸ÑĨÐ¸": 5317,
      "ĠÐ¸ÑĤÐ¾Ð³Ðµ": 5318,
      "Ð¸Ð½ÑĥÐ»ÑģÑı": 5319,
      "ÑģÐµÐ´": 5320,
      "ĠÐ´ÐµÐ¼": 5321,
      "Ð»Ð¾Ñī": 5322,
      "ĠÐ¿ÑĢÐµÐ´ÐµÐ»": 5323,
      "ĠÐ²Ð¿ÐµÑĢ": 5324,
      "ĠÑĨÐµÐ»ÑĭÐ¹": 5325,
      "ĠÐ¿Ð¾ÑģÑĤÐ°Ð²Ð¸Ð»": 5326,
      "ĠÐ¿Ð°ÑĤ": 5327,
      "ĠÐ¾ÑĤÑģÑİÐ´Ð°": 5328,
      "ĠÐ¼ÐµÑģÑıÑĨÐµÐ²": 5329,
      "ÑĨÐ¾": 5330,
      "Ð»Ð¸Ð¿": 5331,
      "ÑĤÑĥÐ´Ð°": 5332,
      "ĠÐ´Ð¸Ð²Ð°Ð½Ðµ": 5333,
      "Ð°Ð½Ð½ÑĭÐ¼Ð¸": 5334,
      "Ð°Ð´Ð°": 5335,
      "ĠÐºÐ¾Ð½ÑĦ": 5336,
      "ĠÐ´ÐµÐ²Ð¾ÑĩÐºÑĥ": 5337,
      "ĠÑģÑĤÑĢÐ°ÑĪÐ½Ð¾": 5338,
      "ÑĢÐµÑģÑĤ": 5339,
      "ÑģÑĤÑĭ": 5340,
      "ĠÑĤÐ°Ð·": 5341,
      "ĠÐ¾Ð±Ð½Ð¸Ð¼": 5342,
      "ÑİÑīÐµÐ³Ð¾": 5343,
      "ĠÐ¡ÐºÐ°Ð·": 5344,
      "ĠÐ¼Ð¾Ð´ÐµÐ»Ð¸": 5345,
      "Ð¸Ð½Ð°Ñı": 5346,
      "Ð¸Ð½ÑĥÑĤÑĮ": 5347,
      "ĠÐºÐ°Ð¶Ð´ÑĭÐ¼": 5348,
      "ÑģÐ¾Ð¼": 5349,
      "ĠÐŁÐ¾Ðº": 5350,
      "ĠÐ²ÐµÑĢÐ½ÑĥÐ»Ð°ÑģÑĮ": 5351,
      "ĠÑģÑĤÐ¾Ð»Ð¾Ð¼": 5352,
      "ÑıÑĩ": 5353,
      "ĠÐĴÐ°Ð½Ñı": 5354,
      "ĠÑħÐ¸Ð¼": 5355,
      "ĠÐ·Ð°ÑīÐ¸": 5356,
      "ĠÐ¿Ð¾ÑģÑĤÐ°Ð½": 5357,
      "ĠÐºÐ°Ð¶Ð´Ð¾Ð¼": 5358,
      "Ð°ÐµÑĪÑĮÑģÑı": 5359,
      "ĠÑģÑĤÐ¾Ð¹": 5360,
      "ÐĿÐ¾": 5361,
      "ĠÑĤÑĢÑĥÑģÐ¾Ð²": 5362,
      "ĠÐ½Ð°Ð±ÑĥÑħ": 5363,
      "ĠÑĢÐ°Ð±Ñĭ": 5364,
      "ĠÑįÑĦÑĦÐµÐºÑĤÐ¸Ð²": 5365,
      "ĠÑĩÑĥÐ»": 5366,
      "ĠÐ¡Ð¾Ð»Ð½ÐµÑĩ": 5367,
      "ĠÐ¸Ð½Ð¶": 5368,
      "ĠÐ½Ð¾Ð²ÑĥÑİ": 5369,
      "ĠÑģÐ¼Ð¾ÑĤÑĢÐ¸ÑĤ": 5370,
      "ĠÐ¿ÑĢÐ¾Ð³ÑĢÐ°Ð¼Ð¼Ñĭ": 5371,
      "ĠÑĥÑĪÐ»Ð°": 5372,
      "ĠÐ²ÐµÑģÑĤÐ¸": 5373,
      "ĠÐ½Ð¾Ð²Ð¾Ðµ": 5374,
      "ĠÑģÑĤÐ¾ÑĢÐ¾Ð½Ðµ": 5375,
      "ĠÐ¿ÑĢÐ¾Ð³ÑĢÐ°Ð¼Ð¼Ð¸ÑĢÐ¾Ð²": 5376,
      "Ð¸Ð»Ð»": 5377,
      "Ð°Ð½Ð¾Ð¼": 5378,
      "ÐµÐ´Ñı": 5379,
      "ĠÐŁÐ°Ð²": 5380,
      "ĠÐ¿ÑĢÐ¾Ñī": 5381,
      "ĠÐ¾Ð¿ÑĢÐ°Ð²": 5382,
      "ĠÐ¼Ð¸Ð½Ð¸": 5383,
      "ĠÐ±ÐµÐ´ÑĢÐ°Ð¼Ð¸": 5384,
      "Ð½Ð¾Ð·": 5385,
      "ĠÐ´Ð¾ÑģÐ¿": 5386,
      "ĠÑģÐ²ÐµÐ¶": 5387,
      "ÑĩÐ¸Ð¹": 5388,
      "Ð»Ð°Ð³Ð¾Ð´Ð°ÑĢ": 5389,
      "ĠÐ¿ÑĢÐµÐ²Ð¾ÑģÑħÐ¾Ð´": 5390,
      "ĠÐ¤ÑĢÑįÐ½": 5391,
      "Ð°ÑĢÐ¾Ð²": 5392,
      "ĠÐ¿ÑĢÐ°Ð²Ð°": 5393,
      "ĠÐ¿ÑĢÐ¸Ð²Ð¾Ð´": 5394,
      "ĠÐĲÐ½ÑĤÐ¾Ð½": 5395,
      "ĠÑĢÐ°Ð·Ð´Ð°Ð»ÑģÑı": 5396,
      "ĠÐ½Ð°Ð²ÐµÑĢÐ½ÑıÐºÐ°": 5397,
      "ĠÑĤÐ¸ÑħÐ¾Ð½ÑĮÐºÐ¾": 5398,
      "ĠÑģÐ¾Ð¼Ð½ÐµÐ²": 5399,
      "ĠÑĩÐµÐ»Ð¾Ð²ÐµÑĩÐµÑģÑĤÐ²Ð°": 5400,
      "ĠÐºÐ²": 5401,
      "ĠÐ°Ð»ÑĮ": 5402,
      "ÑģÐ»ÑĥÐ¶": 5403,
      "ĠÑĪÐ»Ð°": 5404,
      "ĠÐĵÐ°ÑĢ": 5405,
      "ĠÐ´Ð¾ÑģÑĤÐ¸Ð¶": 5406,
      "ĠÐŀÑĤÐº": 5407,
      "ÑĩÐ°ÑģÑĤ": 5408,
      "ĠÐ§ÐµÐ³Ð¾": 5409,
      "Ð¸Ð´ÐµÑģÑı": 5410,
      "ĠÐ¢ÐµÑĤ": 5411,
      "ĠÑģÐ»Ð¾Ð¼": 5412,
      "ĠÐºÐ°Ð¶Ð´Ð¾Ð¹": 5413,
      "ĠÐ¸Ð½ÑĦÐ¾ÑĢÐ¼Ð°ÑĨÐ¸Ñİ": 5414,
      "ĠÐĿÐ°Ñģ": 5415,
      "ĠÐ¿ÑĢÐ°Ð²Ð¸ÑĤÐµÐ»ÑĮ": 5416,
      "ĠÐ¸Ð³ÑĢÑĥÑĪ": 5417,
      "ÐºÐ¾Ð¼Ñĥ": 5418,
      "ĠÑĪÐ¾Ðº": 5419,
      "ĠÐ¾ÐºÐ½Ð¾": 5420,
      "ĠÑģÐ¾ÑģÑĤÐ°Ð²Ð»Ñı": 5421,
      "ĠÐ´Ð¾Ð±Ð°Ð²": 5422,
      "ĠÐ¼ÑıÐ³ÐºÐ¾": 5423,
      "ÑĭÐ²Ð°Ð»Ð¸ÑģÑĮ": 5424,
      "ĠÐ³Ð¾Ð»ÑĥÐ±": 5425,
      "ĠÐ¾ÐºÐµ": 5426,
      "ĠÐ¿Ð¾ÐºÐ¾Ð»": 5427,
      "ĠÐ´Ð²Ð¸Ð¶ÐµÐ½Ð¸Ð¹": 5428,
      "ĠÐ±ÑĢÐ°ÑĤÑĮ": 5429,
      "ĠÐ²ÑĢÐ°Ð³Ð°": 5430,
      "ĠÐ¾ÑĤÐ¾Ð´": 5431,
      "ĠÐĽÐµ": 5432,
      "ĠÐ¸Ð¼Ð¿ÐµÑĢ": 5433,
      "ĠÐ¿ÑĢÐ°Ð²Ð¾": 5434,
      "ĠÐ¿Ð¾ÑģÐ»ÐµÐ´Ð½ÐµÐµ": 5435,
      "ĠÐ¾Ð·Ð½Ð°Ñĩ": 5436,
      "ĠÐ¡ÐµÑĢÐ³Ðµ": 5437,
      "ĠÐ±Ð¸Ð¾Ð»Ð¾Ð³": 5438,
      "ĠÑģÐ´Ð²": 5439,
      "ÐµÐ½Ð¸ÑıÑħ": 5440,
      "ĠÐ³Ð¾Ð»Ð¾Ð¹": 5441,
      "ĠÐ¾Ð±Ð»ÐµÐ³Ñĩ": 5442,
      "ĠÐ¿Ð¾Ð¼Ð¾ÑīÐ¸": 5443,
      "ÑĪÐµÐ»": 5444,
      "ÐµÑĢÐ½Ð°": 5445,
      "ĠÐĶÐ°ÑĢ": 5446,
      "ĠÑģÑĭÐ½Ð¾Ð¼": 5447,
      "ĠÐ¿Ð¾ÑģÐµÐ»": 5448,
      "ÑıÑīÐ¸Ð¼": 5449,
      "ĠÐ¿ÑĢÐµÐ´ÐµÐ»Ð°": 5450,
      "ĠÐ¼Ð°ÑĪÐ¸Ð½Ð°": 5451,
      "ĠÑģÑĤÐ°ÑĢÑĥÑħÐ°": 5452,
      "ĠÑĥÑĢÐ¾Ð½": 5453,
      "ÑĢÐ¸Ð³": 5454,
      "ĠÐ¾ÑĤÑĢÐ°Ð¶": 5455,
      "ĠÐ·Ð°ÑĤÐ¾": 5456,
      "ÑĥÐ´Ð°Ñĩ": 5457,
      "ĠÐ¾ÑĤÐ´Ð°Ð»": 5458,
      "ĠÑĥÑģÑĤÐ°Ð»": 5459,
      "ÑĪÐ°ÑıÑģÑı": 5460,
      "ĠÐ¾ÑĢÑĥÐ¶Ð¸Ñı": 5461,
      "ĠÐ¾Ð±Ð¾ÑĢÑĥÐ´": 5462,
      "ĠÐ´Ð½Ð¸": 5463,
      "ÐµÐ¼Ð°": 5464,
      "ĠÑĨÐ¸ÑĦ": 5465,
      "Ġ13": 5466,
      "ÑĮÑĤÐµ": 5467,
      "Ð°Ð½ÑĤÐ¸": 5468,
      "Ð¸Ð½Ð°Ð¼Ð¸": 5469,
      "ĠÐ½Ð°ÑĩÐ°ÑĤÑĮ": 5470,
      "ĠÐ¸ÑģÐ¿Ð¾Ð»Ð½": 5471,
      "Ð¾Ð»Ð¾Ñģ": 5472,
      "ÑĤÐ¾ÑĢÐ¾Ð¼": 5473,
      "ĠÐ´Ð²Ð¾Ðµ": 5474,
      "ĠÐºÐ¾ÑĤÐ¾ÑĢÐ¾Ð¼Ñĥ": 5475,
      "ĠÐ¾Ð±Ð½ÑıÐ»": 5476,
      "ĠÐ¿Ð°ÑĨ": 5477,
      "ĠÐ²Ð¸Ð´Ð°": 5478,
      "ĠÐ²Ð¸Ð½Ð¾Ð²": 5479,
      "ĠÑĥÐ±Ð¸Ð¹": 5480,
      "ĠÐ²ÑģÑĤÐ°Ð²Ð¸Ð»": 5481,
      "ĠÑģÐ¾Ð±Ð¸ÑĢÐ°Ð»ÑģÑı": 5482,
      "ĠÐ²ÑĭÐ²": 5483,
      "ĠÐĺÑģÐ¿": 5484,
      "ĠÐ¶ÐµÐ½ÑīÐ¸Ð½Ð¾Ð¹": 5485,
      "ĠÑĨÐ²ÐµÑĤÐ°": 5486,
      "ĠÐ¾ÑĦÐ¸ÑĨ": 5487,
      "ĠÐ¿ÐµÑĢÑģÐ¾Ð½": 5488,
      "Ð¿Ð¾Ð¼Ð¸Ð½": 5489,
      "ĠÐ·Ð°ÑģÑĤÐ°Ð²Ð¸Ð»": 5490,
      "ĠÐ±Ð¾Ð»ÐµÐ·": 5491,
      "ĠÐ¿ÑĢÐ¾ÑĤÐ¸Ð²Ð½Ð¸ÐºÐ°": 5492,
      "ÑĥÑģÐ»": 5493,
      "ĠÐ¿ÑĢÐ°Ð²Ð¸Ð»ÑĮ": 5494,
      "ĠÑĥÐ²Ð¸Ð´ÐµÐ²": 5495,
      "ĠÑģÑĭÐ½Ñĥ": 5496,
      "ĠÐ²ÑģÑĤÑĥÐ¿": 5497,
      "ĠÐ§ÐµÐ¼": 5498,
      "ĠÐŁÐ¾Ð´ÑĢÐ¾ÑģÑĤ": 5499,
      "th": 5500,
      "Ð¸ÑĦ": 5501,
      "ĠÑĤÑĢÐµÐ½Ð¸ÑĢÐ¾Ð²": 5502,
      "Ð¼Ð¾Ð²": 5503,
      "Ð°Ð²ÑĪÐ¸Ðµ": 5504,
      "ĠÐ¾Ð±ÑģÑĤÐ¾": 5505,
      "ĠÑĢÐ°Ð·Ñĥ": 5506,
      "ĠÑĤÑĢÐµÐ²": 5507,
      "ĠÐ½Ð°ÑĪÐµÐ¼": 5508,
      "ĠÑĥÐ³ÑĢÐ¾Ð·": 5509,
      "ÑĭÐ»ÑĮ": 5510,
      "Ð¾Ð²Ð°Ð»Ð¸ÑģÑĮ": 5511,
      "ĠÐ´Ð°Ð½Ð½ÑĭÐµ": 5512,
      "ĠÑıÐ¸Ñĩ": 5513,
      "ĠÐ²Ð¾Ð¹Ð½Ð°": 5514,
      "ĠÐ¿Ð¾ÑĤÐ¸ÑħÐ¾Ð½ÑĮÐºÑĥ": 5515,
      "ĠÑĤÑĢÐµÑĤÐ¸Ð¹": 5516,
      "ĠÐ¿ÑĢÐ¾ÑĪÐ»Ð°": 5517,
      "ĠÐ·Ð°ÑħÐ¾ÑĤÐµÐ»Ð¾ÑģÑĮ": 5518,
      "ĠÐ²Ð°ÑĪÐ¸": 5519,
      "ÑĢÐ°Ð²Ð¸ÑĤ": 5520,
      "ĠÐ²Ð¿ÐµÑĢÐµÐ´Ð¸": 5521,
      "ĠÑĤÐµÑħÐ½Ð¾Ð»Ð¾Ð³Ð¸Ð¸": 5522,
      "Ð¼Ð°ÑĤÑĢ": 5523,
      "Ð¾ÑĢÐ°Ñĩ": 5524,
      "Ð¸Ð²Ð°Ð½Ð¸Ñı": 5525,
      "ÐµÑģÑģÐ°": 5526,
      "ĠÑģÐ¾ÑģÑĢÐµÐ´": 5527,
      "ĠÐºÐ°Ð¿Ð»Ð¸": 5528,
      "ĠÐ´ÑĢÑĥÐ·ÐµÐ¹": 5529,
      "ĠÑģÑĢÐ°Ð¶": 5530,
      "ĠÐ¿Ð¾Ð¸Ð½ÑĤÐµÑĢÐµÑģ": 5531,
      "ÑģÑĤÐ²ÐµÐ½Ð½Ð¾ÑģÑĤÐ¸": 5532,
      "ĠÐ¿ÑĭÑĤÐ°Ð»Ð°ÑģÑĮ": 5533,
      "ĠÐ¾Ð³Ð¾Ð½ÑĮ": 5534,
      "ĠÐ»Ð¸ÑĩÐ½Ð¾": 5535,
      "ĠÐ¿ÑĢÐ¾Ð·ÑĢÐ°Ñĩ": 5536,
      "Ð¾Ð´ÐµÐ¹ÑģÑĤÐ²": 5537,
      "ĠÐ»Ð°Ð³": 5538,
      "ÑĨÐ¸ÐµÐ¹": 5539,
      "ĠÐ¿Ð¾ÐºÑĢÑĭ": 5540,
      "ĠÐ¿Ð¾ÑĢÑıÐ´Ð¾Ðº": 5541,
      "ĠÐ±ÐµÑĪ": 5542,
      "ĠÐ¿ÑĢÐ¾Ð¶": 5543,
      "ĠÑģÐ¾ÑģÐ°Ð»Ð°": 5544,
      "ĠÐ¿ÑĢÐ¾Ð´Ð¾Ð»Ð¶Ð°Ñı": 5545,
      "Ð°Ð»ÑĮÐ½ÑĭÐ¼Ð¸": 5546,
      "ÑĢÐ¸Ñģ": 5547,
      "ĠÐ¾ÑģÐ½Ð¾Ð²Ð½Ð¾Ð¼": 5548,
      "ĠÐºÐ½Ð¸Ð³Ð¸": 5549,
      "ĠÐĶÐµÐ²Ð¾ÑĩÐºÐ°": 5550,
      "ĠÐ¸Ð½ÑģÑĤÑĢÑĥÐ¼ÐµÐ½ÑĤ": 5551,
      "Ð¸ÑĤÐµÐ»ÑĮÐ½Ð¾Ðµ": 5552,
      "ĠÐ¾ÐºÐ½Ð°": 5553,
      "ĠÑĥÑĩÐµÐ±": 5554,
      "ÐĴÑĭ": 5555,
      "ĠÐºÐ¾ÑģÐ¼": 5556,
      "ĠÐºÐ°ÑĩÐµÑģÑĤÐ²Ðµ": 5557,
      "ÑĳÐ·Ð´": 5558,
      "ĠÐ½Ð°ÑģÑĤÐ¾ÑıÑīÐ¸Ð¹": 5559,
      "ĠÐ²Ð»Ð°ÑģÑĤÐ¸": 5560,
      "ÐºÐ°ÑĢ": 5561,
      "ĠÐļÐ°Ð¿": 5562,
      "ĠÐ´Ð²Ð¾": 5563,
      "ĠÑĦÐ°ÐºÑĤ": 5564,
      "ĠÐ´Ð¾ÑħÐ¾Ð´": 5565,
      "Ð¾Ð·Ð¼Ð¾Ð¶": 5566,
      "ĠÐ¿Ð¸ÑĪ": 5567,
      "ÑĥÑģÐ°": 5568,
      "ĠÑģÑĤÐ°Ð½Ð¾Ð²Ð¸ÑĤÑģÑı": 5569,
      "ĠÐ±Ð»Ð¸Ð·ÐºÐ¾": 5570,
      "ĠÑĢÐ°ÐºÐµÑĤ": 5571,
      "Ð³Ð¾ÑĢÑı": 5572,
      "ĠÐ·ÐµÐ¼Ð»Ñı": 5573,
      "ĠÐĺÐ½ÑĤÐµÑĢÐµÑģ": 5574,
      "ĠÑģÑĢÐ¾Ðº": 5575,
      "ĠÐ´Ð°Ñĩ": 5576,
      "ĠÐ·Ð½Ð°ÐµÑĤÐµ": 5577,
      "ĠÐ·Ð°Ð¼ÐµÑĤÐ½Ð¾": 5578,
      "ĠE": 5579,
      "ĠÐ¿Ð»ÐµÐ½": 5580,
      "ĠÑĤÑĳÑĤ": 5581,
      "ĠÐĺÑĤÐ°Ðº": 5582,
      "ĠÐºÐ¾Ð½ÑĤÑĢÐ¾Ð»ÑĮ": 5583,
      "âĢĿ.": 5584,
      "ĠÐĴÐ¼ÐµÑģÑĤ": 5585,
      "ĠÐ¼Ð°Ð¼Ð¾ÑĩÐºÐ°": 5586,
      "ĠÐ¿ÑĢÑĭÐ³": 5587,
      "ĠÐ¿Ð»Ð°Ð½ÐµÑĤ": 5588,
      "ĠÐºÐ°ÑģÐ°ÐµÑĤÑģÑı": 5589,
      "ĠÐ´ÑıÐ´Ñı": 5590,
      "Ð½ÐµÑĤÑģÑı": 5591,
      "ĠÐĿÐµÑĥÐ¶ÐµÐ»Ð¸": 5592,
      "ĠÐ¼ÑĥÐ¶Ð°": 5593,
      "ĠÑħÐ¾Ð´Ð¸ÑĤÑĮ": 5594,
      "ĠÐ¿ÑĢÐ¾Ð±Ð»ÐµÐ¼Ð°": 5595,
      "ĠÐ´ÐµÑĢÐ³": 5596,
      "ÑĨÐµÐ½ÑĤ": 5597,
      "ĠÐ¿Ð¾ÐºÐ°Ð·Ð°Ð»": 5598,
      "Ġ30": 5599,
      "ĠÐ¸Ð½ÑģÑĤÐ¸ÑĤÑĥÑĤ": 5600,
      "ĠÑĤÐµÐ»ÐµÑĦÐ¾Ð½": 5601,
      "ĠÐ¿Ð¾Ð»Ð½Ð¾": 5602,
      "ÐµÐ³Ð°": 5603,
      "ĠÐ¾ÑĤÐ´Ð¾Ñħ": 5604,
      "ĠÐ¿Ð»Ð°ÑģÑĤ": 5605,
      "ĠÐ¾Ð²": 5606,
      "Ð¸Ð¼Ð¾ÑģÑĤÑĮ": 5607,
      "ĠÐ¼Ð°ÑĤÐµÑĢÑĮÑİ": 5608,
      "ĠÑģÐ¿ÐµÑĨÐ¸Ð°Ð»Ð¸ÑģÑĤ": 5609,
      "ÐµÐ¶Ð°Ð»Ð¸": 5610,
      "ĠÐ¿Ð¾ÑĪÑĳÐ»": 5611,
      "ĠÐ»Ð°Ð´Ð¾Ð½ÑĮÑİ": 5612,
      "ĠÐ²Ð¼ÐµÑĪ": 5613,
      "ĠÐ¿ÑĢÐ¾Ð»": 5614,
      "ĠÑĢÐµÐ¿": 5615,
      "Ð°Ð½Ð¸Ð»": 5616,
      "ĠÐ³Ð¾Ð²Ð¾ÑĢÑıÑĤ": 5617,
      "Ð¸ÑĩÐµÑģÐºÑĥÑİ": 5618,
      "ĠÑģÐ¾Ð·Ð½Ð°Ð½Ð¸Ñı": 5619,
      "Ð³Ð¾ÑĤ": 5620,
      "ĠÐĵÐµÑĢ": 5621,
      "ĠÐ¿Ð¾Ð·Ð¸": 5622,
      "ĠÐ·Ð°Ð²ÐµÑĢÑĪ": 5623,
      "ĠÐ¿Ð¾Ð½Ð¸Ð¼Ð°Ñı": 5624,
      "ĠÐ¿Ð¾Ð´ÑĥÐ¼Ð°ÑĤÑĮ": 5625,
      "ĠÐ¿ÑĢÐ°Ð·Ð´": 5626,
      "ĠÑģÐµÑģÑĤÑĢÐµÐ½": 5627,
      "ĠÐ·Ð°ÑħÐ¾Ñĩ": 5628,
      "ĠÐ¿Ð¾Ð²ÐµÑĢÑħÐ½Ð¾ÑģÑĤÐ¸": 5629,
      "ÑĤÐ¾Ð³Ð¾": 5630,
      "ĠÑĩÐ°Ð¹": 5631,
      "ÐµÐ·Ð´Ð°": 5632,
      "ĠÐĲÐ»Ð¸": 5633,
      "ĠÐ³Ð»ÑĥÐ±Ð¸Ð½Ðµ": 5634,
      "ĠÐ²ÐµÑĩÐµÑĢÐ°": 5635,
      "ĠÐ·Ð°ÑĢÐ°Ð±Ð¾ÑĤ": 5636,
      "ĠÐ±ÑĢÑĭÐ·": 5637,
      "Ð°ÑĤÑĭÐ¹": 5638,
      "ĠÐ¡ÑĥÐ´": 5639,
      "ÐºÐ¾ÑĪ": 5640,
      "ĠÐľÐ°Ðº": 5641,
      "ĠÐ´Ð¾ÑģÑĤÐ°Ð²Ð»Ñı": 5642,
      "ĠÐ¿ÑĢÐ¸ÑģÑĤÐ°Ð²": 5643,
      "ĠÐ·Ð²ÑĥÐº": 5644,
      "ĠÑģÐ¾Ð·Ð´Ð°Ð½Ð¸Ñı": 5645,
      "ĠÐºÑĢÐ°Ð¹Ð½Ðµ": 5646,
      "ĠÐ¾Ð±ÑĬÑıÑģÐ½Ñı": 5647,
      "ĠÐŀÑģÐ¾Ð±": 5648,
      "Ð´ÐµÐ½": 5649,
      "Ð¸ÑĤÐ¸Ð²": 5650,
      "ĠÐ¶Ð¸Ð»Ð¸": 5651,
      "ĠÐ²Ð¾Ð´Ð¾Ð¹": 5652,
      "ĠÐ³ÑĢÑĥÐ´ÑĮÑİ": 5653,
      "ĠÐ·ÐµÐ¼Ð»Ðµ": 5654,
      "ĠÐ¿Ð»ÐµÑĩÐ°Ð¼Ð¸": 5655,
      "ĠÐ¿Ð¾Ð¿ÑĢÐ°Ð²": 5656,
      "ĠÑĢÐ°ÑģÐ¿ÑĢÐ¾ÑģÑĤÑĢÐ°Ð½": 5657,
      "ĠÐ¼Ð¾Ð·Ð³Ð°": 5658,
      "',": 5659,
      "ĠÐĴÐ°Ð¼": 5660,
      "ĠÑģÐ¼ÐµÑĢÑĤ": 5661,
      "ĠÐ°ÑĢÑħ": 5662,
      "ĠÐ´Ð¾Ð±Ð°Ð²Ð¸Ð»": 5663,
      "ĠÐĶÑĥÐ¼Ð°Ñİ": 5664,
      "ĠÐ»ÐµÐ·": 5665,
      "ĠÐ¿ÑĢÐ¾ÑģÑĤÑĢÐ°Ð½ÑģÑĤÐ²Ð°": 5666,
      "ĠÐ¼Ð°ÑģÑĪÑĤÐ°Ð±": 5667,
      "Ð¼Ð°ÑĢ": 5668,
      "ĠÐ²ÑģÐ»ÐµÐ´": 5669,
      "ĠÐºÑĢÐ°ÑģÐ¸Ð²Ð°Ñı": 5670,
      "ĠÑģÐµÐ¼ÐµÐ¹": 5671,
      "ĠÐ¿ÑĢÐ¾Ð¸Ð·Ð½ÐµÑģÐ»Ð°": 5672,
      "ĠÐ¡ÑĤÐ¸Ð²": 5673,
      "ĠÐ»ÑİÐ±Ð¾Ð²ÑĮ": 5674,
      "ĠÐ¿ÑĢÐ¸Ð³Ð»Ð°Ñģ": 5675,
      "Ð¶Ð°Ð»": 5676,
      "Ð¸Ð¼Ð°": 5677,
      "ÑĳÐº": 5678,
      "ĠÐ¯Ð½": 5679,
      "ĠÐ¾Ð´Ð½Ð¾Ð¼Ñĥ": 5680,
      "ĠÐ¼Ð°Ð»ÑĭÑĪ": 5681,
      "ĠÐ³ÑĢÐ¾Ð·": 5682,
      "ĠÑĥÑģÑĤÑĢÐ°": 5683,
      "ĠÐĽÑİÐ´Ð¸": 5684,
      "ĠÐ·Ð°ÐºÑĢÑĭÐ»": 5685,
      "ĠÐºÐ°ÐºÐ¾Ð¼": 5686,
      "Ð»ÑıÐ»ÑģÑı": 5687,
      "ĠÑĢÐ°ÑģÐ¿Ð°Ñħ": 5688,
      "ĠÑĩÐµÐ»Ð¾Ð²ÐµÑĩÐµÑģÐºÐ¸": 5689,
      "ĠÐ´Ð¾Ð¿Ð¾Ð»Ð½Ð¸ÑĤÐµÐ»ÑĮ": 5690,
      "ĠÐ²ÑĭÑĤÐµÑĢ": 5691,
      "Ð½ÐµÑģÑĤÐ¸": 5692,
      "ÑĭÐ²Ð°Ð»Ð°ÑģÑĮ": 5693,
      "ĠÐłÐ¾ÑģÑĤ": 5694,
      "ĠÑĩÑĥÐ²ÑģÑĤÐ²Ð°": 5695,
      "ĠÐĲÐ½Ð³Ð»Ð¸": 5696,
      "ĠÑĤÑīÐ°ÑĤÐµÐ»ÑĮÐ½Ð¾": 5697,
      "ĠÐ½ÐµÑĤÐµÑĢÐ¿": 5698,
      "ĠÐ¿ÐµÑĢÐµÐ¾Ð´": 5699,
      "ÑģÑĤÑĢÐ°": 5700,
      "ĠÑħÐ°": 5701,
      "ĠÐ²Ð¾Ð·ÑĢÐ°Ð¶": 5702,
      "ĠÐŁÐ¾ÑģÐº": 5703,
      "ĠÑģÑĥÑīÐµÑģÑĤÐ²ÑĥÐµÑĤ": 5704,
      "ĠÑģÑĤÐ°Ðº": 5705,
      "ĠÐ¿Ð°Ð»ÑĮÑĨÐ°": 5706,
      "ĠÐ·Ð°Ð±ÑĭÐ»": 5707,
      "ĠÐ»Ð°Ð²": 5708,
      "ĠÐ¿ÑĢÐ¾ÐµÐºÑĤ": 5709,
      "ĠÐ¿Ð¾Ð½Ð¸Ð¼Ð°ÐµÑĪÑĮ": 5710,
      "ĠÑĢÐ°ÑģÑģÐºÐ°Ð·Ð°ÑĤÑĮ": 5711,
      "ĠÑģÑĩÐ¸ÑĤÐ°ÑĤÑĮ": 5712,
      "ĠÐ»ÐµÐº": 5713,
      "ÑģÑĤÑĢÐµÐ±": 5714,
      "ĠÐ·Ð°Ð¿Ð¾Ð¼": 5715,
      "ĠÐ±Ð¾Ð»ÑĮÑĪÐ¸Ð½ÑģÑĤÐ²Ð¾": 5716,
      "ĠÐ¿ÑĢÐ¸ÑĩÐµÐ¼": 5717,
      "ĠÐ½ÐµÐ¿ÑĢ": 5718,
      "ĠÐ·Ð²ÐµÐ·Ð´Ñĭ": 5719,
      "ĠÐ¿ÑĢÐµÑģÑĤÑĥÐ¿": 5720,
      "ĠÐļÐ°Ð¶Ð´ÑĭÐ¹": 5721,
      "ÐµÑĤÐ¾Ð¼": 5722,
      "ĠÑħÐ¾ÑĤÐµÐ»Ð¸": 5723,
      "ĠÐ¿ÑĢÐµÐ¾Ð´Ð¾Ð»": 5724,
      "ĠÑģÐ¾Ð»Ð½ÑĨÐµ": 5725,
      "ĠÑįÐºÐ¸Ð¿": 5726,
      "ĠÐ¿ÑĢÐ¾ÑģÑĮ": 5727,
      "ĠÐĹÐ´": 5728,
      "ĠÑģÑĤÐ¾Ð»Ðµ": 5729,
      "ĠÐºÐ»ÐµÑĤ": 5730,
      "ÐµÐ´Ð¾Ð¼": 5731,
      "ĠÐ®Ð»ÑĮÐºÐ°": 5732,
      "Ð¸ÑģÑĤÐ¸": 5733,
      "ĠÐ²ÐµÐºÐ°": 5734,
      "ĠÑģÑĤÑĢÐ°Ð´": 5735,
      "ĠÑĥÐ´Ð¸Ð²Ð¸Ð»ÑģÑı": 5736,
      "ĠÐ¡ÑĤÐ°ÑģÐ¸": 5737,
      "ĠÐºÐ¾Ð½ÑģÑĤÑĢÑĥÐº": 5738,
      "ĠÐļÑįÑĢÐ¾Ð»": 5739,
      "ÑıÑīÐµÐµ": 5740,
      "Ð³Ð¾Ð½": 5741,
      "ĠÐľÐ°Ð»": 5742,
      "ĠÑĪÐ¾ÑĢÑĤÑĭ": 5743,
      "ĠÐ»ÐµÑĩ": 5744,
      "ĠÑģÐ²Ð¾Ð´": 5745,
      "ĠÐĲÐ½Ñı": 5746,
      "ĠÐ¿ÑĢÐ¸Ð²ÑıÐ·": 5747,
      "ÑıÐ³Ð¸Ð²Ð°Ñı": 5748,
      "ĠÐ²ÑģÑĤÐ°ÑĤÑĮ": 5749,
      "ĠÐĹÐµÐ¼Ð»Ðµ": 5750,
      "Ð¸ÑıÐ¼Ð¸": 5751,
      "ĠÐ¸Ð³ÑĢÑĥ": 5752,
      "ĠÐ²Ð»Ð¸Ñı": 5753,
      "Ð¸ÑĤÐµÐ»ÑĮÐ½Ð¾ÑģÑĤÐ¸": 5754,
      "Ð¸Ð²ÑĪÐ¸Ð¹": 5755,
      "ĠÐ±ÑĥÐ´ÑĥÑīÐµÐµ": 5756,
      "ĠÑĢÐµÐ°Ð»ÑĮÐ½Ð¾ÑģÑĤÐ¸": 5757,
      "ĠÐŁÐ¾ÑģÐºÐ¾Ð»ÑĮÐºÑĥ": 5758,
      "ri": 5759,
      "ĠÐ¾ÑĤÐºÐ»ÑİÑĩ": 5760,
      "ĠÑĢÐ°ÑģÐ¿Ð¾Ð»Ð°Ð³": 5761,
      "ĠÐŁÑĢÐ¸ÑĪ": 5762,
      "ĠÐ½Ñĭ": 5763,
      "ÑĳÐ²": 5764,
      "ĠÐ³Ð¾Ð»Ð°Ñı": 5765,
      "ĠÐļÐ°ÐºÐ¾Ð¹": 5766,
      "ĠÐ¿ÑıÑĤÑĮÐ´ÐµÑģÑıÑĤ": 5767,
      "ĠÑĢÐµÐ±ÑıÑĤÐ°": 5768,
      "ĠÐ²Ð¾ÑģÐ¿Ð¸ÑĤ": 5769,
      "ĠÐ±ÑĢÐ¾ÑģÐ¸Ð»": 5770,
      "ĠÐ²ÑģÐºÑĢÐ¸ÐºÐ½ÑĥÐ»Ð°": 5771,
      "ĠÑĤÐ°ÑĢ": 5772,
      "Ð¾Ð»ÐµÐ²": 5773,
      "ĠÑģÐ¼Ð¾Ð³Ð»Ð¸": 5774,
      "ÑĩÑĥÑĤÑĮ": 5775,
      "ĠÐŁÐ¾Ð²": 5776,
      "ĠÐ°Ð³ÑĢ": 5777,
      "ÐµÐ½ÑĮÐºÐ¸": 5778,
      "ĠÐ´ÐµÐ»Ð°Ð»Ð¸": 5779,
      "ĠÑĢÐµÐ°Ð»Ð¸Ð·": 5780,
      "ĠÐ±Ð¾Ð¶Ðµ": 5781,
      "ĠÐ¾ÑĤÑģÑĤÑĢÐ°Ð½": 5782,
      "Ð¾Ð¶Ð°": 5783,
      "ĠÐ·Ð²ÑĥÐºÐ¸": 5784,
      "ĠÐµÐ»Ðµ": 5785,
      "ĠÐĳÐ¾Ð½": 5786,
      "Ð½Ð°Ð´ÑĨÐ°ÑĤ": 5787,
      "Ð¾Ð³ÑĢÐ°Ð¼": 5788,
      "ĠÐ¾ÑĢÐºÐ¾Ð²": 5789,
      "ĠÑģÐ»ÑĥÑĩÐ°Ñı": 5790,
      "ĠÐ¿ÐµÑīÐµÑĢ": 5791,
      "ĠÐ´Ð¾ÑģÐ¿ÐµÑħ": 5792,
      "ĠÐ´Ð²ÐµÐ½": 5793,
      "ÑĩÐµÑģÐºÐ¾Ð³Ð¾": 5794,
      "ĠÐºÐ¸Ð²Ð½ÑĥÐ»Ð°": 5795,
      "ĠÐĳÐ°ÑĢÐ½Ð¸": 5796,
      "ĠÐºÐ½Ð¾Ð¿": 5797,
      "Ð°Ð½ÐµÐµ": 5798,
      "ÑĥÑİÑīÐ¸Ñħ": 5799,
      "ĠÑĨÐµÐ½ÑĤÑĢÐµ": 5800,
      "ĠÑģÐ¸Ð»Ð°Ñħ": 5801,
      "ĠÐ·Ð°ÐºÐ°Ð½": 5802,
      "ĠÑīÐµÐ»ÑĮ": 5803,
      "ĠÐ¡ÐºÐ¾Ð»ÑĮÐºÐ¾": 5804,
      "ĠÐ¾Ð´ÐµÐ¶Ð´Ñĭ": 5805,
      "ĠÐ¿ÑĢÐµÑĢÐ²": 5806,
      "ĠÐ·ÑĢÑı": 5807,
      "ĠÐ²ÑĭÐ»ÐµÐ·": 5808,
      "ĠÑĢÐ°Ð·Ð¼ÑĭÑĪ": 5809,
      "ĠÐĽÐµÐ½ÐºÐ°": 5810,
      "ĠÐ½ÐµÐ²ÐµÑĢÐ¾ÑıÑĤÐ½Ð¾": 5811,
      "ĠÐ³Ð¾ÑģÐ¿Ð¾Ð´": 5812,
      "ĠÐ¶ÑĥÑĢÐ½Ð°Ð»": 5813,
      "ĠÐ²Ð¾ÑĢ": 5814,
      "ĠÐ²Ð¸Ð±": 5815,
      "ĠÐłÐ°Ð·Ð²Ðµ": 5816,
      "ĠÐ·Ð°ÐºÑĢÑĭÐ»Ð°": 5817,
      "ĠÐ¼ÐµÑĤÐ°Ð»Ð»Ð¸Ñĩ": 5818,
      "ĠÐ¿Ð¾ÐºÑĢÐ°ÑģÐ½": 5819,
      "Ð°Ð²ÑĪÐ¸Ñħ": 5820,
      "ĠÐĲÐ³Ð°": 5821,
      "ĠÐ¸Ð¼ÐµÐ»Ð¸": 5822,
      "ÑĩÐ°ÑģÐ°": 5823,
      "ĠÐ±Ð»ÑĥÐ·": 5824,
      "ĠÐ¿Ð»Ð°Ð½ÐµÑĤÐµ": 5825,
      "Ð¾ÑĢÐ´": 5826,
      "ĠÑģÐ»Ð°Ð²": 5827,
      "ĠÐ´ÐµÐ»Ð¾Ð¼": 5828,
      "ĠÐ¾ÑĤÑĩÐµÑĤ": 5829,
      "ĠÐ¿ÑĢÐ¾ÑģÑĤÑĢÐ°Ð½ÑģÑĤÐ²Ð¾": 5830,
      "ĠÐ¿ÑĢÐ¸Ð½Ð°Ð´Ð»ÐµÐ¶": 5831,
      "ĠÐ¿Ð¸ÑĤ": 5832,
      "ĠÐºÑĥÑģÑĤ": 5833,
      "Ð¸Ð·Ð½ÐµÑģ": 5834,
      "ĠÐ¼Ð¾Ð»Ñĩ": 5835,
      "ĠÑĤÐ²Ð¾ÐµÐ³Ð¾": 5836,
      "ĠÐ±Ð»Ð°Ð³Ð¾Ð´Ð°ÑĢÑı": 5837,
      "ĠL": 5838,
      "ĠÐ¸Ð½Ð´Ð¸Ð²": 5839,
      "ĠÐ¿ÑĢÐ¸ÑģÐ¾": 5840,
      "ÐµÐ¹Ð½": 5841,
      "ĠÐ´ÐµÑĢÐ¶Ð°": 5842,
      "ĠÐŁÐ¾Ð´ÑĢÐ¾ÑģÑĤÐºÐ¸": 5843,
      "ĠÑģÑĥÑī": 5844,
      "ĠÐ²ÑĢÐ°Ñĩ": 5845,
      "ĠÑĢÐ°ÐºÐ¾Ð¼": 5846,
      "ĠÐĵÐµÐ½": 5847,
      "ĠÑģÐºÐ¾ÑĢÐ¾ÑģÑĤÑĮÑİ": 5848,
      "ĠÐºÐ»Ð°ÑģÑģÐ°": 5849,
      "ĠÐ±Ð¾ÑĢÑĮ": 5850,
      "ÐµÐ¹Ñģ": 5851,
      "ĠÐ¾ÑĤÑĤÑĥÐ´Ð°": 5852,
      "ĠÐ²Ð¿ÑĢÐ¾ÑĩÐµÐ¼": 5853,
      "ĠÑĢÐ°Ð´Ð¾ÑģÑĤ": 5854,
      "ĠÐ°Ð½ÑĥÑģÐ°": 5855,
      "ĠÐ²ÑĭÐºÐ»ÑİÑĩ": 5856,
      "ĠÐ¿Ð¾Ð»Ð½ÑĭÐ¹": 5857,
      "ĠÐ¶Ð°Ð´Ð½Ð¾": 5858,
      "ĠÐ²Ð¾Ð´Ð°": 5859,
      "ĠÐºÐ°ÑĢÑĤÐ¸Ð½": 5860,
      "ĠÐ¿Ð¾ÑıÐ²Ð¸Ð»Ð¸ÑģÑĮ": 5861,
      "ĠÐ¿ÑĢÐ¾Ð³ÑĢÐ°Ð¼Ð¼": 5862,
      "ĠÐĳÐµÑĤÑĤÐ¸": 5863,
      "ĠÐĵÑĢ": 5864,
      "ĠÑģÐ¾ÑģÑĢÐµÐ´Ð¾ÑĤÐ¾Ñĩ": 5865,
      "ÑĥÑĢÑĥ": 5866,
      "ĠÐ¾Ð´Ð¸Ð½Ð¾": 5867,
      "ĠÐ½Ð¾Ð³Ð°Ñħ": 5868,
      "ĠÐ±ÐµÑģÐµÐ´": 5869,
      "ĠÐ¿Ð¾ÐºÐ°Ð·Ð°ÑĤÑĮ": 5870,
      "ĠÐ´ÐµÑĢÐ¶Ð°Ð»": 5871,
      "ĠÐµÑģÑĤÐµÑģÑĤÐ²ÐµÐ½Ð½Ð¾": 5872,
      "ĠF": 5873,
      "ĠÑĥÑĢ": 5874,
      "ĠÐ¿Ð¾Ð¸Ñģ": 5875,
      "ĠÐ±Ð¾Ð»ÑĮÑĪÐ¸Ñħ": 5876,
      "ĠÐ´ÑĢÑĥÐ³Ð¸Ð¼Ð¸": 5877,
      "ĠÑĥÐ¼Ð¸": 5878,
      "Ð°Ð¹Ð½": 5879,
      "ÑģÑĤÐ²ÐµÐ½Ð½Ð°Ñı": 5880,
      "ĠÑĦÐ¾ÑĢÐ¼Ñĭ": 5881,
      "ĠÐĽÐ¸Ð½": 5882,
      "ĠÐ¿Ð¾ÑĢÐ°Ð·": 5883,
      "ÑĤÐ¾ÑĩÐºÐ¸": 5884,
      "ĠG": 5885,
      "ÑĤÐµÐ½": 5886,
      "ĠÐ²Ð»Ð°ÑģÑĤÑĮ": 5887,
      "Ð°Ð²Ð¸Ñģ": 5888,
      "ĠÐ³Ð¸Ð¿": 5889,
      "ĠÐļÐ¸ÑĢ": 5890,
      "ĠÑĨÐµÐ»Ð¸ÐºÐ¾Ð¼": 5891,
      "ĠÐ¼Ð°Ð»ÐµÐ½ÑĮÐºÐ¾Ð¹": 5892,
      "ĠÐ·Ð°ÑīÐ¸Ñī": 5893,
      "ĠÐ½Ð°Ñĥ": 5894,
      "ĠÐ¸Ð¼ÐµÐ½Ð¸": 5895,
      "ĠÐ¸Ð³ÑĢÐ¾Ð²": 5896,
      "ĠÐ¾Ð±ÑĬÑıÑģÐ½Ð¸ÑĤÑĮ": 5897,
      "ĠÐ¾Ð±Ð½Ð°ÑĢÑĥÐ¶Ð¸Ð»": 5898,
      "Ð¾Ð¼Ð°ÑĤ": 5899,
      "ĠÐ¿Ð¾Ð´Ð¾Ð¶Ð´": 5900,
      "ĠÐ¿ÑĢÐ¾ÑģÐ½ÑĥÐ»ÑģÑı": 5901,
      "ĠÐ¿Ð¸ÑĤÑĮ": 5902,
      "ĠÑģÐ¾Ð»Ð½ÐµÑĩ": 5903,
      "Ð²ÐµÑĢÐ³": 5904,
      "ĠÐºÑĥÑħÐ½Ðµ": 5905,
      "ĠÐ¸Ð³ÑĢÐ¾ÐºÐ¾Ð²": 5906,
      "??": 5907,
      "Ð¸ÑĨÑĥ": 5908,
      "Ð°Ð½Ð½Ð°": 5909,
      "ĠÐ¿Ð°ÑĢÐ°": 5910,
      "ĠÐ¾Ð±ÑĬÐµÐ´Ð¸Ð½": 5911,
      "ĠÑģÐºÐ¾ÑĢÐ¾ÑģÑĤÐ¸": 5912,
      "ĠÐ¸ÑģÑĤÐ¾ÑĢÐ¸Ñİ": 5913,
      "ĠÐ´Ð¾ÐºÑĥÐ¼": 5914,
      "ĠÐĿÐµÐºÐ¾ÑĤÐ¾ÑĢ": 5915,
      "ĠÐĴÐµÑĩ": 5916,
      "ĠÑĢÐ°Ð·Ð½Ð¾": 5917,
      "ÐµÑĩÐºÑĥ": 5918,
      "ĠÑħÐ²Ð°ÑĤÐ°Ð»Ð¾": 5919,
      "ĠÐ¿ÑĢÐ¸ÑģÐ¿": 5920,
      "Ð¸ÑĤÐµÐ»ÑĮÐ½ÑĭÑħ": 5921,
      "ĠÑĦÑĢÐ°Ð½ÑĨÑĥÐ·": 5922,
      "ĠÐ³Ð¾Ð½": 5923,
      "ĠÑįÑĢÐ¾ÑĤ": 5924,
      "Ð»ÑıÐ»Ð°ÑģÑĮ": 5925,
      "ĠÑĢÐ°ÑģÑħÐ¾Ð´": 5926,
      "ĠÐĿÐ¸ÐºÑĤÐ¾": 5927,
      "ĠÐ¿ÑĢÐ¸ÐºÐ°Ð·Ð°Ð»": 5928,
      "ÐºÐ¾Ð»ÑĮÐ·": 5929,
      "Ð±ÐµÐ¶": 5930,
      "Ð¸Ð¼Ð°Ñı": 5931,
      "ĠÐ°ÑģÑĤÑĢ": 5932,
      "ĠÑĢÐ°Ð·Ð¾Ð±ÑĢ": 5933,
      "ÑĥÑİÑīÐµÐµ": 5934,
      "ĠÐ¸ÑģÑģÐ»ÐµÐ´Ð¾Ð²Ð°Ð½Ð¸Ñı": 5935,
      "Ð½ÐµÐ½Ð½Ð¾": 5936,
      "Ð±Ð¾Ð¹": 5937,
      "ĠÐ³ÑĥÐ»Ñı": 5938,
      "ĠÑģÐ¼Ð¾ÑĤÑĢÐ¸": 5939,
      "ĠÐ´Ð¾ÑĢÐ¾Ð³Ðµ": 5940,
      "Ð½Ð°Ð·": 5941,
      "ĠÐ¿ÑĢÐ¾Ð¹ÑĤÐ¸": 5942,
      "ĠÐĿÐ¸ÐºÐ¾Ð»Ð°": 5943,
      "ĠÐ¿Ð¾Ð»Ð¾ÑĤÐµÐ½ÑĨÐµ": 5944,
      "Ð¾ÑĢÐ´Ð¸Ð½Ð°": 5945,
      "ĠÐ¿Ð¾Ð»Ð°": 5946,
      "ĠÐ¶ÐµÐ½Ñĭ": 5947,
      "ĠÐ¢Ð°ÐºÐ¸Ð¼": 5948,
      "ĠÐ²Ð¾ÑģÐ¿Ð¾Ð¼Ð¸Ð½": 5949,
      "ĠÑģÐ¸ÑģÑĮÐºÐ¸": 5950,
      "ĠÐºÑĥÐ·": 5951,
      "Ð¾ÑĩÐµ": 5952,
      "ĠÐ¿ÑıÑĤÐ½Ð°Ð´ÑĨÐ°ÑĤÑĮ": 5953,
      "Ð°ÑĢÑı": 5954,
      "ÐµÐºÐ¾Ð¼": 5955,
      "ĠÐ¿ÑĢÐ¸ÐµÐ¼": 5956,
      "ĠÐ¿ÐµÑĢÐ²Ð°Ñı": 5957,
      "ÑİÑĩ": 5958,
      "ĠÐ²ÑĭÐ½ÑĥÐ¶Ð´": 5959,
      "ĠÐŀÑĢ": 5960,
      "ĠÐ¾ÑĤÐ²ÐµÑĤÐ°": 5961,
      "ĠÐ¿ÑĢÐ¾ÑĪÐ»Ð¸": 5962,
      "ĠÑģÑĥÐºÐ°": 5963,
      "ĠÐ²Ð¾ÑĪÑĳÐ»": 5964,
      "ĠÑģÐ¸Ð³Ð½Ð°Ð»": 5965,
      "ĠÐ¿Ð¾Ð²Ð¾Ð´Ñĥ": 5966,
      "ĠÐ¿ÐµÑĢÐµÐ»": 5967,
      "Ð°Ð¹Ð½Ð¾": 5968,
      "ĠÐ°Ð½Ð³": 5969,
      "ĠÐ½ÐµÐºÐ¾ÑĤÐ¾ÑĢÑĭÑħ": 5970,
      "ÑģÐ¾Ð»Ñı": 5971,
      "ÑĢÐ°Ð»Ð¸": 5972,
      "ĠÐ³Ð¾ÑĢÐ´": 5973,
      "Ð»ÐµÐ²": 5974,
      "ĠÐ¼ÐµÑĢÑĤÐ²": 5975,
      "ĠÑĤÐ²ÐµÑĢ": 5976,
      "ÐµÐ½ÑĮÐµ": 5977,
      "ĠÐ±ÑĥÐ´ÑĮ": 5978,
      "ĠÐ½Ð°Ð»Ð¸": 5979,
      "ÑİÐ±": 5980,
      "Ð¸ÑĤÐ°Ð¹": 5981,
      "ĠÐ¾ÑĤÐ¾Ð·Ð²": 5982,
      "ĠÐ¿ÑĢÐ¸Ð½ÑıÐ»": 5983,
      "ĠÐ¸Ð³ÑĢÐµ": 5984,
      "ĠÐ²ÑĭÑĢÐ¾Ñģ": 5985,
      "ĠÐ½Ð°Ð¿ÑĢÐ°Ð²Ð¸Ð»ÑģÑı": 5986,
      "ĠÐ§ÐµÐ»Ð¾Ð²": 5987,
      "ĠÐ´ÑĥÑĪÐ°": 5988,
      "ĠÐŁÐµÑĤÑĢ": 5989,
      "ÑģÐµÐ³Ð´Ð°": 5990,
      "ĠÐ¿ÑĢÐ¾Ð²Ð°Ð»": 5991,
      "Ð¾ÐºÐ¾Ð¼": 5992,
      "ĠÐĺÐ´Ð¸": 5993,
      "ĠÐ´ÑĢÑĥÐ³Ð°Ñı": 5994,
      "ĠÐ²ÐµÐ»Ð¸Ñĩ": 5995,
      "Ð³Ð»Ð¸Ð¹": 5996,
      "ĠÐ¾Ð±ÑģÑĤÐ¾ÑıÑĤÐµÐ»ÑĮ": 5997,
      "ĠÐ¾Ð´Ð½Ð¾Ðº": 5998,
      "ĠÐ½Ð¸ÐºÐ°ÐºÐ¾Ð¹": 5999,
      "ĠÐ°Ð²ÑĤÐ¾Ð¼Ð¾Ð±": 6000,
      "ĠÐ²Ð¾ÑģÑĤÐ¾ÑĢÐ³": 6001,
      "ĠÐ¿ÑģÐ¸ÑħÐ¾Ð»Ð¾Ð³": 6002,
      "ĠÐ²Ð¸Ð½Ð°": 6003,
      "Ð¸Ð¼Ð¾Ð¹": 6004,
      "ĠÐºÐ¾Ð½ÐµÑĩ": 6005,
      "ĠÐ´ÐµÐ»Ð°ÑİÑĤ": 6006,
      "ÑıÑīÑĥÑİ": 6007,
      "ĠÐ¼Ð°Ð»ÐµÐ½ÑĮÐºÐ¸Ðµ": 6008,
      "ĠÑĥÑģÑĤÑĥÐ¿": 6009,
      "Ġ***": 6010,
      "ĠÑģÐ¸Ð³Ð°ÑĢ": 6011,
      "Ð°Ð»ÐºÐ¸Ð²": 6012,
      "ĠÐ°Ð¶": 6013,
      "ĠÐ¢Ðµ": 6014,
      "ÑĭÐ²Ð°Ð¹": 6015,
      "Ð»ÐµÐ½Ð½Ð¾Ð¹": 6016,
      "ĠÐ²Ð¾ÑģÑĮ": 6017,
      "ĠÐ·Ð°Ð½ÑıÑĤÑĮÑģÑı": 6018,
      "ĠÐ²ÑģÑıÐºÐ¸Ð¹": 6019,
      "ĠÐ¡Ð¿ÑĥÑģÑĤ": 6020,
      "ĠÐ´Ð¾ÑĢÐ¾Ð³Ñĥ": 6021,
      "ĠÐ½ÐµÐ¿ÑĢÐ¸ÑıÑĤ": 6022,
      "ĠÐŁÑĢÐ¾Ð´Ð¾Ð»Ð¶": 6023,
      "ĠÐ¢Ð°": 6024,
      "ĠÐ¾ÑģÑĥÑīÐµÑģÑĤÐ²": 6025,
      "ĠÐ»ÑİÐ±Ð¸Ð»": 6026,
      "ĠÐ¾ÑĢÐ³Ð°Ð½": 6027,
      "ĠÐ¿Ð¾ÑĤÑĢÐ¾Ð³": 6028,
      "ĠÐ¿Ð¾Ð»Ð½Ð¾Ð¼": 6029,
      "ĠÑĥÑĩÐµÐ½Ð¸": 6030,
      "ĠÐ²ÐµÑģÐµÐ»": 6031,
      "ĠÑģÐ¼ÐµÑĢÑĤÑĮ": 6032,
      "ĠÑħÐ¾ÑĢÐ¾ÑĪÐ¸Ð¹": 6033,
      "ĠÐ¿Ð¾Ð´Ð¾Ð·ÑĢ": 6034,
      "ĠÑģÑĤÐµÐ¿ÐµÐ½Ð¸": 6035,
      "Ð°ÐºÐ¾Ð²": 6036,
      "ĠÐ¼Ð¾Ð¸Ð¼Ð¸": 6037,
      "ĠÐ»Ð°Ð´Ð¾ÑĪ": 6038,
      "ĠÑģÑĤÑĢÐ°Ð½Ñĭ": 6039,
      "ĠÑĢÐ°Ð·Ð´Ð²Ð¸Ð½ÑĥÐ»": 6040,
      "ĠÐ²Ð¾ÑģÐ¿Ð¾Ð»ÑĮÐ·": 6041,
      "ĠÐºÑĢÐ¸ÑģÑĤÐ°Ð»Ð»": 6042,
      "ĠÐ³ÑĢÐ°Ð¶Ð´Ð°Ð½": 6043,
      "ĠÑĢÐµÑģÑĥÑĢ": 6044,
      "ĠÐĴÐ¾Ð²": 6045,
      "ĠÑģÐ¿Ð°Ð»": 6046,
      "ĠÐĳÐ°ÑĤ": 6047,
      "ĠÑģÐ¶Ð°Ð»Ð°": 6048,
      "ĠÐ¿Ð¾Ð´ÑĢÑĥÐ³Ð¸": 6049,
      "Ð¾ÑĥÐ¼": 6050,
      "Ð¶Ñĥ": 6051,
      "ĠÐ½Ð°ÑĪÐ¸Ð¼": 6052,
      "ĠÑģÐ¸ÑģÑĤÐµÐ¼Ðµ": 6053,
      "ĠÐ¿ÑĢÐ¸Ð³Ð»Ð°ÑĪ": 6054,
      "ĠÑĢÐ°ÑģÑģÐ¼Ðµ": 6055,
      "ĠÑıÐ·ÑĭÑĩÐºÐ¾Ð¼": 6056,
      "ĠÐ²ÑĭÐ³Ð»ÑıÐ´ÐµÐ»": 6057,
      "ĠÐ°ÑĤÐ¼Ð¾Ñģ": 6058,
      "ĠÐ²Ð¿ÐµÑĢÑĳÐ´": 6059,
      "ĠÑģÐ»Ð¾": 6060,
      "ĠÐ´ÑĭÐ¼": 6061,
      "ĠÑĢÐ¾Ð¼": 6062,
      "ĠÐ¿Ð¾ÑĤÐµÐº": 6063,
      "ĠÐķÑīÑĳ": 6064,
      "ĠÐ»ÑİÐ±Ð¸ÑĤ": 6065,
      "ĠÐ´ÑĥÐ¼Ð°ÐµÑĪÑĮ": 6066,
      "Ġ199": 6067,
      "ĠÐ¾ÑĩÐµÑĢÐµÐ´Ð¸": 6068,
      "ĠÑĤÐ°Ð»Ð¸Ñİ": 6069,
      "ĠÐĿÑĮÑİ": 6070,
      "ĠÐ¿ÑĢÐ¸Ð¼ÐµÐ½": 6071,
      "Ð¾Ð»Ð¸": 6072,
      "ĠÑģÑĤÐ°ÑĤ": 6073,
      "ĠÑħÑĢÐ¸Ð¿": 6074,
      "Ð¾Ð¶Ð°Ð»ÑĥÐ¹": 6075,
      "ĠÐ¾Ð´Ðµ": 6076,
      "ÐµÑħÐ°ÑĤÑĮ": 6077,
      "ĠÐ½Ð°ÑħÐ¾Ð´Ð¸Ð»ÑģÑı": 6078,
      "ĠÐĲÐ»ÐµÐºÑģÐ°Ð½Ð´ÑĢ": 6079,
      "ĠÑĩÐ¸ÑģÐ»Ðµ": 6080,
      "ÐºÑĢÐµÑĤ": 6081,
      "ĠÐŁÐµÑĢÐ²ÑĭÐ¹": 6082,
      "ĠÐ¾Ð±Ð¾Ð¸Ñħ": 6083,
      "ĠÐ¶ÑĥÑĤ": 6084,
      "Ð¸Ð´ÐµÐ½ÑĤ": 6085,
      "ĠÐĶÐ°Ð¹": 6086,
      "ĠÐ¿ÐµÑĢÐ²ÑĭÑħ": 6087,
      "ĠÑĥÐ¿Ð°Ð»Ð°": 6088,
      "ĠÐĺÐ²": 6089,
      "ĠÐºÐ¾ÑĪ": 6090,
      "ĠÑĩÐ»ÐµÐ½Ñĭ": 6091,
      "ĠÐ½ÐµÐ¿ÑĢÐ°Ð²": 6092,
      "ĠÐ¿ÑĢÐµÐ´ÑģÑĤÐ°Ð²Ð»ÑıÐ»": 6093,
      "ĠÐ½Ð°Ð±Ð»ÑİÐ´Ð°Ð»": 6094,
      "ÑĤÐ¾Ð¹": 6095,
      "ĠÑĪÐ»ÐµÐ¿": 6096,
      "Ð°ÑĪÐºÐ¸": 6097,
      "ĠÑģÐ´ÐµÐ»Ð°Ñİ": 6098,
      "Ð»Ð¾Ð¶Ð¸Ð»": 6099,
      "ĠÐ¿Ð¾Ð´Ð½ÑıÐ»Ð°ÑģÑĮ": 6100,
      "ÐľÑĭ": 6101,
      "ĠÐŀÑģÑĤÐ°Ð²": 6102,
      "ĠÑĦÐ¸Ð»": 6103,
      "ĠÐ¼Ð¾Ð´ÐµÐ»ÑĮ": 6104,
      "ĠÐ¿Ð¾Ð´Ð±Ð¾ÑĢÐ¾Ð´": 6105,
      "ĠÐ¿Ð¾Ð»ÑĩÐ°ÑģÐ°": 6106,
      "Ð°Ð¹ÑĤ": 6107,
      "ĠÑģÑĤÐ¾Ð»Ðº": 6108,
      "ĠÑģÑĥÑħ": 6109,
      "ÐµÐ½ÑĮÑĪ": 6110,
      "ĠÐ²Ð·Ð¾ÑĢÐ²": 6111,
      "ĠÐ¿Ð¾Ð¿Ð°Ð»": 6112,
      "ĠÐºÑĥÐ¿Ð°Ð»ÑĮ": 6113,
      "ĠÑĤÐµÑģÑĤ": 6114,
      "Ð°Ð½Ð½Ð¾Ð¼": 6115,
      "ÑĨÐ°Ð¼": 6116,
      "ĠÐ¿ÑĢÐ¾ÑīÐµ": 6117,
      "ĠÐ±Ð¾Ð»ÑĮÑĪÐ¾Ðµ": 6118,
      "ĠÑģÐµÑģÑĤÑĢÐµ": 6119,
      "ĠÐ·Ð°Ð½Ð¸Ð¼Ð°Ð»ÑģÑı": 6120,
      "ĠÑĥÐ¹ÑĤÐ¸": 6121,
      "ĠÐ¸Ð·Ð¼ÐµÑĢ": 6122,
      "ĠÐĵÐ¾Ð²Ð¾ÑĢ": 6123,
      "ĠÐ¿Ð¸ÑģÐ°ÑĤÑĮ": 6124,
      "ĠÐ´ÑĥÑħÐ¾Ð²": 6125,
      "ch": 6126,
      "ĠÑģÐ¿Ð°Ð»Ð°": 6127,
      "ĠÐ¿Ð¾ÑħÐ¾ÑĤ": 6128,
      "ĠÐĿÐ¸ÐºÐ°Ðº": 6129,
      "ÑĢÐµÐ»": 6130,
      "ĠÐĳÐ¾Ð»ÑĮÑĪÐµ": 6131,
      "ĠÐºÐ¾Ð¼Ð±": 6132,
      "ĠÐ¿Ð¾Ð²ÑĭÑĪ": 6133,
      "ĠÐ¿ÑĢÐµÐ²ÑĢÐ°Ñī": 6134,
      "Ð»ÑĥÑĪÐ°Ð¹": 6135,
      "ĠÐ±ÑĢÑİÐºÐ¸": 6136,
      "ĠÐ¾ÑģÐ»Ð°Ð±": 6137,
      "ĠÐ»Ð¾Ð¼": 6138,
      "ĠÑĤÐµÐ¾ÑĢÐ¸Ð¸": 6139,
      "ĠÐĽÐ¸Ð·Ð°": 6140,
      "ĠÐ²Ð¾Ð·ÑĮ": 6141,
      "ĠÐ¼Ð°Ð¼Ð¸Ð½": 6142,
      "ĠÑģÐ¾Ð±Ð»Ð°Ð·": 6143,
      "ĠÐ²ÑĭÑģÐ¾ÐºÐ¾": 6144,
      "ÑİÑīÐ°Ñı": 6145,
      "Ð°Ð¹ÑĤÐµÑģÑĮ": 6146,
      "ur": 6147,
      "ĠÐ¿Ð¸ÑĢ": 6148,
      "ĠÐ¿ÐµÐ½Ð¸Ñģ": 6149,
      "ĠÐµÑİ": 6150,
      "ĠÐ²Ð¾Ð»Ð½Ñĥ": 6151,
      "Ð²ÑĤÐ¾ÑĢ": 6152,
      "ĠÐ²ÑĭÐ½ÑĥÐ»": 6153,
      "Ð»ÑıÐ»Ð°": 6154,
      "ÑĭÐ²Ð°Ð»Ð¾": 6155,
      "ÐµÑĢÐµÐ´Ð¸": 6156,
      "ĠÐ·Ð°Ð½ÑıÑĤ": 6157,
      "ĠÑĤÑĢÐ°Ð½ÑģÐ¿": 6158,
      "ĠÐ´Ð¸ÑĢÐµÐºÑĤÐ¾ÑĢ": 6159,
      "ĠÐ¼Ð½Ð¾Ð³Ð¾Ðµ": 6160,
      "ĠÐ½ÐµÐ·Ð½Ð°ÐºÐ¾Ð¼": 6161,
      "Ð¼Ð¿": 6162,
      "ĠÑĪÐ¿": 6163,
      "ĠÐĳÐ¾Ð»ÑĮÑĪ": 6164,
      "ĠÐ²ÑĭÐ¿ÑĥÑģÐº": 6165,
      "ĠÐ¦Ðļ": 6166,
      "ĠÐĿÐ°ÑĤÐ°Ð»ÑĮ": 6167,
      "ĠÐĴÐ¾Ð¾Ð±ÑīÐµ": 6168,
      "ĠÐ½ÐµÐ¸Ð·Ð²ÐµÑģÑĤ": 6169,
      "ĠÐ¿ÑĢÐ¸Ð½ÑĨÐ¸Ð¿Ðµ": 6170,
      "ĠÑģÑĢÐ°Ð²Ð½": 6171,
      "ĠÑĤÐ°ÐºÑĤ": 6172,
      "ÐµÐ³Ñĥ": 6173,
      "ĠÐ¿ÑĢÐ¾Ð³Ð»Ð¾ÑĤ": 6174,
      "ĠÑģÐ¸Ð´ÐµÑĤÑĮ": 6175,
      "Ð¸ÑīÐµ": 6176,
      "ĠÐ¾ÑĤÑĨÐ¾Ð¼": 6177,
      "ĠÑģÐ¿Ð¸Ñģ": 6178,
      "ĠÐ³ÑĢÑĥÐ´ÐµÐ¹": 6179,
      "ĠÐ²ÑĤÐ¾ÑĢÐ¾Ð³Ð¾": 6180,
      "ĠÐ±Ð¾ÑıÐ»ÑģÑı": 6181,
      "ĠÐ¾Ð±Ð½ÑıÐ»Ð°": 6182,
      "ĠÐľÐ¸ÑĪÐºÐ°": 6183,
      "ĠÐ¿ÑĥÑħ": 6184,
      "ĠÐĴÐ»Ð°Ð´": 6185,
      "ĠÐ¡ÑĮÑİ": 6186,
      "ĠÑĦÐ¾ÑĤÐ¾": 6187,
      "ĠÐ½Ð°Ð²Ñĭ": 6188,
      "ÑİÑīÑĥÑİ": 6189,
      "ĠÑĥÐ´Ð°ÑĢÐ°": 6190,
      "ĠÐłÐ°Ð·ÑĥÐ¼": 6191,
      "ĠÑĢÐµÐ´ÐºÐ¾": 6192,
      "ĠÐŀÐºÑģÐ°Ð½Ð°": 6193,
      "Ð»Ð»Ñİ": 6194,
      "Ð»ÑıÐ»Ð¸": 6195,
      "ĠÐĳÐ¾Ð¶Ðµ": 6196,
      "ĠÐ¿ÑĢÐ¾ÑĪÐ»Ð¾Ð¼": 6197,
      "ÐĴÐ¾ÑĤ": 6198,
      "Ð»ÑĥÐ¶": 6199,
      "ĠÐºÐ°Ð¶": 6200,
      "ĠÑĤÐ¸ÑĪÐ¸": 6201,
      "ĠÐĳÐ¾ÑĢ": 6202,
      "ĠÐ¸Ð½ÑĦ": 6203,
      "ĠÐºÑĢÐ°ÑģÐ°Ð²": 6204,
      "ĠÐ·Ð°ÑĢÐ°Ð½ÐµÐµ": 6205,
      "ĠÐ´ÐµÑĢÐ¶Ð°ÑĤÑĮ": 6206,
      "Ð¸ÑĢÑĥÐµÑĤ": 6207,
      "ĠÐ¿ÑĢÐ¾Ð¸ÑģÑħÐ¾Ð´Ð¸Ð»Ð¾": 6208,
      "Ġo": 6209,
      "ÑıÐ±": 6210,
      "ĠÑģÐ½Ð¸": 6211,
      "ĠÐ¸Ð·ÑĥÐ¼": 6212,
      "ĠÐ±ÐµÑģÐºÐ¾Ð½ÐµÑĩ": 6213,
      "ĠÐ´Ð¾Ð¼Ñĥ": 6214,
      "Ð¾Ð´Ð½Ð¾": 6215,
      "Ð¾ÑĩÐ¸Ð»Ð°": 6216,
      "ĠÐĽÑĥÑĩ": 6217,
      "Ð¸ÑĢÐ¾Ð²Ð°Ð»Ð¸": 6218,
      "ĠÐ¸Ð¼ÐµÑİÑĤ": 6219,
      "ĠÐ¿ÑĢÐ¾ÑĪÐµÐ¿ÑĤÐ°Ð»": 6220,
      "Ð°ÑĤÐ¸Ñĩ": 6221,
      "ĠÐľÐ¾Ð»": 6222,
      "ĠÐļÐ¾Ð»Ñı": 6223,
      "ĠÐ¿ÑĢÐ¸Ð²ÐµÑĤ": 6224,
      "ĠÐ½Ð°Ð²ÐµÑĢÐ½Ð¾": 6225,
      "ĠÐ²Ð¾Ð·Ð´ÑĥÑħÐµ": 6226,
      "le": 6227,
      "ĠÐĵÐ»Ð°Ð·": 6228,
      "ĠÐ£Ñĩ": 6229,
      "ĠÐºÐ¾Ð»Ð»ÐµÐº": 6230,
      "ĠÐ¿ÐµÑĢÐ²Ð¾Ðµ": 6231,
      "ĠÑģÐ¾Ð³Ð»Ð°ÑģÐ¸Ð»Ð°ÑģÑĮ": 6232,
      "ĠÐ±ÐµÐ·Ð¾Ð¿Ð°ÑģÐ½Ð¾ÑģÑĤÐ¸": 6233,
      "Ðĸ": 6234,
      "ĠÐ±ÑĳÐ´": 6235,
      "ĠÐ°Ð´ÑĢ": 6236,
      "ĠÐ¥Ð¾Ð·ÑıÐ¸Ð½": 6237,
      "ĠÐ·Ð²ÑĳÐ·Ð´": 6238,
      "ĠÐºÐ²Ð°ÑĢÑĤÐ¸ÑĢÑĥ": 6239,
      "Ð¥Ð¾ÑĢÐ¾ÑĪÐ¾": 6240,
      "ĠÐ¸ÑģÑĤÑĢÐµÐ±": 6241,
      "ĠÐ»Ð°Ð¼Ð¿": 6242,
      "ÑĳÑħ": 6243,
      "ĠÐĲÐº": 6244,
      "ĠÑģÑĤÐ¾Ð¸Ð»Ð¾": 6245,
      "000": 6246,
      "ĠÑģÑĩÐ¸ÑĤÐ°Ð»": 6247,
      "ĠÑĢÐ°Ð·Ð´Ð²Ð¸Ð³": 6248,
      "ĠÐ¾ÑĤÐ¿ÑĢÐ°Ð²Ð¸Ð»ÑģÑı": 6249,
      "ĠÑģÐ»Ð°Ð´Ð¾ÑģÑĤ": 6250,
      "ĠÐ¿Ð°Ð¼ÑıÑĤÑĮ": 6251,
      "ĠÐ¼Ð°ÑĢÑĪ": 6252,
      "Ð¿ÐµÑĢÐ²ÑĭÑħ": 6253,
      "tt": 6254,
      "ĠÐ¿Ð¾Ð´ÐµÐ»": 6255,
      "ĠÑĩÑĥÐ²ÑģÑĤÐ²ÑĥÑİ": 6256,
      "ĠÑįÐºÐ·": 6257,
      "ĠÑģÐ¼ÐµÐ»": 6258,
      "Ð¸ÑĨÐ¸Ð½": 6259,
      "ĠJ": 6260,
      "ĠÐ¿Ð¾Ð´Ð°Ð²": 6261,
      "ĠÐ»Ð¸ÑģÑĤ": 6262,
      "ĠÐ´ÐµÐ¹ÑģÑĤÐ²Ð¸Ð¹": 6263,
      "ĠÐ²ÑĭÐ±Ð¾ÑĢ": 6264,
      "ĠÑĩÐ¸ÑģÑĤÐ¾": 6265,
      "ĠÐ¾Ð±ÑħÐ²Ð°ÑĤÐ¸Ð»Ð°": 6266,
      "ÑģÐºÐ¾Ð¼Ñĥ": 6267,
      "ĠÑģÑĤÐ¾ÑıÑĤÑĮ": 6268,
      "ĠÐĶÐ²Ð°": 6269,
      "Ð°Ð´Ñĭ": 6270,
      "ÐµÑģÐµÐ´": 6271,
      "ĠÐļÐ°Ð¶ÐµÑĤÑģÑı": 6272,
      "ĠÐ¼Ð°Ð»ÐµÐ½ÑĮÐºÑĥÑİ": 6273,
      "ĠÐ¾Ð¶Ð¸Ð´Ð°Ð»": 6274,
      "ÑĭÑģÐº": 6275,
      "ÑģÑĤÑĮÑİ": 6276,
      "ĠÐ²Ð¸Ð´Ð¾Ð¼": 6277,
      "ĠÐ½ÐµÐ¿Ð¾Ñģ": 6278,
      "ĠÐ¿Ð°Ð»ÑĮÑĨÐµÐ²": 6279,
      "ĠÐĿÐ°Ð¿ÑĢÐ¸Ð¼ÐµÑĢ": 6280,
      "Ð²ÑĪÐ¸ÑģÑĮ": 6281,
      "ĠÐ»Ð°Ð·": 6282,
      "ĠÐľÐµÐ¶Ð´Ñĥ": 6283,
      "ĠÐ±ÐµÑģÑģÐ¼": 6284,
      "ĠÐ¿ÑĢÐµÐ´Ð»Ð¾Ð¶ÐµÐ½Ð¸Ðµ": 6285,
      "ĠÐ´Ð¾ÑĢÐ¾Ð³Ð¸": 6286,
      "ĠÐ²ÑĭÐ´Ð¾Ñħ": 6287,
      "ĠÐºÐ¾ÑĦÐµ": 6288,
      "Ð¾ÑĢÑī": 6289,
      "ĠÐĴÐµÑģÑĮ": 6290,
      "ĠÐ²Ð¾Ð»Ð½Ð°": 6291,
      "Ð»Ð°Ð½ÐµÑĤ": 6292,
      "ĠÐ±Ð»Ð°Ð¶ÐµÐ½": 6293,
      "ÐºÐ¾ÑĢ": 6294,
      "Ð¼Ð¾ÑĤÑĢÑı": 6295,
      "Ð¾Ð¶Ñĥ": 6296,
      "ĠÐ¾Ð±Ð¼Ð°Ð½": 6297,
      "ÑģÑĤÑĢÐµÐ¼": 6298,
      "ĠÐ´Ð°Ð²Ð°Ñı": 6299,
      "ĠÐ¿ÑĢÐ¾ÑģÑĥ": 6300,
      "ĠÐ¿Ð¸ÑģÑĮÐºÑĥ": 6301,
      "ĠÐĿÐµÐ¼Ð½Ð¾Ð³Ð¾": 6302,
      "ĠčĊ": 6303,
      "ĠÐ²ÑĢÐµÐ¼ÐµÐ½Ð°": 6304,
      "ĠÐ¾ÑĤÐ²ÐµÑĤÐ¸ÑĤÑĮ": 6305,
      "ĠÐ½Ð°Ð²ÑģÐµÐ³Ð´Ð°": 6306,
      "ĠÑģÐ²ÑıÐ·ÑĮ": 6307,
      "Ð»Ð¾Ð³Ð¾": 6308,
      "Ð·Ð²": 6309,
      "ÑĭÐ²Ð°Ð½Ð¸Ñı": 6310,
      "ĠÐ¨ÐµÐ»ÐµÐ¿": 6311,
      "ÑĳÐ½Ð½Ð¾": 6312,
      "ĠÑįÐ¿Ð¾Ñħ": 6313,
      "ĠÐ´Ð¶Ð¸Ð½ÑģÑĭ": 6314,
      "ĠÐºÐ°ÑĦ": 6315,
      "ĠÑĥÑħÐ¾": 6316,
      "ĠÐ¡ÐºÐ¾ÑĢ": 6317,
      "ĠÐ·ÑĥÐ±Ñĭ": 6318,
      "ĠÐ±ÑĥÑĤÑĭÐ»ÐºÑĥ": 6319,
      "ĠÑĩÐµÑĤÑĭÑĢÐµÑħ": 6320,
      "ĠÐ¼Ð¾Ð±": 6321,
      "ĠâĢ¦": 6322,
      "ĠÐ·Ð²ÑĥÑĩ": 6323,
      "ĠÐ¿ÑĢÐ¸Ð¶Ð°Ð»": 6324,
      "ĠÐĺÐ½ÑĤÐµÑĢÐµÑģÐ½Ð¾": 6325,
      "ĠÐ½ÐµÑĥÐ´Ð¾Ð±": 6326,
      "Ð¾Ð³Ñĥ": 6327,
      "Ð¸Ð²ÑĪÐ¸Ð¹ÑģÑı": 6328,
      "ĠÑĢÐ°Ð·Ð±ÑĥÐ´": 6329,
      "ĠÐĹÐ²": 6330,
      "ÑĤÑĥÑĢÑĥ": 6331,
      "ĠÑĢÐ°Ð·Ð´Ð²Ð¸Ð½ÑĥÐ²": 6332,
      "ĠÐºÑĥÑĢÑģ": 6333,
      "ĠÑĦÐ¸Ð³ÑĥÑĢ": 6334,
      "ĠÐ¼Ð¸Ð½ÐµÑĤ": 6335,
      "Ð»ÐµÑĩÑĮ": 6336,
      "ĠÐ±Ð¸Ð·Ð½ÐµÑģ": 6337,
      "Ð¾Ð¼ÐµÑĤ": 6338,
      "ĠÐļÑį": 6339,
      "ÐµÑĩÐºÐ°": 6340,
      "ÑģÐ¿ÐµÐºÑĤÐ¸Ð²": 6341,
      "ĠÐļÐ°ÐºÐ°Ñı": 6342,
      "ĠÐ¿ÑĢÐ¾Ð²ÐµÑģÑĤÐ¸": 6343,
      "Ġ50": 6344,
      "Ð¾ÑģÑĤÐ¾ÑıÑĤÐµÐ»ÑĮ": 6345,
      "ĠÑĤÐ¾ÑĢÐ³Ð¾Ð²": 6346,
      "ĠÐ´ÐµÐ»Ð°ÐµÑĪÑĮ": 6347,
      "ĠÐ½Ð°Ð¿Ð¾Ð¼Ð¸Ð½": 6348,
      "ÑĮÐ¸": 6349,
      "Ð½Ð¸Ñİ": 6350,
      "ĠÑģÑĤÐ°Ð½Ð´": 6351,
      "ĠÐ¸Ð·Ð³Ð¾ÑĤÐ¾Ð²": 6352,
      "ĠÐĶÐ°Ð»ÑĮÑĪÐµ": 6353,
      "âĢ¦,": 6354,
      "ĠÑģÐ¾ÑİÐ·": 6355,
      "ĠÐ²ÐµÑĢÐ¾ÑıÑĤÐ½Ð¾": 6356,
      "ĠÐ¾ÑģÑĤÐ°ÑĤÐºÐ¸": 6357,
      "ĠÐ¡Ð¸": 6358,
      "ĠÐ¿Ð¾Ð´Ð´": 6359,
      "ÑĤÐ¸Ðµ": 6360,
      "Ð°Ð¹ÑĦ": 6361,
      "ĠÐºÐ¾Ð¼Ð¼Ñĥ": 6362,
      "ĠÐ»Ð°ÑģÐºÐ¸": 6363,
      "ĠÑĢÐ°ÑģÑģÐºÐ°Ð·Ð°Ð»": 6364,
      "Ð¸ÑģÐºÐµ": 6365,
      "ĠÑįÐºÑĢÐ°Ð½Ðµ": 6366,
      "Ð»Ð¾ÑĢ": 6367,
      "ĠÐ¿Ð°Ðº": 6368,
      "ĠÐ¿Ð°Ð½": 6369,
      "ÐµÐ½Ñĥ": 6370,
      "Ð¸ÑĩÐ½ÐµÐ²": 6371,
      "ĠÐ·Ð½Ð°ÐµÐ¼": 6372,
      "ĠÑĢÐ¾Ð´ÑģÑĤÐ²ÐµÐ½": 6373,
      "ĠÐ¿ÑĢÐ¾ÑĤÐ¸Ð²Ð¾Ð¿": 6374,
      "ĠÐ½ÐµÐ·Ð°Ð¼ÐµÑĤ": 6375,
      "Ð¸ÑĤÐµÐ»ÐµÐ¼": 6376,
      "Ð°ÑĢÐµ": 6377,
      "ĠÐ¾Ð´Ð½Ð¸": 6378,
      "ÑİÑīÐ¸Ð¼": 6379,
      "ĠÐĴÐ¸Ð´Ð¸Ð¼Ð¾": 6380,
      "ÑıÐµÑĤÑģÑı": 6381,
      "ĠÐ¿Ð¾Ð´Ð·ÐµÐ¼": 6382,
      "Ð»ÐµÐ½Ð½ÑĭÐ¼": 6383,
      "ĠÐºÐ¾Ð½ÐºÑĢÐµÑĤ": 6384,
      "ĠÐ¾Ð¿ÑĥÑģÐº": 6385,
      "ĠÐķÐ´Ð¸Ð½": 6386,
      "ĠÐ¿Ð¾Ð·Ð°Ð´Ð¸": 6387,
      "ĠÐ¾Ð¿ÑĥÑģÑĤÐ¸Ð»Ð°": 6388,
      "ĠÐ³ÑĢÑĥÐ¿Ð¿Ñĭ": 6389,
      "ĠÐ´ÐµÐ²ÑĩÐ¾Ð½ÐºÐ¸": 6390,
      "Ð½ÑĥÐ»Ð¾ÑģÑĮ": 6391,
      "ĠÐ¡Ð»Ð¾Ð²": 6392,
      "Ð½Ð¸ÐºÐ°Ð¼": 6393,
      "ĠÑĥÐ¿Ð¾Ð¼": 6394,
      "ĠÐ¿Ð¾Ð»ÑĥÑĩÐ¸ÑĤÑģÑı": 6395,
      "ĠÐ±ÑĥÐ´ÑĥÑīÐµÐ³Ð¾": 6396,
      "Ġ\\\\\\*": 6397,
      "ĠÐĴÑĤÐ¾ÑĢÐ¾Ð¹": 6398,
      "ÐµÐ½Ð½Ð¾Ð¼Ñĥ": 6399,
      "Ð¾Ð²Ñĭ": 6400,
      "ĠÑĩÑĢÐµÐ·": 6401,
      "ĠÐ½Ð°Ð¿Ð¾Ð»Ð½": 6402,
      "ĠÑĤÐºÐ°Ð½ÑĮ": 6403,
      "ĠÐ¸Ð½Ð´Ð¸Ð²Ð¸Ð´Ñĥ": 6404,
      "Ð¾ÐºÑĢÐ°ÑĤ": 6405,
      "ĠÑģÐ»ÑĥÑħ": 6406,
      "ĠÐĲÑĢÑĤÑĥÑĢÐ°": 6407,
      "ĠW": 6408,
      "Ð½Ð¸ÑĪÑĮ": 6409,
      "ĠÑĪÐ°Ñħ": 6410,
      "Ð¸ÑĤÐµÐ»ÑĮÐ½Ð°Ñı": 6411,
      "ĠÐºÐ¾ÑĢÐ¾Ð±": 6412,
      "ĠÐºÐ°Ð¶Ð´ÑĥÑİ": 6413,
      "ĠÐ¿ÑĢÐµÐ´Ð»Ð¾Ð¶Ð¸Ð»Ð°": 6414,
      "ĠÐłÐ¾ÑģÑģÐ¸Ð¸": 6415,
      "ĠÑģÑĢÐ¾Ñĩ": 6416,
      "ĠÐ³ÑĢÐ°Ð½": 6417,
      "ĠÐ²ÑĭÐ¹Ð´": 6418,
      "ÐµÐ½ÑĮÐºÐ¸Ðµ": 6419,
      "Ð°ÑİÑīÐµÐµ": 6420,
      "ĠÐ»ÐµÐ³ÑĩÐµ": 6421,
      "ĠÑĤÑĢÐµÐ±ÑĥÐµÑĤÑģÑı": 6422,
      "ĠÐ½ÐµÐ¿Ð»Ð¾ÑħÐ¾": 6423,
      "ĠÐ¼Ð¾ÑģÑĤ": 6424,
      "Ð¾Ð²Ð¾Ðµ": 6425,
      "Ð¾Ð»Ð½Ð¸ÑĤÑĮ": 6426,
      "Ð°ÑĪÑĥ": 6427,
      "ĠÐ¾Ð±ÑĬÐµÐºÑĤ": 6428,
      "ĠÐ¡Ñĭ": 6429,
      "ĠÐłÐ¾Ð¼": 6430,
      "ĠÐ¿Ð¾ÑĨÐµÐ»ÑĥÐ¹": 6431,
      "ĠÑģÐ½Ð¸Ð·Ñĥ": 6432,
      "ĠÐ¿ÑĥÐ»ÑĮÑģ": 6433,
      "ÑĨÐ°Ñħ": 6434,
      "Ð¾ÑģÐ¾ÑĦ": 6435,
      "ĠÐºÑĢÐ°Ñı": 6436,
      "ÑıÑĤÐ¸Ð¹": 6437,
      "ĠÐ¿Ð¾Ð²ÐµÐ·Ð»Ð¾": 6438,
      "Ð½Ð°Ð´": 6439,
      "ĠÐ¼Ð¾ÑĤ": 6440,
      "ĠÑĤÐµÐ¼Ñĥ": 6441,
      "ĠÑĢÐ¾Ð¶Ð´ÐµÐ½Ð¸Ñı": 6442,
      "ĠÐŁÐ¾Ð·": 6443,
      "ĠÐŁÑĢÐ¾Ñģ": 6444,
      "ĠÐºÑĢÐµÑģÐ»Ð°": 6445,
      "ĠÐ¿Ð¾Ð´Ð¾Ð·ÑĢÐµÐ²": 6446,
      "ĠÐ¿ÑĢÐ¸Ð¾ÑĤÐºÑĢÑĭ": 6447,
      "ĠÐ¡ÐµÑģÑĤÑĢÐ°": 6448,
      "ÑĪÐµÐµÑģÑı": 6449,
      "ĠÐºÑĢÐ¸ÑĤ": 6450,
      "ÑģÐºÐ¸Ð¼Ð¸": 6451,
      "ÑĥÐ½Ð´": 6452,
      "ĠÐ¡Ð°Ð´Ð¶Ð¸": 6453,
      "ĠÐ²Ð¾ÑģÐ¿ÑĢÐ¸Ð½Ð¸Ð¼": 6454,
      "ĠÐĿÐµÑģÐ¼Ð¾ÑĤÑĢÑı": 6455,
      "ÑıÑģÐ°": 6456,
      "ĠÑĤÑĥÐ³": 6457,
      "ĠÐ¾ÑģÑĤÐ°Ð½Ð¾Ð²Ð¸Ð»Ð°ÑģÑĮ": 6458,
      "ĠÐ¾Ð¿ÑĥÑģÑĤÐ¸Ð»": 6459,
      "ĠÑĢÑĭÐ¶": 6460,
      "ĠÐ¾ÑĤÐ»Ð¸ÑĩÐ¸Ðµ": 6461,
      "ĠÐ¾ÑĩÐµÐ²Ð¸Ð´Ð½Ð¾": 6462,
      "ĠÐ¿ÐµÑĢÐµÑħ": 6463,
      "ĠÐ´ÑĢÐ°Ðº": 6464,
      "Ð¾ÑģÐ»ÐµÐ´": 6465,
      "ĠÐ»ÐµÐ¶Ð¸ÑĤ": 6466,
      "ĠÐºÐ°Ð¼ÐµÑĢÑĥ": 6467,
      "ĠÑĢÐµÐ±ÑıÑĤ": 6468,
      "ĠÐµÐ±Ð°ÑĤÑĮ": 6469,
      "ĠÑĢÐ°ÑģÑĪÐ¸ÑĢ": 6470,
      "ÑĢÐ°Ð»ÑģÑı": 6471,
      "Ð¾Ð»ÐµÐ·": 6472,
      "Ð¾Ð¶Ð´Ð¸": 6473,
      "ĠÐĿÐµÐ¿": 6474,
      "ĠÐĶÐ¾ÑģÑĤ": 6475,
      "ÐµÑĩÐºÐ¸": 6476,
      "ĠÐ£ÑĤÑĢ": 6477,
      "ĠÐ¾Ð³ÑĢÐ¾Ð¼Ð½ÑĭÐµ": 6478,
      "ĠÑĢÐ°ÑģÑĤÑı": 6479,
      "ĠÑĤÐ¾Ð½Ð½": 6480,
      "ĠR": 6481,
      "ĠÐľÐ¾Ð»Ð¾Ð´": 6482,
      "ĠÐĶÐ¾Ð½": 6483,
      "ĠÐ¾Ð´Ð½Ð¸Ñħ": 6484,
      "ĠÐ²Ð¾Ð¾Ð±ÑĢÐ°Ð¶": 6485,
      "ĠÐ±ÐµÐ·Ð´": 6486,
      "ĠÑģÑĤÐ°ÑĢÑĪÐµ": 6487,
      "ĠÑģÐ¾Ð¿ÑĢÐ¾Ð²": 6488,
      "ĠÑĥÑģÐ»Ð¾Ð²Ð¸ÑıÑħ": 6489,
      "Ð½ÐµÐ½Ð¸Ð¹": 6490,
      "ĠÐ³ÑĢÐ°ÑĦ": 6491,
      "ÐµÐ²ÑĪÐ¸Ð¹": 6492,
      "ĠÐļÐ°ÑĤÑĮ": 6493,
      "ĠÐĵÐ¾ÑĢ": 6494,
      "ĠÐºÐ°ÑĢÐ¼": 6495,
      "ĠÑĨÐµÐ»Ð¾Ð¼": 6496,
      "ĠÐ¢Ð°ÑĤÑĮÑıÐ½Ð°": 6497,
      "is": 6498,
      "ĠÑģÐ½Ðµ": 6499,
      "Ð´Ñı": 6500,
      "ĠÐ´Ð°Ð»Ð¸": 6501,
      "Ð°ÑİÑīÐµ": 6502,
      "ĠÐºÐ¾Ð»Ð»ÐµÐ³": 6503,
      "ĠÐ¿ÑĢÐ¾Ð²ÐµÐ»Ð°": 6504,
      "ĠÑĤÑıÐ¶ÑĳÐ»": 6505,
      "ĠÐ¾ÑĤÐ²ÐµÑĢÑģÑĤÐ¸": 6506,
      "ĠÑĢÐµÐ²Ð¾Ð»Ñİ": 6507,
      "ĠÑĤÐµÐ»ÐµÐ²Ð¸Ð·Ð¾ÑĢ": 6508,
      "ÑĥÐ²ÐµÑĢ": 6509,
      "ĠÑģÐ°Ð»": 6510,
      "Ð¾Ð´ÑĥÑĪ": 6511,
      "ĠÐĲÐ¼": 6512,
      "Ð¼Ð¸Ð½Ð°": 6513,
      "ĠÑģÐ¾Ð·Ð´Ð°Ð²": 6514,
      "ÑĳÐ½Ð½ÑĭÐ¹": 6515,
      "ĠÐ³Ðµ": 6516,
      "ĠÐ½Ð¾Ð²Ð°Ñı": 6517,
      "ĠÑģÑĥÑĤÐ¸": 6518,
      "ĠÐ¸ÑģÑĤÐ¸Ð½": 6519,
      "Ġ197": 6520,
      "ĠÐ½Ð°ÑģÐ»Ð°Ð¶Ð´ÐµÐ½Ð¸Ðµ": 6521,
      "ĠÐ½ÑĳÐ¼": 6522,
      "ĠÐĳÐ¾Ð±": 6523,
      "Ð¸ÑĤÐµÐ»ÑĮÐ½Ð¾Ð³Ð¾": 6524,
      "ĠÑĥÐ¼ÐµÐ½ÑĮÑĪ": 6525,
      "ĠÐ°Ð½Ð³Ð»Ð¸Ð¹": 6526,
      "ĠÐºÐ¾Ð¶Ñĥ": 6527,
      "ĠÑĢÐ°Ð½ÐµÐµ": 6528,
      "ĠÐ²Ð¾Ð·Ð´ÐµÐ¹ÑģÑĤÐ²": 6529,
      "ÑĥÐ¼Ð°": 6530,
      "Ð¾Ð²Ð¾ÑĢÐ¸Ð»Ð°": 6531,
      "ĠÐ½ÐµÐ²Ð¸Ð´": 6532,
      "ÑĩÐ¸ÐºÐ¾Ð²": 6533,
      "ĠÐ´Ð²Ð°Ð´ÑĨÐ°ÑĤÐ¸": 6534,
      "ĠÐ¿Ð»Ð°Ðº": 6535,
      "ÐµÐ»ÑıÐ¼Ð¸": 6536,
      "ĠÐ³Ð¾ÑĤÐ¾Ð²Ñĭ": 6537,
      "ĠÐ¿ÑĢÐ¸Ð¶Ð°Ð»Ð°ÑģÑĮ": 6538,
      "ĠÐºÐ²Ð°ÑĢÑĤÐ¸ÑĢÐµ": 6539,
      "ĠÑįÐ»ÐµÐ¼ÐµÐ½ÑĤ": 6540,
      "ĠÑģÐ²Ð¸Ð´ÐµÑĤ": 6541,
      "Ð¸Ð¼Ñĥ": 6542,
      "ĠÐ¾Ð´ÐµÑĤ": 6543,
      "ĠÑĢÑĥÑħ": 6544,
      "ĠÐ²Ð¾Ð´Ð¸ÑĤÑĮ": 6545,
      "ĠÐŀÐ±ÑĭÑĩ": 6546,
      "Ð°ÑİÑīÐ¸Ð¹ÑģÑı": 6547,
      "ĠÐ²ÑĢÐ°Ñī": 6548,
      "ĠÐºÐ»ÑĥÐ±": 6549,
      "ĠÐ¿Ð¾Ð¼ÐµÑĪ": 6550,
      "Ð°ÑİÑīÐ¸Ð¼Ð¸": 6551,
      "ĠÑģÐµÑĢÑĮÐµÐ·Ð½Ð¾": 6552,
      "Ð½Ð¾Ð²ÐµÑģ": 6553,
      "ĠÐ·Ð°Ð½Ð¸Ð¼Ð°Ð»Ð¸ÑģÑĮ": 6554,
      "ĠÑģÐµÐºÑĥÐ½Ð´Ñĭ": 6555,
      "ĠÐ´Ð¸Ð²Ð°Ð½Ð°": 6556,
      "ĠÐ²Ð¾ÑģÑħÐ¸Ñī": 6557,
      "ĠÑģÐ¾Ð±ÑĭÑĤÐ¸Ð¹": 6558,
      "Ð²Ð¸Ð·": 6559,
      "ĠÐ¸Ð»Ð»Ñİ": 6560,
      "Ð¸Ð¼Ð¾Ðµ": 6561,
      "ÑĢÐ¸ÑĨ": 6562,
      "Ð¸ÑĢÐ°ÑıÑģÑĮ": 6563,
      "ĠÐ¸Ð¼ÐµÐ»Ð°": 6564,
      "ÑĭÑģÐ»Ð°": 6565,
      "ĠÐĶÐ¾Ðº": 6566,
      "ĠÑĤÑĢÐ¾Ðµ": 6567,
      "ĠÑģÐ¾Ð²Ð¼ÐµÑģÑĤ": 6568,
      "ĠÑĢÐ°Ð·Ð´ÑĢÐ°Ð¶": 6569,
      "ĠÐ²Ð¾Ð¹ÑĤÐ¸": 6570,
      "ĠÐ¿ÑĢÐ¾ÑĩÐ¸ÑĤ": 6571,
      "ĠÐºÐ¾ÑĢÐ¸Ð´Ð¾ÑĢ": 6572,
      "ĠÐ²Ð·Ð°Ð¸Ð¼Ð¾Ð´ÐµÐ¹ÑģÑĤÐ²": 6573,
      "ĠÐ¾Ð¿ÑĢÐ°Ð²Ð´": 6574,
      "Ð²Ð¾Ð¹": 6575,
      "ĠÐ½Ð°ÑīÑĥÐ¿": 6576,
      "Ð¹ÑģÑı": 6577,
      "ÑĥÐ¹ÑĤÐµ": 6578,
      "ĠÐ¾ÑģÐ²ÐµÑī": 6579,
      "ĠÑģÑĤÑĢÐ°ÑģÑĤÐ½Ð¾": 6580,
      "Ð¸ÑĤÐ¾ÑĢ": 6581,
      "ÑģÑĤÑģÑı": 6582,
      "ĠÐŁÐ¾Ð¶Ð°Ð»ÑĥÐ¹": 6583,
      "ÐµÐ»ÑĮÑı": 6584,
      "ĠÑĦÐ¸ÑĢ": 6585,
      "ĠÐ½Ð°ÑĩÐ°Ð»Ð¾ÑģÑĮ": 6586,
      "ĠÐĶÐ¶ÑĥÐ»Ð¸": 6587,
      "ĠÐ¿Ð¾Ð±Ð»Ð¸Ð¶Ðµ": 6588,
      "ĠÐ»ÑİÐ±Ð¾Ð³Ð¾": 6589,
      "ĠÐ½Ð°Ð±Ð»ÑİÐ´Ð°ÑĤÑĮ": 6590,
      "ÑĢÐ¾ÑģÐ¸Ð»Ð°": 6591,
      "ĠÑģÐ¾ÐµÐ´Ð¸Ð½": 6592,
      "Ð¸ÑĨÐµÐ¹": 6593,
      "ĠÑĥÐ»Ð¸ÑĨÑĥ": 6594,
      "12": 6595,
      "ĠÐ¿Ð¸": 6596,
      "ÐµÑĢÐ²Ð°ÑĤ": 6597,
      "ĠÑģÐ°Ð¼ÑĥÑİ": 6598,
      "ĠÐ¿Ð¾Ð¿ÐºÐ¾Ð¹": 6599,
      "ĠÑģÐºÐ°Ð·Ð°Ð»Ð¸": 6600,
      "ĠÐ²ÐµÑģÐµÐ»Ð¾": 6601,
      "ĠÑģÐ½Ð¸Ð¼Ð°ÑĤÑĮ": 6602,
      "ÑĤÑĭÐ¹": 6603,
      "ĠÐ¾Ð±ÑīÐµ": 6604,
      "ĠÐ¿ÑĢÐ¾ÑĤÑıÐ½ÑĥÐ»Ð°": 6605,
      "ĠÐ¿ÑĢÐ¾Ð²ÐµÐ´": 6606,
      "ĠÐ¿ÑĢÐ¸Ð¼ÐµÑĢ": 6607,
      "ĠÐ¸Ð½ÑģÑĤÐ¸Ð½Ðº": 6608,
      "ĠÑģÐµÐ¼ÑĮÐ¸": 6609,
      "ĠÐ²Ð°ÑĢÐ¸Ð°Ð½ÑĤ": 6610,
      "ĠÐ¾Ð±Ð¾Ð·": 6611,
      "ĠÑģÐºÑĢÐ¾Ð¼": 6612,
      "Ð½Ð°ÑĩÐ°Ð»Ðµ": 6613,
      "ÑĥÐ³Ð¾Ð»ÑĮ": 6614,
      "ĠÐ¼Ð¸ÑģÑģÐ¸Ñģ": 6615,
      "ĠÐ²Ð¾ÑģÑħÐ¸ÑĤ": 6616,
      "ĠÐ°ÑĢÐ¾Ð¼Ð°ÑĤ": 6617,
      "ĠÑĩÑĥÐ´Ð¾Ð²": 6618,
      "ĠÐ²ÐºÐ»ÑİÑĩÐ¸Ð»": 6619,
      "ĠÑĥÑģÐ»Ð¾Ð²Ð¸Ñı": 6620,
      "ĠÐºÐ°Ð±Ð¸Ð½ÐµÑĤ": 6621,
      "Ð¸ÐºÐ°Ñħ": 6622,
      "Ð»Ð¸Ð»": 6623,
      "ĠÐŁÐ¾Ð³": 6624,
      "ĠÐ²ÑĭÐ¸Ð³": 6625,
      "ĠÑĢÐµÐ±ÑĳÐ½": 6626,
      "ĠÐ²Ð¾Ð·ÑĢÐ°ÑģÑĤÐµ": 6627,
      "ĠÐ¢Ð°Ð½Ñİ": 6628,
      "ÑĢÐµÑī": 6629,
      "ĠÐĶÐ°ÑĪÐ°": 6630,
      "Ð¸ÑħÐ¸Ðº": 6631,
      "Ð¸ÑĤÐµÐ»ÑĮÐ½Ð¾ÑģÑĤÑĮ": 6632,
      "ĠÑģÑĤÑĭÐ´Ð½Ð¾": 6633,
      "ĠÐĴÐµÐ»": 6634,
      "ĠÐ¾Ð±ÑīÐµÑģÑĤÐ²Ð°": 6635,
      "Ð¢Ð°Ðº": 6636,
      "ĠÐĿÐ°Ð¿Ð¾Ð»ÐµÐ¾Ð½Ð°": 6637,
      "Ð½Ð½Ð¾": 6638,
      "ĠÐ¼ÐµÐ½ÑĤ": 6639,
      "ĠÐ´Ð°Ð»Ð°": 6640,
      "ĠÐ¡ÐµÐ¼": 6641,
      "ĠÐĶÐµÐ»Ð¾": 6642,
      "ĠÑģÐ¿ÐµÑĨ": 6643,
      "ĠÑĤÑĢÐ°Ð´Ð¸": 6644,
      "ĠÐºÑĢÐµÑģÐ»Ðµ": 6645,
      "ÑĩÐºÑĥ": 6646,
      "Ð²Ð¾Ð»ÑĮÐ½Ð¾": 6647,
      "Ð°Ð½ÑĤÑĭ": 6648,
      "ÐµÐ´Ð»Ð¸Ð²": 6649,
      "Ð´Ð¸Ð¸": 6650,
      "ĠÐ¾ÑģÐ¾Ð·": 6651,
      "ĠÑħÐ²Ð°ÑĤÐ¸Ð»Ð¾": 6652,
      "ĠÑįÑĦÑĦÐµÐºÑĤ": 6653,
      "ĠÐ°Ð½Ð°Ð»Ð¾Ð³": 6654,
      "Ð½Ð¾ÑģÑĤÐµÐ¹": 6655,
      "Ð³ÐµÐ½": 6656,
      "Ð¸Ð²Ð°ÐµÐ¼": 6657,
      "ĠÐ´ÑĥÐ¼Ð°Ñı": 6658,
      "ĠÐ²ÑĭÑĤÐµÐº": 6659,
      "15": 6660,
      "ĠÑīÑĳ": 6661,
      "Ð¸Ð¼ÑĭÐ¹": 6662,
      "ĠÐĵÑİÐ½": 6663,
      "ĠÐ²Ð°ÑĪÐµÐ¹": 6664,
      "ĠÐĵÑİÐ½ÑĤÐµÑĢ": 6665,
      "ĠÐ¸Ð·Ð»ÑĥÑĩ": 6666,
      "Ð¼Ð¸Ð³": 6667,
      "ĠÐ¿Ð¾ÑĤÐµÐ½ÑĨÐ¸": 6668,
      "ĠÑģÐ°Ð¼Ð¾ÑģÑĤÐ¾ÑıÑĤÐµÐ»ÑĮ": 6669,
      "ĠÑĪÐ¸ÑĢÐµ": 6670,
      "ĠÐ¾Ð¿ÑĥÑģÑĤÐ¸Ð»ÑģÑı": 6671,
      "ĠÐ¡Ð¾Ð»Ð½ÐµÑĩÐ½Ð¾Ð¹": 6672,
      "ĠÑģÑģ": 6673,
      "ÑĩÐµÑĢ": 6674,
      "ÐµÑĤÐ¸ÑĤ": 6675,
      "Ð¶ÐµÐ½Ð¸Ðµ": 6676,
      "ĠÐ¿Ð¾Ð¾Ð±": 6677,
      "ÑĢÑĥÑı": 6678,
      "Ð°Ð´Ðµ": 6679,
      "ĠÐĳÐ¾Ð»ÐµÐµ": 6680,
      "ĠÑħÐ¾ÑĤÑıÑĤ": 6681,
      "ĠÐ¶ÐµÐ½Ð¾Ð¹": 6682,
      "ĠÐ±ÐµÑĢÐµÐ³Ñĥ": 6683,
      "ĠÐłÐ¾ÑģÑĤÐ¸Ðº": 6684,
      "ĠÐ¿Ð¾Ð»ÑĥÐ¿": 6685,
      "ĠÑģÐ¾Ð¾Ð±ÑĢÐ°Ð·": 6686,
      "ĠÐ¿ÑĢÐ¾ÑĨÐµÐ½ÑĤÐ¾Ð²": 6687,
      "ĠÐĶÐ¸Ð¼ÐºÐ°": 6688,
      "ĠÐ¿ÑĢÐµÑģÐ»ÐµÐ´": 6689,
      "ĠÐ¿Ð¾Ð²Ð°Ð»": 6690,
      "ĠÑģÐ¸Ð»ÑĮÐ½ÐµÐ¹": 6691,
      "ĠÐ¡ÑĤÐ¸Ð½": 6692,
      "ĠÐ¿Ð¸ÑģÑİ": 6693,
      "ĠÐ¼ÐµÑħÐ°Ð½Ð¸Ð·": 6694,
      "ĠÐ²ÑĭÐµÐ±": 6695,
      "ÐµÐ²Ð°Ñı": 6696,
      "Ð»ÑıÐµÐ¼": 6697,
      "ĠÑħÑĢ": 6698,
      "ĠÑģÐ¼ÐµÑħ": 6699,
      "ĠÑĤÑĢÐµÐ¿": 6700,
      "ĠÐ·Ð°Ð¿ÑĢÐµÑĤ": 6701,
      "ĠÐ¢ÐµÑĤÑı": 6702,
      "Ð½Ð°Ð»Ð°": 6703,
      "ĠÐĴÑģÑĤÐ°Ð²": 6704,
      "Ð°ÑģÑĤÐµÑĢ": 6705,
      "ĠÐ¿ÑĥÐ»ÑĮ": 6706,
      "Ð¿Ð¾Ð½": 6707,
      "Ð°Ð´Ñĥ": 6708,
      "ĠÑĪÐµÐ¿ÑĤ": 6709,
      "ĠÑģÑĥÑĩÐºÐ°": 6710,
      "ĠÐ²Ð¸Ð±ÑĢÐ°": 6711,
      "ĠÐ¼Ð°Ðº": 6712,
      "ĠÐ£Ð²Ð¸Ð´": 6713,
      "ĠÐ¿ÑĢÐ°Ð²Ð¾Ð¹": 6714,
      "Ð»ÑĭÐ¼Ð¸": 6715,
      "ĠÐŁÐ¾ÑģÐ¼Ð¾ÑĤÑĢ": 6716,
      "ĠÑģÐ¿Ð¾ÑģÐ¾Ð±ÐµÐ½": 6717,
      "ĠÑģÑĭÐ½Ð¾Ðº": 6718,
      "ĠÐ½Ð°ÐºÐ»Ð¾Ð½Ð¸Ð»Ð°ÑģÑĮ": 6719,
      "ÑĨÐ°ÑĢ": 6720,
      "ĠÑĢÐ°Ð·Ð¾Ð¼": 6721,
      "ĠÐ¿Ð¾Ð¿Ð°ÑģÑĤÑĮ": 6722,
      "ĠÐ¼Ð°Ð¼Ð¸Ð½Ñĥ": 6723,
      "ĠÐºÐ¾Ð»ÐµÐ±": 6724,
      "ĠÐ½Ð°ÑĪÐ»Ð¸": 6725,
      "ĠÑĤÐµÐ¼Ð¿ÐµÑĢÐ°ÑĤÑĥ": 6726,
      "Ð»ÑĭÐ¼": 6727,
      "Ð¾Ð½Ð¾": 6728,
      "Ð°ÑģÐºÐ¸Ð²": 6729,
      "ĠÐ¿Ð¾Ð»ÑĥÑĩÐ°ÐµÑĤÑģÑı": 6730,
      "ĠÐ¾ÑģÑĤÐ°Ð²Ð¸Ð²": 6731,
      "ĠÑĩÐ°ÑģÑĭ": 6732,
      "ĠÑħÐ²Ð°ÑĤÐ°ÐµÑĤ": 6733,
      "ĠÑıÑĢÐ¾ÑģÑĤ": 6734,
      "ĠÑħÐ²Ð¾ÑģÑĤ": 6735,
      "ĠÐ¿ÐµÑĢÑģÐ¿ÐµÐºÑĤÐ¸Ð²": 6736,
      "ĠÑįÑĤÐ°Ð¶": 6737,
      "ĠÐ¿ÑĢÐµÐ´Ñĭ": 6738,
      "Ð´Ð¸ÑĢÐ¾Ð²": 6739,
      "ÑĩÐ¸ÑĤÑģÑı": 6740,
      "ĠÐ¾ÑĤÐ²Ð»ÐµÐº": 6741,
      "ĠÐ¿Ð¾Ð¿ÑĭÑĤÐºÐ¸": 6742,
      "ĠÑģÑĩÐ°ÑģÑĤÑĮÑİ": 6743,
      "ĠÐ¿Ð¾ÑģÐ»ÑĥÑĪÐ½Ð¾": 6744,
      "ĠÐĴÐ¾Ð»Ð¾Ð´Ñı": 6745,
      "ĠÑĢÐ°ÑģÑĭ": 6746,
      "ĠÐ½ÐµÐ´Ð¾ÑĥÐ¼": 6747,
      "ÑıÐ³Ð¸Ð²Ð°ÑĤÑĮ": 6748,
      "Ð¸ÑĢÑĥÑı": 6749,
      "ÑģÐ¾Ð»ÑıÑĢÐ¸": 6750,
      "ĠÐ´Ð¾ÑĤÑĢ": 6751,
      "ĠÐ±Ð°ÑĤ": 6752,
      "ĠÑĪÑĤÐ°ÑĤ": 6753,
      "ĠÐłÐ¸Ð¼": 6754,
      "Ð°ÑĤÐµÐ»ÑĮÑģÑĤÐ²Ð°": 6755,
      "ĠÐ·Ð°ÑĤÑĭÐ»": 6756,
      "ĠÐ½ÐµÐ²Ð¾Ð»ÑĮÐ½Ð¾": 6757,
      "ĠÐľÐ°ÑĢÑĤÐ¸Ð½": 6758,
      "ĠÐ¿ÑĢÐ¸ÑħÐ¾Ð´Ð¸ÑĤÑģÑı": 6759,
      "ĠÑģÑĤÑĢÐ°ÑģÑĤÐ¸": 6760,
      "ĠÐ¡Ð¿ÑĥÑģÑĤÑı": 6761,
      "ĠÐ°Ð´ÑĢÐµÑģ": 6762,
      "ÐµÑĢÐ±": 6763,
      "ĠÐ·Ð²ÐµÑĢ": 6764,
      "ĠÐĿÑĥÐ¶": 6765,
      "ĠÐºÑĢÐ°ÑĤ": 6766,
      "ĠÐ´ÐµÐ²ÑģÑĤÐ²ÐµÐ½": 6767,
      "ĠÐ¿Ð¾ÑģÐ»ÐµÐ´Ð½ÐµÐ¹": 6768,
      "ĠÐ¿Ð¾Ð½Ð¸Ð¼Ð°ÑĤÑĮ": 6769,
      "ĠÐ²Ð¾Ð»Ð¾ÑģÐ°Ð¼Ð¸": 6770,
      "ĠÐºÐ°Ð¿ÐµÐ»ÑĮ": 6771,
      "ĠÐ¿ÐµÑĢÐµÐ²Ð¾Ð´": 6772,
      "ĠÑģÐ¸ÑĤÑĥÐ°ÑĨÐ¸Ñİ": 6773,
      "Ð¾Ð½ÑĤ": 6774,
      "ĠÐ¿Ð¾Ð¸Ð³": 6775,
      "Ð¼Ð¸ÑĢ": 6776,
      "ĠÐ»Ð°ÑģÐºÐ°Ð»": 6777,
      "ĠÑģÐ°Ð´Ð¸ÑģÑĤ": 6778,
      "Ð½Ð¾Ð³Ð¸Ðµ": 6779,
      "Ð½ÑĳÐ¼": 6780,
      "ĠÐ²ÑĢÐµÐ´": 6781,
      "ĠÐĴÑģÑı": 6782,
      "ÑĢÐ¾Ð²Ð¾Ð´": 6783,
      "ĠÐ¼ÑĥÐ¶ÑģÐºÐ¾Ð¹": 6784,
      "ĠÐŀÐ´Ð½Ð°": 6785,
      "ĠÑĥÐ»ÑĭÐ±Ð°ÑıÑģÑĮ": 6786,
      "ĠÐ¿Ð¾ÑĤÐµÑĢÑıÐ»": 6787,
      "ĠÐ³Ð°Ð»Ð°ÐºÑĤÐ¸": 6788,
      "Ð¸Ð²Ð°ÑİÑĤÑģÑı": 6789,
      "ĠÑģÐ²Ð°Ð»": 6790,
      "ÑĥÑĩÐ¸": 6791,
      "ĠÑģÐ¾Ð¾Ð±ÑĢÐ°Ð¶": 6792,
      "ÑģÐ¼Ð°ÑĤÑĢ": 6793,
      "ĠÑģÐµÐ³Ð¾Ð´Ð½ÑıÑĪ": 6794,
      "ÑĢÑĥÑħÐ°": 6795,
      "ĠÐľÐ¸Ð»": 6796,
      "Ð¼ÑĥÑī": 6797,
      "ĠÐ¿ÑĢÐ¾ÑĤÑıÐ¶": 6798,
      "ĠÐ²Ð¾ÑĪÐ»Ð¸": 6799,
      "ĠÐ´ÐµÑĢÐµÐ²ÑıÐ½": 6800,
      "ĠÐ³Ð¾ÑĢÑıÑĩÐµÐ¹": 6801,
      "ĠÑĦÐ¸Ð»Ð¾ÑģÐ¾ÑĦ": 6802,
      "Ð½Ð¸Ð»Ð¾ÑģÑĮ": 6803,
      "Ð°Ð»ÐµÐºÐ¾": 6804,
      "ĠÑģÑĤÑĥÐ»": 6805,
      "ĠÐ²ÑĭÑĩÐ¸Ñģ": 6806,
      "ĠÐ¼ÐµÐ´Ð¸ÑĨÐ¸Ð½": 6807,
      "Ð¸ÑĩÐµÑģÐºÐ¾Ð¼": 6808,
      "ĠÐ±ÐµÐ´ÐµÑĢ": 6809,
      "ĠÐ²ÑĭÐ´ÐµÑĢÐ¶Ð°Ð»": 6810,
      "ĠÐ²ÑĭÐ³Ð»ÑıÐ´ÐµÐ»Ð°": 6811,
      "ĠÑĥÐ´Ð°ÑģÑĤÑģÑı": 6812,
      "ĠÐ²ÐµÑīÐµÐ¹": 6813,
      "ĠÐ¿ÑĢÐµÐ¿Ð¾Ð´": 6814,
      "Ð¸ÑĤÐµÑĤÐ°": 6815,
      "ĠÐ¿ÐµÑĢÐµÑĢ": 6816,
      "ĠÑĢÐ°ÑģÑĩ": 6817,
      "ĠÑĤÑĢÑĥÐ´Ð°": 6818,
      "ÑĥÑīÐ¸Ñħ": 6819,
      "ÐµÑĢÑĤÐ²Ñĭ": 6820,
      "ĠÐ´Ð»Ð¸Ð½Ñĥ": 6821,
      "ĠÐŀÑģÐ¾Ð±ÐµÐ½Ð½Ð¾": 6822,
      "ĠÐ·Ð°ÐºÐ°Ð½ÑĩÐ¸Ð²": 6823,
      "ÑıÑİÑĤ": 6824,
      "ĠÑĤÐ°Ð»": 6825,
      "ĠÐ±Ð»ÑıÐ´": 6826,
      "ĠÐļÑģÑİ": 6827,
      "ĠÐ±Ð¾Ñİ": 6828,
      "Ð²Ð¾ÑĤ": 6829,
      "ÐµÑĩÐºÐ¾": 6830,
      "ĠÐ±ÑĥÐ´ÐµÑĤÐµ": 6831,
      "Ð¾Ð¶Ð´ÐµÐ½Ð¸Ðµ": 6832,
      "ĠÐ¾Ð³ÑĢÐ¾Ð¼Ð½Ð¾Ðµ": 6833,
      "ĠÑĥÑĪÐ»Ð¸": 6834,
      "ĠÑģÐ¿Ð°ÑģÐ¸Ð±Ð¾": 6835,
      "ĠÑĦÐ¾ÑĢÐ¼Ðµ": 6836,
      "ic": 6837,
      "ĠÐ¾ÑĢÑĥÐ´": 6838,
      "ĠÐ¿ÑĢÐ°ÐºÑĤÐ¸": 6839,
      "ĠÑĥÐ»ÑĥÑĩ": 6840,
      "Ð¾Ð¶Ð´Ð°": 6841,
      "ĠÐ¼Ð°ÑĪÐ¸Ð½Ðµ": 6842,
      "ĠÐ¿Ð¾Ð´ÑĤÐ²ÐµÑĢÐ´": 6843,
      "ĠÐ¥Ð¾ÑĩÐµÑĪÑĮ": 6844,
      "Ð¾Ð»ÑĥÑĩ": 6845,
      "ĠÑĥÐ¿Ð¾ÑĢ": 6846,
      "ĠÐ»ÐµÐ¶Ð°Ñī": 6847,
      "Ð½Ð¸ÑĩÐµÑģ": 6848,
      "ĠÑĢÐ°Ð·Ð¼ÐµÑĢÐ°": 6849,
      "ĠÐ¿Ð°ÑĢÑĤÐ¸Ð¸": 6850,
      "ĠÐ»Ð°ÑģÐºÐ¾Ð²Ð¾": 6851,
      "ĠÐ¿Ð¸ÑģÑĤ": 6852,
      "ĠÐ»Ð¾Ð¿": 6853,
      "ĠÐ»Ð¾ÑĪ": 6854,
      "ĠÑģÑĤÐ°": 6855,
      "ĠÐ·Ð°Ð¼Ð¾Ð»": 6856,
      "ÐĺÐĺ": 6857,
      "ĠÐ²Ð¾Ð·Ð´ÑĥÑħÐ°": 6858,
      "ĠÑģÐ°Ð½ÑĤÐ¸Ð¼ÐµÑĤÑĢÐ¾Ð²": 6859,
      "ĠÑĤÑİÑĢÑĮ": 6860,
      "ÐµÑĤÐ¾": 6861,
      "ĠÑģÑĥÐ´Ñı": 6862,
      "ĠÐ½ÐµÐ·Ð°Ð²Ð¸Ñģ": 6863,
      "ĠÐ±Ð°ÑĪ": 6864,
      "ÐµÐ½Ð¸ÑıÐ¼": 6865,
      "ĠÐ²Ð¸Ð´Ð¸ÑĪÑĮ": 6866,
      "ĠÑģÐ¾Ð¾Ð±ÑīÐ¸Ð»": 6867,
      "Ð¬": 6868,
      "ĠÑĢÐ°Ð·ÑĢÑıÐ´": 6869,
      "ĠÑģÑĤÐ°ÑĢÐ°Ñı": 6870,
      "ÑĢÐµÐ°Ð³": 6871,
      "ĠÑĤÐµÑĢÑĢÐ¸ÑĤÐ¾ÑĢÐ¸Ð¸": 6872,
      "Ð»ÐµÑģ": 6873,
      "ÑıÑĤÐ¾": 6874,
      "ĠÐ²ÑĢÑıÐ´": 6875,
      "ĠÑĤÑĮ": 6876,
      "Ð¾Ð²ÑĭÐ¼Ð¸": 6877,
      "ĠÑĥÐ½Ð¸Ðº": 6878,
      "Ð¾ÑĤÐ¾Ð¹": 6879,
      "ĠÑĢÐ°Ð·Ð³Ð»Ñı": 6880,
      "ĠÐĲÐ´": 6881,
      "ĠÐ»Ð¸Ð½Ð¸Ð¸": 6882,
      "ÐµÐ»Ð¸Ð½Ð°": 6883,
      "ĠÐ·Ð½Ð°ÑİÑĤ": 6884,
      "ĠÐĿÐµÐ¾Ð¶Ð¸Ð´": 6885,
      "ĠÑģÑĤÐ¾ÑıÐ²": 6886,
      "ĠÐ´ÐµÐ¹ÑģÑĤÐ²Ð¾Ð²Ð°ÑĤÑĮ": 6887,
      "ĠÐ¾ÑģÐ½Ð¾Ð²Ðµ": 6888,
      "ĠÑĦÐ¸Ð·Ð¸ÐºÐ¸": 6889,
      "ĠÐŁÐ¾ÑģÑĤÐµÐ¿ÐµÐ½Ð½Ð¾": 6890,
      "ĠÑĢÐµÐ¿ÑĤ": 6891,
      "ĠÐļÑĢÐ°Ñģ": 6892,
      "ÑĢÑĭÐ¼": 6893,
      "ĠÐ·Ð°Ð¿Ð¾Ð»Ð½": 6894,
      "Ð°Ð»ÑĮÐ½Ð¾ÑģÑĤÐ¸": 6895,
      "ĠÐ¿ÑĢÐµÐ´ÑģÐºÐ°Ð·": 6896,
      "ĠÐ³Ð¾Ð»Ð¾Ð²ÐºÐ¾Ð¹": 6897,
      "ÑĥÑģÑĤÐ¸Ð²": 6898,
      "ĠÐ»ÑİÐ±Ð¾Ð¼": 6899,
      "ĠÑĥÑĤÐ²ÐµÑĢÐ¶Ð´": 6900,
      "ĠÐ´Ð»Ð¸Ð½Ð½ÑĭÐµ": 6901,
      "ĠÐ¡Ð¾Ð²ÐµÑĤ": 6902,
      "ĠÐ¿Ð¾Ð¸ÑģÐº": 6903,
      "ĠÐĴÑĢÐµÐ¼Ñı": 6904,
      "ĠÑģÐ¿Ð¸Ð½ÐºÑĥ": 6905,
      "ĠÐĹÐ°Ð´": 6906,
      "ĠÐ³ÑĢÑĥÐ±": 6907,
      "ĠÐºÐ¾Ð¼Ð¿Ð°Ð½Ð¸Ñı": 6908,
      "ĠÑģÐ¾ÑģÑĤÐ¾": 6909,
      "ĠÐ¿Ð¾Ð¹Ð´Ñĥ": 6910,
      "ĠÐ²Ð°ÑĪÐµÐ³Ð¾": 6911,
      "ĠÐ¿ÐµÑĢÐµÐ¼ÐµÑī": 6912,
      "ĠÑĥÑģÐ¼ÐµÑħÐ½ÑĥÐ»ÑģÑı": 6913,
      "ÑĪÐµÐº": 6914,
      "ĠÐ²ÑĭÑĢÐ°Ð·": 6915,
      "ĠÐŃÐ´": 6916,
      "ĠÐ¿ÑĢÐ¾Ð´ÐµÐ»": 6917,
      "ĠÑģÐ¾Ð·Ð´Ð°Ð½Ð¸Ðµ": 6918,
      "ĠÑĢÐµÐ±ÐµÐ½ÐºÐ°": 6919,
      "Ð¼ÐµÐ½ÑĤ": 6920,
      "ĠÐĿÐ°ÑĪ": 6921,
      "ĠÐ¡Ð¾Ñģ": 6922,
      "ÑĤÑĢÐ¾Ð½": 6923,
      "ĠÐ²Ð°Ð½Ð½Ñĥ": 6924,
      "ĠÐºÐ½Ð¸Ð³Ñĥ": 6925,
      "ĠÐ²Ð¾Ð·ÑĢÐ°ÑģÑĤÐ°": 6926,
      "ĠÐ¡Ð´ÐµÐ»": 6927,
      "Ð¸Ð±Ð»Ð¸": 6928,
      "ĠÐ²Ð¾Ð²ÑĢÐµÐ¼Ñı": 6929,
      "ĠÑģÐ¸Ñı": 6930,
      "ÐµÐ²ÑĪÐ¸ÑģÑĮ": 6931,
      "ĠÑģÐºÑĢÐ¸Ð¿": 6932,
      "ÑĢÐ°Ð²ÑĪÐ¸ÑģÑĮ": 6933,
      "ĠÐłÐµÑĪ": 6934,
      "ĠÐ²Ð¾Ð»Ð½Ñĭ": 6935,
      "ĠÑĤÐµÑħÐ½Ð¸ÐºÐ¸": 6936,
      "ĠÐ¾Ð¿ÑĭÑĤÐ°": 6937,
      "ĠÐ¿Ð¾Ð»Ð½ÑĥÑİ": 6938,
      "ĠÐ¾ÑģÑĤÐ°Ð»ÑĮÐ½ÑĭÑħ": 6939,
      "ĠÐ³Ð»ÑĥÐ±Ð¸Ð½Ñĥ": 6940,
      "ĠÐ¸ÑģÐºÑĢÐµÐ½": 6941,
      "ĠÐ±ÐµÑģÐ¿Ð¾ÐºÐ¾": 6942,
      "ĠÐ²ÑĤÐ¾ÑĢÑĥÑİ": 6943,
      "Ð¼ÐµÐ»": 6944,
      "Ð½ÑĥÑģÑĮ": 6945,
      "ĠÐŁÐµÐ½Ð½Ð¸": 6946,
      "ĠÐ¾Ð±ÑĢÐ°Ð±Ð¾ÑĤ": 6947,
      "ĠÐ³Ð¾Ð»Ð¾Ð²ÐºÐ¸": 6948,
      "ĠÑĥÑģÐ¿ÐµÐ»Ð¸": 6949,
      "ĠÑģÑĤÑĢÐ°Ð½Ðµ": 6950,
      "ĠÐ´Ð²ÐµÑĢÑĮÑİ": 6951,
      "ĠÐ½Ð¾ÑģÐ¾Ð¼": 6952,
      "ĠÑģÐ¾Ð±ÑĭÑĤÐ¸Ñı": 6953,
      "ÑĪÑĥ": 6954,
      "ĠÐ´ÐµÑĪ": 6955,
      "ĠÐļÐ¾Ñģ": 6956,
      "ĠÐ²Ð¾Ð´Ðµ": 6957,
      "ĠÑģÐ¶Ð°Ð»": 6958,
      "ĠÐ¸Ð¼ÐµÑİ": 6959,
      "ĠÐ·Ð°ÐºÐ¾Ð½ÑĩÐ¸Ð»": 6960,
      "ĠÐ¿ÑĢÐ¸Ð»Ð¾Ð¶": 6961,
      "ÑĢÐµÑģ": 6962,
      "ÑħÐ»Ð¸Ð¿": 6963,
      "ĠÐĿÐµÐ´": 6964,
      "ĠÐ¿Ð¾ÑģÐ°Ð´": 6965,
      "ĠÐ¿Ð¾Ð»Ð¾Ð¶ÐµÐ½Ð¸Ð¸": 6966,
      "ĠÑģÑĤÐµÐ½Ñĥ": 6967,
      "ĠÐ¶Ð¸Ð´ÐºÐ¾ÑģÑĤÑĮ": 6968,
      "as": 6969,
      "ĠÐºÐ°Ð¹ÑĦ": 6970,
      "ÐµÐ¼Ñĭ": 6971,
      "ĠÐŀÐ½Ð¾": 6972,
      "ĠÐ½Ð°Ð´ÐµÐ»": 6973,
      "ÑĮÑıÐº": 6974,
      "ĠÐ¿ÑĢÐ¸Ð´ÑĳÑĤÑģÑı": 6975,
      "ĠÐ²ÑĤÐ¾ÑĢÐ°Ñı": 6976,
      "ĠÐ±ÐµÐ»ÑĭÐµ": 6977,
      "ĠÐ¶ÐµÐ½ÑīÐ¸Ð½Ðµ": 6978,
      "ĠÐ²Ð·Ð´Ð¾ÑħÐ½ÑĥÐ»Ð°": 6979,
      "Ġe": 6980,
      "Ð¾Ñĥ": 6981,
      "ĠÐ½ÐµÐ¾Ð¿": 6982,
      "ÑĢÑĥÐ¿": 6983,
      "Ð°ÑģÐ°": 6984,
      "ĠÐ³Ð¾Ð»Ð¾Ð´": 6985,
      "ÑĥÑĪÐºÐµ": 6986,
      "Ð¸ÑīÐ°": 6987,
      "ĠÑģÑħÐ²Ð°ÑĤÐ¸Ð»Ð°": 6988,
      "ĠÐĴÐ¸ÑĤÐ°Ð»Ð¸": 6989,
      "ĠÐ½ÐµÑģÐ¿": 6990,
      "ĠÐ»ÑĮ": 6991,
      "Ð°Ð¶Ð´Ð°": 6992,
      "ĠÑĢÑĥÐ³": 6993,
      "ĠÐ·Ð½Ð°ÑĩÐ¸ÑĤÐµÐ»ÑĮÐ½Ð¾": 6994,
      "ĠÐ¿ÑĢÐ¾ÑĦÐµÑģÑģÐ¸Ð¾Ð½": 6995,
      "ĠÐ²ÐµÑĤÐµÑĢ": 6996,
      "18": 6997,
      "Ð»ÑİÑģÑĮ": 6998,
      "Ð°ÑĤÐµÐ»ÑĮÐ½ÑĭÐµ": 6999,
      "ĠÐ´Ð¾ÑĢÐ¾Ð³Ð¾Ð¹": 7000,
      "ĠÐ·Ð°ÑĪÐµÐ»": 7001,
      "ĠÐ¾Ð´Ð½Ð¾ÐºÐ»Ð°ÑģÑģ": 7002,
      "ĠÐ¾Ð³Ð»ÑıÐ´": 7003,
      "ÑİÐº": 7004,
      "Ð¸ÑĢÐ°ÑĤÑĮÑģÑı": 7005,
      "ĠÐ´ÐµÐ²Ð¾ÑĩÐµÐº": 7006,
      "ĠÐ½Ð°ÐºÑĢÑĭ": 7007,
      "ĠÐ¿Ð¾Ð»ÑĮÐ·Ñĥ": 7008,
      "ĠÐļÑĢÐ¸Ñģ": 7009,
      "ĠÐºÐ°Ð´": 7010,
      "ÑĤÐµÑĦ": 7011,
      "ĠÐ¿ÑĢÐ¾Ð³ÑĢÐ°Ð¼Ð¼Ñĥ": 7012,
      "ĠÐŁÐ¾ÑĩÑĤÐ¸": 7013,
      "ĠÐ¡ÑĤÐ°ÑĢÑĥÑħÐ°": 7014,
      "Ð±ÐµÑĢ": 7015,
      "ĠÐ¸ÑģÐ¿ÑĢÐ°Ð²": 7016,
      "ÐĶÐ¶": 7017,
      "ĠÑħÐ¾Ð´Ð¸Ð»": 7018,
      "ÑĪÐ¸Ð¼ÑģÑı": 7019,
      "ĠÐ¸Ð½ÑĤÐµÐ»Ð»ÐµÐºÑĤÐ°": 7020,
      "ĠÑĨÐµÐ»ÑĮÑİ": 7021,
      "ĠÐ½ÐµÐ¿Ð¾Ð½ÑıÑĤ": 7022,
      "ĠÐ²Ð¾Ð¶": 7023,
      "Ð³Ðµ": 7024,
      "ĠÐºÑĢÐµÑģÑĤ": 7025,
      "ĠÑĢÐµÑĪÐ¸ÑĤÑĮ": 7026,
      "ĠÐ·Ð½Ð°Ð½Ð¸Ð¹": 7027,
      "ĠÑģÐ¸Ð»ÑĮÐ½ÑĭÐ¹": 7028,
      "ĠÑĢÐ°ÑģÐ¿Ð¾ÑĢ": 7029,
      "ĠÑĥÐ´Ð°ÑĢÐ¸Ð»": 7030,
      "ĠÐ¿Ð¾Ð´Ð¾Ð±Ð½Ð¾Ðµ": 7031,
      "ĠÐ¿ÑĢÐ¸Ð»Ð¸Ñĩ": 7032,
      "ĠÑģÑĥÐ¿ÑĢÑĥÐ³": 7033,
      "ĠÐ¿ÑĢÐµÐ´ÑĥÐ¿ÑĢÐµÐ´": 7034,
      ".)": 7035,
      "ĠÐ²Ð°ÑĢ": 7036,
      "ĠÐ¡Ð¾Ð±": 7037,
      "ĠÐ¾Ð±ÑĢÐ°Ð´": 7038,
      "ĠÐ¿Ð¾Ð´Ð¾Ð»": 7039,
      "ĠÑģÐ¼ÑĭÑģÐ»Ð°": 7040,
      "ĠÐ¿Ð¾ÑģÐ²": 7041,
      "ĠÐ¾ÑīÑĥÑĤÐ¸Ð»": 7042,
      "ĠÐ°ÑĤÐ¼Ð¾ÑģÑĦ": 7043,
      "Ð°ÑĤÐ¾Ð²": 7044,
      "ÑģÑĤÐ²Ð¸Ð¸": 7045,
      "ĠÐľÐ°ÐºÑģ": 7046,
      "ĠÑĩÑĥÐ²ÑģÑĤÐ²Ð¾Ð²Ð°ÑĤÑĮ": 7047,
      "ĠÐ®Ð»Ð¸": 7048,
      "ĠÐ¿Ð¾Ð¶Ð¸Ð»Ð°Ñı": 7049,
      "il": 7050,
      "ĠÐ´ÑĥÐ±": 7051,
      "ĠÑĢÐµÐ¹": 7052,
      "ĠÐ£Ð¶": 7053,
      "Ð°ÑİÑīÐ¸ÐµÑģÑı": 7054,
      "ĠÐ¿Ð»ÐµÐ¼ÑıÐ½": 7055,
      "ĠÑıÐ·ÑĭÑĩÐ¾Ðº": 7056,
      "!..": 7057,
      "ĠÐ½Ð°ÑĪÐ»Ð°": 7058,
      "ĠÑģÐ¾Ð²ÐµÑĢÑĪÐµÐ½": 7059,
      "ĠÐ·Ð°Ð»Ðµ": 7060,
      "ĠÑģÑĥÑĤÐºÐ¸": 7061,
      "ĠÐ¸Ð±Ð¾": 7062,
      "ÑĪÐµÐ´": 7063,
      "ĠÐ»ÐµÐ²Ð¾Ð¹": 7064,
      "Ð¸Ð¼ÑĭÐ¼": 7065,
      "Ð°ÑĤÐµÐ»ÑĮÐ½Ð¾Ð¹": 7066,
      "ĠÐ·Ð°Ð³Ð°Ð´": 7067,
      "ĠÑĢÐ°Ð·ÑĥÐ¼ÐµÐµÑĤÑģÑı": 7068,
      "ĠÐºÐ¾ÑģÐ¼Ð¾ÑģÐ°": 7069,
      "ĠÑĤÐ¾ÑĢÑĩÐ°Ñī": 7070,
      "ĠX": 7071,
      "Ð°ÑĤÐµÐ»ÐµÐ¼": 7072,
      "ĠÑģÑĤÑĥ": 7073,
      "ĠÐĴÐ¸ÑĤÑĮ": 7074,
      "ĠÐ¿Ð¾ÑĤÐ¾Ð»": 7075,
      "ĠÐ·Ð°Ð¼ÐµÑĤÐ¸ÑĤÑĮ": 7076,
      "ĠÐ½ÐµÐ¸Ð·Ð±ÐµÐ¶": 7077,
      "ĠÐ¿Ð¾Ð²ÐµÐ´ÐµÐ½Ð¸Ðµ": 7078,
      "Ġh": 7079,
      "ĠÐĶÐ°Ð½Ð¸Ð»": 7080,
      "ĠÑĢÐ°Ð·ÑĥÐ¼Ð°": 7081,
      "ĠÑģÐ»ÐµÐ·Ñĭ": 7082,
      "ĠÐ²Ð¿ÐµÑĩÐ°ÑĤÐ»ÐµÐ½Ð¸Ðµ": 7083,
      "ĠÐ·Ð°ÐºÑĢÐ¸ÑĩÐ°Ð»Ð°": 7084,
      "ĠÐ±ÐµÐ»ÑĮÐµ": 7085,
      "ĠÐ¿Ð¾Ð·Ðµ": 7086,
      "ĠÐ½Ð¸ÑĩÐµÐ¼": 7087,
      "ĠÐ¼ÑĥÐ¶Ð¸Ðº": 7088,
      "ĠÐ¿ÑĢÐ¸ÑģÐµÐ»Ð°": 7089,
      "ĠÐµÐ´Ð¸Ð½ÑģÑĤÐ²ÐµÐ½Ð½ÑĭÐ¹": 7090,
      "Ð»ÐµÑģÑĤ": 7091,
      "ĠÐ¿Ð»Ð°": 7092,
      "ĠÐ±ÐµÐ¶Ð°ÑĤÑĮ": 7093,
      "ĠÐ½Ð¾Ð²ÑĭÐ¼": 7094,
      "ĠÐ½Ð°Ð·ÑĭÐ²Ð°ÐµÑĤÑģÑı": 7095,
      "ĠÐŁÑĢÐ¸ÑĩÐµÐ¼": 7096,
      "ĠÐ¿Ð¾Ð¶ÐµÐ»": 7097,
      "ĠÑģÐ¼Ð¾Ð¶ÐµÐ¼": 7098,
      "ĠÑģÐ¸Ð¼Ð¿Ð°ÑĤÐ¸Ñĩ": 7099,
      "!\",": 7100,
      "ÐµÐµÑĤ": 7101,
      "ĠÐ³Ð½ÐµÐ²": 7102,
      "ĠÐľÑį": 7103,
      "ÑĢÐ°Ð²ÑģÑĤÐ²": 7104,
      "ĠÐ½Ð°Ð¼ÐµÐº": 7105,
      "ĠÐ¿ÑĢÐ¾Ð±Ð¾ÑĢÐ¼": 7106,
      "ĠÐ¿ÑĢÐ¸ÑĪÐ»Ð¾": 7107,
      "ĠÑģÐ¾Ð³Ð»Ð°ÑĪ": 7108,
      "ĠÐ¸Ð´ÐµÐ¸": 7109,
      "ĠÐĶÐ¸Ð°Ð½Ð°": 7110,
      "ĠÐ¿Ð°ÑĢÑĤÐ½": 7111,
      "ĠÐ¿ÐµÑĢÐµÑħÐ²Ð°ÑĤ": 7112,
      "ĠÑĢÐµÐ»Ð¸": 7113,
      "Ð½Ð°ÑģÑĤÐ¾ÑıÑī": 7114,
      "ĠÐ´Ð¾ÑģÑĤÐ¾Ð¹": 7115,
      "ĠÐ¿ÐµÑĢÐ²Ð¾Ð¼": 7116,
      "ĠÑģÐ»ÐµÐ´Ñĭ": 7117,
      "ĠÑĢÑĥÐ±Ð°ÑĪÐºÑĥ": 7118,
      "ĠÐĺÐ²Ð°Ð½Ð¾Ð²": 7119,
      "ĠÑĥÐ»ÑĥÑĩÑĪ": 7120,
      "ĠÐºÐ¾ÑĤ": 7121,
      "ĠÐµÐ¶": 7122,
      "ĠÐĴÐ°": 7123,
      "Ð¸Ð½ÑĥÐ»Ð¸ÑģÑĮ": 7124,
      "ĠÐ¾ÑģÑĤÐ°ÑĤÑĮÑģÑı": 7125,
      "ĠÑĥÐ²Ð»ÐµÐº": 7126,
      "ĠÐĶÐ¶ÐµÐº": 7127,
      "ĠÐºÐ¾ÑĢÐ¿Ð¾ÑĢ": 7128,
      "ĠÐ¿ÑĤÐ¸": 7129,
      "Ð¸Ð½ÐºÐµ": 7130,
      "ĠÐ¿ÑĢÐ¸ÑģÐ»ÑĥÑĪ": 7131,
      "ĠÐ·Ð°Ð´ÑĢ": 7132,
      "ĠÐ¿Ð¾Ð²ÐµÑĢÐ¸ÑĤÑĮ": 7133,
      "ĠÐ²Ð·Ð³Ð»ÑıÐ´Ñĭ": 7134,
      "ĠÐ¿ÑĥÑĤÐµÐ¼": 7135,
      "Ð°Ð²Ð°Ð»Ð¾ÑģÑĮ": 7136,
      "Ð°ÑĢÑħ": 7137,
      "ĠÐ§Ð¸Ð½Ð³": 7138,
      "ĠÐŁÑĢÐ¾ÑĪÐ»Ð¾": 7139,
      "ĠÐ¼Ð¾Ð»ÑĩÐ°Ð»": 7140,
      "ĠÐ´Ð¾ÐºÑĤÐ¾ÑĢ": 7141,
      "ĠÐ¼ÑĭÑĪÑĨÑĭ": 7142,
      "Ð¸Ð´ÐµÑģÑıÑĤÐ¸": 7143,
      "ÑİÑīÐµ": 7144,
      "ÑĤÐ¾ÑĢÐ¾Ð¿": 7145,
      "ĠÐºÐ¾Ð½ÑĨÑĥ": 7146,
      "ĠÐ±Ð¾Ð»ÑĮÑĪÐ¾Ð³Ð¾": 7147,
      "ĠÐ¿ÑĢÐ¸Ð¼ÐµÑĢÑĥ": 7148,
      "ĠÑģÐ¿Ð¾ÑģÐ¾Ð±Ð½Ð¾ÑģÑĤÐ¸": 7149,
      "ĠÐĴÑģÐµÐ»ÐµÐ½Ð½Ð¾Ð¹": 7150,
      "ĠÑģÑĢÐ°Ð²Ð½ÐµÐ½Ð¸Ñİ": 7151,
      "ÑģÐµÐº": 7152,
      "ÑĢÑıÐ¼Ð¾": 7153,
      "ÑıÑīÐ°Ñı": 7154,
      "ĠÐ¿ÑĢÐµÐºÑĢÐ°Ñī": 7155,
      "ĠÐ¿ÑĢÐ¸Ð·Ð½Ð°": 7156,
      "Ġ40": 7157,
      "ĠÑĨÐµÐ»Ð¾Ð²Ð°Ð»": 7158,
      "ĠÐ¿ÑĢÐ¾ÑĦÐµÑģÑģÐ¾ÑĢ": 7159,
      "ĠÑģÑĤÐ°ÐºÐ°Ð½": 7160,
      "Ð°Ð½ÑĤÐ¾Ð²": 7161,
      "Ð¸ÑĤÐ°Ñı": 7162,
      "ĠÐ·Ð°Ð´Ð¾Ð¼": 7163,
      "ĠÐ´Ð¾ÑģÑĤÐ¾": 7164,
      "ĠÐ»Ð°ÑģÐºÐ°": 7165,
      "ÐºÐ¾Ð³": 7166,
      "ÐºÐ¸Ð´": 7167,
      "ĠÐ´ÐµÐ²ÑıÑĤÑĮ": 7168,
      "ĠÐºÑĢÐ¾Ð²ÑĮÑİ": 7169,
      "ĠÐ²Ð¾Ð¹Ð½Ñĥ": 7170,
      "ĠÐ»Ð°Ð±Ð¾ÑĢÐ°ÑĤÐ¾ÑĢ": 7171,
      "ÑģÐ¸Ð»": 7172,
      "Ð±Ð°Ð»": 7173,
      "ĠÐ£Ð±": 7174,
      "ĠÐ¸Ð½ÑĤÐµÑĢÐµÑģÐ¾Ð¼": 7175,
      "ĠÐ¶Ð¸Ð²Ð¾ÑĤÑĥ": 7176,
      "ĠÐ¸ÑģÐ¿Ð¾Ð»ÑĮÐ·Ð¾Ð²": 7177,
      "ĠÐ·Ð°ÑıÐ²Ð¸Ð»": 7178,
      "ĠÑĤÐµÐ¼Ð½Ð¾ÑĤÐµ": 7179,
      "ĠÐ·Ð°ÑģÑĥÐ½ÑĥÐ»": 7180,
      "ĠÑģÐ¾ÑĢÐ²": 7181,
      "ÐµÐ´Ð¶": 7182,
      "Ð¸Ð²Ð°Ð»Ð¾": 7183,
      "ĠÐ¿Ð¾Ð´Ð¼Ð°Ñħ": 7184,
      "ĠÐ¿Ð¾Ð»ÐºÐ¾Ð²": 7185,
      "ĠÐ¿Ð¾ÐºÑĢÑĭÑĤ": 7186,
      "ĠÐ·Ð°ÑĢÑıÐ´": 7187,
      "at": 7188,
      "Ð°Ð¼ÐµÐ½ÑĤ": 7189,
      "ĠÑĥÑĩÑĳ": 7190,
      "ĠÑģÑĤÐ¾Ð»Ñĥ": 7191,
      "ĠÐĲÐ½ÑĤ": 7192,
      "ĠÐ´Ð°Ð»ÐµÐº": 7193,
      "ĠÐ±ÐµÑģÐ¿Ð¾Ð»ÐµÐ·": 7194,
      "ĠÐºÐ¾ÑģÐ¼Ð¾ÑģÐµ": 7195,
      "ĠÐĽÐµÐ¾Ð½": 7196,
      "Ð²ÐµÑĩ": 7197,
      "ĠÐ¼Ð°Ñı": 7198,
      "Ð¸ÑĤÐ¸": 7199,
      "Ð¸ÑĢÐ°Ð»": 7200,
      "ĠÑĤÑĢÐ°ÑĤ": 7201,
      "ĠÑģÑĤÑĢÐ¾Ð³Ð¾": 7202,
      "ĠÐ¾ÑģÑĤÐ°Ð²Ð¸ÑĤÑĮ": 7203,
      "ĠÑħÐ¾Ð´Ñĥ": 7204,
      "ĠÐ½Ð°Ð·Ð²Ð°ÑĤÑĮ": 7205,
      "Ġp": 7206,
      "Ð¸ÑĤÐ°Ð½": 7207,
      "ĠÐ´Ð¾Ð¼Ð°ÑĪ": 7208,
      "ĠÐ¿Ð¾Ð½Ð¸Ð¼Ð°Ð»Ð°": 7209,
      "ĠÐ¿ÑĢÐ¸ÑĩÐ¸Ð½Ðµ": 7210,
      "ĠÐŁÑĢÐ¸Ð²ÐµÑĤ": 7211,
      "ÐµÑĢÐ²Ð°ÑĤÐ¸Ð²": 7212,
      "Ð¾Ð²ÐµÑĤ": 7213,
      "Ð¾Ð³Ð»Ð°Ñģ": 7214,
      "ĠÐ¿Ð¾Ð´ÑħÐ²Ð°ÑĤ": 7215,
      "ĠÐ·Ð°Ð²ÑĤÑĢÐ°Ðº": 7216,
      "ĠÑĤÑĢÑĥÑģÐ°Ñħ": 7217,
      "ĠÐ¨Ð¸": 7218,
      "ĠÐ¿ÑĭÑĤÐ°Ð»Ð¸ÑģÑĮ": 7219,
      "ĠÑĩÑĥÐ´Ð¾": 7220,
      "ĠÐ¿ÑĢÐ¾ÑģÑĤÑĢÐ°Ð½ÑģÑĤÐ²Ðµ": 7221,
      "ĠÑģÑĤÐ°ÑĢÑĥÑħÐ¸": 7222,
      "ĠÐ²Ð·Ð´ÑĢÐ°Ð³": 7223,
      "ĠÑĢÐµÐ±ÐµÐ½Ð¾Ðº": 7224,
      "ĠÐºÐ°ÑĢÑĤÐ¸Ð½Ñĥ": 7225,
      "ĠÐºÑĢÐµÐ´": 7226,
      "ĠÑĤÑĢÐµ": 7227,
      "ĠÐ²ÐµÑĢÐ½Ð¾": 7228,
      "ĠÐ¾ÑĤÐ»Ð¸ÑĩÐ½Ð¾": 7229,
      "tion": 7230,
      "ĠÐ§Ð¸Ð½Ð³Ð¸Ð·": 7231,
      "ÑĥÑĢÑĭ": 7232,
      "ĠÐºÐ¸Ð½Ð¾": 7233,
      "Ð¾Ð¹ÑĩÐ¸Ð²": 7234,
      "ĠÐ¾Ð±ÑģÑĤÐ°Ð½Ð¾Ð²": 7235,
      "ĠÐļÐ¾Ð½Ñĩ": 7236,
      "ÑĤÐ¸ÑĢ": 7237,
      "ĠÑģÐ¾Ð±ÐµÑģÐµÐ´": 7238,
      "ÑĥÑīÐ¸Ðµ": 7239,
      "ĠÐ¾ÑĤÐ¿ÑĥÑģÐº": 7240,
      "ĠÐ¤ÐµÐ¾Ð»": 7241,
      "ĠÐ¼ÐµÑħÐ°Ð½Ð¸": 7242,
      "ĠÐ²ÐµÑĢÐ¾ÑıÑĤ": 7243,
      "ĠÐłÐ°Ð·ÑĥÐ¼ÐµÐµÑĤÑģÑı": 7244,
      "ĠÑĢÐ°ÑģÐ¿Ð¾ÑĢÑıÐ¶": 7245,
      "Ð¾Ð²Ð¾Ð¼": 7246,
      "Ð»Ð¸ÑĤÑĮ": 7247,
      "ĠÐŁÐ°Ð½Ð¾Ð²": 7248,
      "ĠÑįÑĤÐ°Ð¿": 7249,
      "ĠÐĵÐµ": 7250,
      "ĠÐ¶ÐµÐ½Ñĥ": 7251,
      "ĠÐ¿Ð¾ÑģÑĢÐµÐ´Ð¸": 7252,
      "ĠÐºÐ°ÑĢÑĤÑĭ": 7253,
      "ĠÑĢÐ°ÑģÑģÐºÐ°Ð·ÑĭÐ²Ð°ÑĤÑĮ": 7254,
      "ĠÐºÐ»Ð¸ÑĤÐ¾ÑĢÐ°": 7255,
      "ĠÐ¼Ð¸Ð»Ð»Ð¸Ð°ÑĢÐ´": 7256,
      "ĠÑģÐ¾Ð¼Ð½ÐµÐ½Ð¸Ñı": 7257,
      "ĠÐºÑĥÑģÐ¾Ðº": 7258,
      "ĠÐ´ÐµÐ¼Ð¾Ð½ÑģÑĤÑĢÐ¸": 7259,
      "ĠÐ¿ÑĢÐ¾Ð¼ÑĭÑĪÐ»ÐµÐ½Ð½Ð¾ÑģÑĤÐ¸": 7260,
      "ĠÐ±ÑĳÐ´ÑĢÐ°": 7261,
      "ÑĢÑĥÐµÑĤ": 7262,
      "ĠÐ¾Ð±ÐµÐ·": 7263,
      "ĠÐ¿Ð¾ÑĤÑıÐ½ÑĥÐ»": 7264,
      "ĠÐŁÑĢÐ¾ÑģÑĤ": 7265,
      "ĠÑĥÑģÐ¿ÐµÑĪÐ½Ð¾": 7266,
      "ĠÑĢÐ¾Ð´Ð½Ð¾Ð¹": 7267,
      "ĠÐ»Ð°ÑģÐºÐ°Ð»Ð°": 7268,
      "ĠÐŁÑĢÐµÐ´ÑģÑĤÐ°Ð²": 7269,
      "ĠÐ·Ð°Ð´Ð°ÑĩÐ°": 7270,
      "ĠÐľÐµÐ»Ð°Ð½Ð¸": 7271,
      "ÑĢÐµÑĪ": 7272,
      "ĠÐºÐ»Ð°Ð´": 7273,
      "ĠÐ¿Ð¾Ð»ÑĥÑĩÐ¸Ð»Ð¸": 7274,
      "ĠÑģÑĤÑĢÑĥÐ¹": 7275,
      "Ð½Ð¸ÑĨÐ¸": 7276,
      "ÐµÐ²Ð¾": 7277,
      "ĠÐ¾Ð±ÑīÐµÑģÑĤÐ²": 7278,
      "ĠÐĺÐ²Ð°Ð½": 7279,
      "ĠÑģÐ¼Ð¾Ð³ÑĥÑĤ": 7280,
      "ĠÑĥÑĤÐº": 7281,
      "ĠÐ¾ÑĤÐ½Ð¾ÑģÐ¸ÑĤÐµÐ»ÑĮÐ½Ð¾": 7282,
      "ĠÐ¿Ð¾Ð´Ð¼": 7283,
      "Ð»ÐµÐ½Ð¾": 7284,
      "ĠÐ¾ÑģÑĤÐ¾ÑĢÐ¾Ð¶": 7285,
      "ĠÐºÐ¾Ð¼Ð½Ð°ÑĤ": 7286,
      "ĠÐ·Ð°Ð´ÑĥÐ¼ÑĩÐ¸Ð²Ð¾": 7287,
      "ĠÐ²ÐµÐ·Ð´Ðµ": 7288,
      "Ð°ÑĤÐ¾": 7289,
      "Ð½Ð°Ð´ÑĨÐ°ÑĤÐ¸": 7290,
      "Ð³Ð°Ð»": 7291,
      "ĠÐ¿Ð¾ÐµÐ·Ð´": 7292,
      "ĠÐ²ÑĭÐ»ÐµÑĤ": 7293,
      "ĠÐºÐ¾Ð½ÑĤÐ¸Ð½": 7294,
      "Ð¸Ð½Ð°ÑĤÑĮ": 7295,
      "ĠÐ¶Ð´Ð°Ð»Ð°": 7296,
      "ĠÑĤÐµÐ»ÐµÑĦ": 7297,
      "ĠÐŀÐ¿ÑıÑĤÑĮ": 7298,
      "ĠÑĢÐ°Ð·Ð½Ð¾Ð¾Ð±ÑĢÐ°Ð·": 7299,
      "ĠÐ³Ð°Ð´": 7300,
      "ĠÐ¿ÑĢÐ¸Ð´ÐµÑĢÐ¶": 7301,
      "ĠÑĢÐ°Ð·ÑĬ": 7302,
      "ÑĢÐ¸ÑģÑĤÐ°Ð»": 7303,
      "ĠÐ±Ð¾Ð»ÑĮÑĪÐ¸Ð¼Ð¸": 7304,
      "ĠÐ¿ÑĢÐ¸Ð¼Ð¸ÑĤÐ¸Ð²": 7305,
      "ĠÐ·Ð°ÑĪÐ»Ð°": 7306,
      "ĠÐ²Ð·Ð³Ð»ÑıÐ½ÑĥÐ»": 7307,
      "ĠÑģÐ¿Ð¾ÑĢÑĤÐ¸Ð²": 7308,
      "ĠÑĥÐ±ÐµÐ¶Ð´": 7309,
      "it": 7310,
      "ÑĪÐµÐ±": 7311,
      "Ð°Ð´ÐµÐ¼": 7312,
      "Ð°ÑĢÑĭ": 7313,
      "ĠÐ¯Ð½Ð°": 7314,
      "ÐµÐ½ÑĮÐºÐ¾Ð¹": 7315,
      "Ð°ÑĤÐµÐ»ÑĮÐ½ÑĭÐ¼": 7316,
      "ĠÐŁÑĢÐ¸Ð´": 7317,
      "ĠÐ½ÐµÐ´ÐµÐ»ÑĮ": 7318,
      "ĠÐ¾ÑģÑĤÐ°Ð²Ð¸Ð»": 7319,
      "ĠÐ²ÑģÑĤÑĢÐµÑĩÐ¸": 7320,
      "ĠÐ±ÑĥÐ¼Ð°Ð³Ð¸": 7321,
      "ĠÐ½Ð°Ð»Ð¸Ñĩ": 7322,
      "ÑĢÐ¸Ð´": 7323,
      "ĠÐ¿Ð°ÑģÑģ": 7324,
      "ĠÐ½ÐµÑħ": 7325,
      "ÑĢÐ¾Ñī": 7326,
      "ĠÐ·Ð°ÑģÑĤÐ°Ð²Ð»ÑıÑı": 7327,
      "ĠÑģÑĤÑĢÐ°ÑħÐ°": 7328,
      "ĠÐºÑĥÐ»Ð°Ðº": 7329,
      "ĠÐĴÐ¸ÐºÑĤÐ¾ÑĢ": 7330,
      "ĠÐĵÐ»Ð°Ð·Ð°": 7331,
      "ĠÐ¿ÑĢÐ¾ÑĤÐ¸Ð²Ð¾Ð¿Ð¾Ð»Ð¾Ð¶": 7332,
      "ĠÑģÑįÑĢ": 7333,
      "ĠÐºÐ¾Ð²": 7334,
      "ĠÐ´ÐµÐº": 7335,
      "ĠÐ´Ð°ÐµÑĤ": 7336,
      "Ð¸ÑĤÑĭÐ¹": 7337,
      "ĠÐļÐ°Ð·Ð°Ð»Ð¾ÑģÑĮ": 7338,
      "ĠÑģÐ¿Ð°ÑģÑĤÐ¸": 7339,
      "ĠÐ¿ÑĢÐ¸ÑĪÑĳÐ»": 7340,
      "ĠÐºÐ»Ð°ÑģÑģÐµ": 7341,
      "ĠÐºÐ¾Ð¶Ð¸": 7342,
      "ĠÐ¿Ð¾ÑģÐ¿ÐµÑĪ": 7343,
      "ĠÐľÐ°Ð»ÑĮÑĩÐ¸Ðº": 7344,
      "Ð²ÑĤÐ¾ÑĢÑĭÑħ": 7345,
      "Ġ?": 7346,
      "ĠÑģÐ²ÐµÐ´": 7347,
      "ĠÑĢÐµÑĪÐ¸ÑĤÐµÐ»ÑĮÐ½Ð¾": 7348,
      "ĠÐ¿ÑĢÐ¾Ð´Ð¾Ð»Ð¶Ð°Ð»Ð¸": 7349,
      "ĠÐ¿Ð¾ÑģÐµÑĤ": 7350,
      "ĠÑĢÐµÐ°Ð³": 7351,
      "ĠÐºÐ°Ð¼ÐµÐ½ÑĮ": 7352,
      "ĠÐĿÐ¸ÐºÐ¾Ð³Ð´Ð°": 7353,
      "ĠÐĴÐ¼ÐµÑģÑĤÐ¾": 7354,
      "ÑģÐºÐ°": 7355,
      "ĠÐºÐ¸Ð½": 7356,
      "Ð¾Ð»Ð¸Ð²": 7357,
      "Ð¾Ð´Ð¾Ð±": 7358,
      "ĠÑĥÑħÐ²Ð°ÑĤ": 7359,
      "ĠÐ²ÑĭÐ³Ð¾Ð´": 7360,
      "ĠÐ´Ð²ÐµÑģÑĤÐ¸": 7361,
      "ÑĩÐ¸ÑģÐ»": 7362,
      "Ð°ÑĤÐµÐ»ÑĮÑģÑĤÐ²Ð¾": 7363,
      "ĠÐ¡ÑĤÑĢÐ°Ð½": 7364,
      "ĠÑģÐ¿Ð¾ÑģÐ¾Ð±Ð½Ð¾ÑģÑĤÑĮ": 7365,
      "ĠÐ°Ð²ÑĤÐ¾ÑĢ": 7366,
      "ing": 7367,
      "ĠÐ½ÐµÐ»": 7368,
      "ĠÐ¼ÑĢÐ°Ñĩ": 7369,
      "ÑīÐ¸Ðµ": 7370,
      "ĠÐļÑĥÐ´Ð°": 7371,
      "Ð¾Ð¿ÑĢÐ¸": 7372,
      "ĠÐ¿Ð¾Ð½ÑıÐ»Ð¸": 7373,
      "ĠÑģÑĤÐ°ÑĢÑĭÐ¹": 7374,
      "ĠÐ²Ð¾Ð¿ÑĢÐ¾ÑģÐ¾Ð²": 7375,
      "ĠÐĽÑİÐ´Ð°": 7376,
      "Ġ198": 7377,
      "Ġc": 7378,
      "ĠÐºÐ°ÑģÑģ": 7379,
      "ĠÐ´ÐµÐ»Ð°Ñİ": 7380,
      "ĠÑĢÐ°Ð´Ð¸Ð¾": 7381,
      "ĠÑģÐ¾Ð¶Ð°Ð»ÐµÐ½Ð¸Ñİ": 7382,
      "Ð²ÑĭÑĩ": 7383,
      "ĠÐ¿ÑĢÐ¾Ð»ÐµÑĤ": 7384,
      "Ð°ÑĤÑĭÐµ": 7385,
      "ĠÐ¼Ð¸Ð»ÑĭÐ¹": 7386,
      "ĠÑĢÐ°Ð·Ð³Ð¾Ð²Ð¾ÑĢÐ°": 7387,
      "ĠÐ²Ð¸ÑĢÑĥ": 7388,
      "ÑĨÐµÑģÑģ": 7389,
      "ĠÐĿÐ¸Ð½Ð°": 7390,
      "Ð½ÐµÑĪÑĮ": 7391,
      "ĠÐ¿Ð¾ÑģÐ»ÑĭÑĪ": 7392,
      "ĠÐ±ÐµÑģÐ¿Ð¾ÐºÐ¾Ð¹": 7393,
      "ĠÑģÐ¾ÐºÑĢÐ°Ñī": 7394,
      "ĠÐ´Ð²Ð¸Ð¶ÐµÐ½Ð¸ÑıÐ¼Ð¸": 7395,
      "ĠÐºÐ¸ÑģÐºÐ¸": 7396,
      "ĠÐ¿Ð¾Ð²Ð¾ÑĢÐ°Ñĩ": 7397,
      "ĠÐ¤ÑĢÑįÐ½Ðº": 7398,
      "am": 7399,
      "ÑĥÐ¼Ð¸": 7400,
      "ĠÑĤÑĢÑıÑģ": 7401,
      "Ð¾Ð¿Ð»Ð°Ð½ÐµÑĤ": 7402,
      "ĠÐ¿Ð¾Ð¿ÐµÑĢ": 7403,
      "ĠÐĿÐ°ÑĪÐ¸": 7404,
      "ĠÐłÐ°Ð·Ð´": 7405,
      "ÑħÐ¾Ð¶Ñĥ": 7406,
      "ĠÐ¶Ð¸Ð·Ð½ÑĮÑİ": 7407,
      "ĠÐ¸Ñİ": 7408,
      "ÑģÑĤÐ°Ð½": 7409,
      "ĠÐ¶ÐµÑĢÑĤÐ²Ñĭ": 7410,
      "ĠÐŁÐ¾ÑĢ": 7411,
      "Ð¸ÑĤÐµÐ»ÑĮÐ½ÑĥÑİ": 7412,
      "ĠÑĢÐ°Ð·Ð²ÑĢÐ°ÑĤ": 7413,
      "ĠÑģÐ¸ÑĤÑĥÐ°ÑĨÐ¸Ñı": 7414,
      "ĠÐ¼ÑĭÑģÐ»Ñı": 7415,
      "ĠÐ¼ÑĭÑģÐ»ÐµÐ½Ð½Ð¾": 7416,
      "Ð½Ð°ÑģÑĤÐ¾ÑıÑīÐµÐ¼Ñĥ": 7417,
      "Ð¾Ð½Ð¸": 7418,
      "ĠÐ²ÑĭÐ´Ð°": 7419,
      "Ð¾ÑĩÐ½Ð¾Ð¹": 7420,
      "ĠÑĢÐ°Ð·ÑĢÑĭÐ²": 7421,
      "ĠÑĪÐµÐ²ÐµÐ»": 7422,
      "Ð»Ð¸ÑĩÐ½Ð¾": 7423,
      "ĠÐ¿Ð¾Ð·Ð²Ð¾Ð»ÑıÐµÑĤ": 7424,
      "ĠÐºÐ½Ð¸Ð¶": 7425,
      "ĠÐ¾ÑģÑĤÐ°Ð½ÐµÑĤÑģÑı": 7426,
      "ĠÐĴÐ·ÑıÐ²": 7427,
      "ĠÑĢÐ°Ð·Ð¾Ñĩ": 7428,
      "ĠÐ²ÐµÑĢÐ½ÑĥÐ»Ð¸ÑģÑĮ": 7429,
      "ĠÐ½ÐµÐ´Ð¾Ð²Ð¾Ð»ÑĮ": 7430,
      "ĠÐ±ÐµÑģÑģ": 7431,
      "ĠÑĤÐ¾ÑĩÐ½ÐµÐµ": 7432,
      "ĠÐ¼Ð°Ð³Ð¸Ð¸": 7433,
      "ĠÐ¿Ð¸Ð·Ð´Ð°": 7434,
      "ĠÐ¿Ð¾Ð²ÐµÑĢÑħÐ½Ð¾ÑģÑĤÑĮ": 7435,
      "ĠÐ½ÐµÐ·Ð°Ð¼ÐµÑĤÐ½Ð¾": 7436,
      "ĠÑĢÐ°ÑģÑĤÐ¸": 7437,
      "Ð³ÑĥÐ¼": 7438,
      "ĠÐĳÐ¾Ð³": 7439,
      "ĠÐ¤ÐµÐ¼": 7440,
      "ĠÐ·Ð°ÑģÑĤÐ°Ð²Ð¸ÑĤÑĮ": 7441,
      "Ð°ÑİÑīÐ¸ÑħÑģÑı": 7442,
      "ĠÑĢÐ¾ÑģÑĤÐ°": 7443,
      "ĠÐ¡ÐµÐº": 7444,
      "ĠÐ¿ÑĢÐ¸ÐºÐ»ÑİÑĩ": 7445,
      "ĠÐ²Ð¾Ð¹Ð½Ðµ": 7446,
      "ĠÐĽÑİÐ´Ð¼": 7447,
      "ĠÑĦÑĢÐ°Ð·": 7448,
      "ĠÐ¾ÑģÑĤÐ°ÐµÑĤÑģÑı": 7449,
      "ĠÐ¼Ð°Ð¼Ð¸Ð½Ð¾Ð¹": 7450,
      "Ð³ÑĢÐ¾Ð¼": 7451,
      "ĠÑĥÐ²Ð¸Ð´ÐµÐ»Ð¸": 7452,
      "ĠÐ³Ð»Ð°Ð´Ð¸Ð»": 7453,
      "ĠÐ½Ð°Ð³ÑĢÐ°Ð´": 7454,
      "ĠÑĢÐ°Ð·Ð¼ÐµÑĢÐ¾Ð²": 7455,
      "ĠÐ²Ð°ÑĪÐµ": 7456,
      "Ð¸Ð²Ð°Ð½Ð¸Ðµ": 7457,
      "ĠÐ²ÑģÐµÐ»": 7458,
      "Ð¸Ð·Ð¼": 7459,
      "ÑģÐ»Ð¸Ð²": 7460,
      "ÑģÑĤÑĢÐ¾ÑĦ": 7461,
      "ĠÑģÐ¼Ð¾ÑĤÑĢÑİ": 7462,
      "ĠÐ·Ð°ÑģÐ¾Ð²": 7463,
      "ĠÐ¾ÑģÑĤÐ°Ð½Ð¾Ð²Ð¸ÑĤÑĮ": 7464,
      "ĠÐ½Ð°Ð±Ð»ÑİÐ´Ð°Ñı": 7465,
      "ĠÐ²ÑĭÐ³Ð»ÑıÐ´Ð¸ÑĤ": 7466,
      "ĠÑĤÑĳÐ¼": 7467,
      "Ð·Ð´": 7468,
      "Ð½ÑıÐ¼Ð¸": 7469,
      "ĠÐ²Ð¸Ð´Ñı": 7470,
      "ĠÐ¿ÑĢÐ¾Ð´Ð¾Ð»Ð¶Ð°Ð»Ð¾ÑģÑĮ": 7471,
      "ĠÑģÐ´Ð°Ð²": 7472,
      "ĠÐ¸Ð·Ð±Ð°Ð²": 7473,
      "ĠÐ²Ð·Ð´ÑĢÐ¾Ð³Ð½ÑĥÐ»Ð°": 7474,
      "ĠÐ°Ð¼": 7475,
      "ĠÑĤÑĢÑĥÑģÐ¸ÐºÐ°Ñħ": 7476,
      "ĠÑĥÑģÐ»ÑĥÐ³": 7477,
      "ĠÐ¶ÐµÑģÑĤÐ¾Ðº": 7478,
      "ĠÑģÐ¼Ð¾Ð¶ÐµÑĪÑĮ": 7479,
      "ĠÐºÑĢÐ°Ñİ": 7480,
      "ĠÑģÐµÑĤÐ¸": 7481,
      "ĠÐĴÑĭÐ¿": 7482,
      "ĠÐ¾ÑĢÑĥÐ¶Ð¸ÐµÐ¼": 7483,
      "ĠÐ·Ð½Ð°ÑĩÐµÐ½Ð¸Ðµ": 7484,
      "ÑĥÑİÑĤÑģÑı": 7485,
      "ĠÐ»ÐµÑģÐ°": 7486,
      "ĠÐ¿ÑĢÐ¾Ð¸Ð·Ð²Ð¾Ð´ÑģÑĤÐ²Ð°": 7487,
      "ĠÐ¿ÑĢÐ¸Ð½Ð¸Ð¼Ð°ÑĤÑĮ": 7488,
      "ĠÑģÐ¼Ð°Ð·ÐºÐ¸": 7489,
      "Ð¾Ð»Ð·Ð»Ð°": 7490,
      "re": 7491,
      "Ð´Ð¾Ð¼": 7492,
      "ĠÐ¼Ð¾ÑĪ": 7493,
      "ĠÑĩÐ¸ÑĤÐ°ÑĤÑĮ": 7494,
      "Ð½Ð¾Ð¶ÐºÐ¾": 7495,
      "ĠÐ¿Ð¾ÐºÐ¾ÑĢÐ½Ð¾": 7496,
      "ĠÐºÐ¾Ð½ÑĤÐµÐº": 7497,
      "Ð¾Ð´Ñĥ": 7498,
      "Ð¸Ð²Ð°Ð¹": 7499,
      "ĠÐ´Ð¾ÑģÑĤÐ°Ð»Ð°": 7500,
      "ĠÑĨÐµÐ»ÑĥÑİ": 7501,
      "ĠÑĤÑĢÐ°ÑħÐ½ÑĥÑĤÑĮ": 7502,
      "ĠÐ¡Ð²ÐµÑĤÐ»": 7503,
      "ĠÐ¿Ð¾Ð»Ð¾Ð²Ð¸Ð½Ñĥ": 7504,
      "ĠÑģÑĥÐ´Ð¾ÑĢÐ¾Ð¶Ð½Ð¾": 7505,
      "ĠÑĢÑĭÐ½": 7506,
      "ĠÐ¿ÑĥÐ³Ð¾Ð²": 7507,
      "ĠÐ¸Ð¼Ð¿ÐµÑĢÐ¸Ð¸": 7508,
      "ÑĮÐµÐ²": 7509,
      "ĠÑĩÐ¼Ð¾Ðº": 7510,
      "ĠÑĢÐ²": 7511,
      "ĠÐ¿Ð¾Ð»ÑĥÑĩÐ¸Ð»Ð°": 7512,
      "ĠÑĤÐµÑĢÐµÐ±": 7513,
      "ĠÐ¿ÑĢÐ¾ÑĩÑĮ": 7514,
      "ĠÐ¿ÑĢÐ¸ÑģÐ¾ÐµÐ´Ð¸Ð½": 7515,
      "ĠÐĿÐµÐ¾Ð¶Ð¸Ð´Ð°Ð½Ð½Ð¾": 7516,
      "ĠÐ²Ð»ÑİÐ±": 7517,
      "ĠÐ³ÐµÑĢÐ¾": 7518,
      "ĠÐ»Ð¾Ð´": 7519,
      "Ð»ÐµÐ½Ð½Ð¾Ð³Ð¾": 7520,
      "ĠÐ³Ð¾ÑĢÐ¸Ð·": 7521,
      "ĠÐ·Ð°Ð´Ð°ÑĩÐ¸": 7522,
      "ĠÑĤÑĢÑĥÐ¿": 7523,
      "ĠÐ¾ÑīÑĥÐ¿": 7524,
      "ĠÐ³Ð¾ÑĢÑıÑĩÐ¸Ð¹": 7525,
      "ĠÑģÑĤÑĢÑĥÑı": 7526,
      "ĠÐºÑĢÐ¸ÐºÐ½ÑĥÐ»": 7527,
      "ĠÑįÐºÑģÐ¿ÐµÑĢÐ¸Ð¼ÐµÐ½ÑĤ": 7528,
      "Ð½ÐµÐ´": 7529,
      "ÐºÐ°ÑĤ": 7530,
      "ĠÐ´Ð²Ð¾Ð¹": 7531,
      "ĠÐ¿ÑĢÐµÐ´Ð¼": 7532,
      "ĠÐºÐ¾ÑĢÐ¸ÑĩÐ½ÐµÐ²": 7533,
      "ĠÐ²Ð¾Ð»Ð½Ð¾Ð²": 7534,
      "ĠÐ¼Ð¸ÑĢÑĥ": 7535,
      "ĠÐ½Ð°ÑĢ": 7536,
      "ĠÐ¾Ð±Ð¸ÑĤ": 7537,
      "ĠÐºÐ¾Ð½Ñģ": 7538,
      "ĠÐ¿Ð»Ð°Ð²Ð½Ð¾": 7539,
      "ĠÑģÐ¾Ð±ÑģÑĤÐ²ÐµÐ½Ð½Ð¾": 7540,
      "ĠÐĲÐ½Ð½Ð°": 7541,
      "ĠÐ²ÑģÑıÐºÐ¸Ñħ": 7542,
      "ĠÐ¾ÑĤÑĩÐµÐ³Ð¾": 7543,
      "ĠÐ¼Ð°Ð¼Ð¸Ð½Ñĭ": 7544,
      "ĠÑĥÑħÐ¼Ñĭ": 7545,
      "ĠÐ²Ð°ÑĪÐ°": 7546,
      "ĠÐ¸Ð½Ð¸ÑĨÐ¸": 7547,
      "ĠÐ»Ð¸ÑĤÐµÑĢ": 7548,
      "ĠÐĺÐ´": 7549,
      "ĠÐ½Ð¸ÐºÑĥÐ´Ð°": 7550,
      "ĠÐ¢Ð°ÐºÐ¶Ðµ": 7551,
      "ĠÐ²ÑĭÐ¿ÑĢÑıÐ¼": 7552,
      "ĠÐ±Ð¾Ð»ÑĮÑĪÐ¸Ð½": 7553,
      "ĠÑĩÐµÐ»Ð¾Ð²ÐµÐºÑĥ": 7554,
      "ĠÐ³Ð¾Ð»Ð¾ÑģÐ°": 7555,
      "ĠÐ½Ð°ÑģÐµÐ»ÐµÐ½Ð¸Ñı": 7556,
      "Ð¸Ð±Ð»Ð¸Ð¾ÑĤ": 7557,
      "Ð»ÑĥÑİ": 7558,
      "ĠÐ´Ð¾ÑĩÐºÐ°": 7559,
      "ĠÐ¿ÑĢÐ¾ÑģÑĤÐ¾Ð½": 7560,
      "ĠÑĤÐµÑħÐ½Ð¸": 7561,
      "ĠÑģÐ»Ð°Ð´ÐºÐ¾": 7562,
      "ĠÑģÑĤÐ°Ð½Ð´Ð°ÑĢÑĤ": 7563,
      "ac": 7564,
      "Ð½Ð¾ÑĢ": 7565,
      "Ð°ÑĤÐ¾Ð¼": 7566,
      "ĠÐ¾ÑĤÑĢÑıÐ´": 7567,
      "ĠÑģÐºÐ°Ð¼": 7568,
      "ĠÐĽÐ°ÑĢ": 7569,
      "ĠÐĹÐ°Ð¼": 7570,
      "ÑĢÐ°Ð·ÑĥÐ¼": 7571,
      "ÑĥÑīÐµÐ¹": 7572,
      "ĠÐ¿Ð¾ÑĢÑıÐ´ÐºÐ°": 7573,
      "ĠÐºÐ¾Ð¶Ð°": 7574,
      "ĠÑĤÐ¾Ð»ÑģÑĤÑĭÐ¹": 7575,
      "ĠÑĢÐ¾ÑģÐºÐ¾ÑĪ": 7576,
      "ĠÐ²ÑĨÐµÐ¿": 7577,
      "ÐµÐ½Ð¾Ð¼": 7578,
      "Ð°ÑĤÐ¾Ð¹": 7579,
      "ĠÐ¡ÐµÐ²": 7580,
      "ĠÑĢÐ°Ð·Ð²ÐµÐ»Ð°": 7581,
      "ĠÐ¼Ð°Ð»ÐµÐ¹": 7582,
      "ĠÐ¾Ð³ÑĢÐ¾Ð¼Ð½Ð¾Ð¹": 7583,
      "ĠÐ»ÑİÐ±Ð¾Ð²ÑĮÑİ": 7584,
      "ĠÐ¿Ð»Ð¾ÑĤÐ¸": 7585,
      "ĠÐ»ÐµÑģÑĤÐ½Ð¸ÑĨÐµ": 7586,
      "ĠÐ¸Ð½Ð¶ÐµÐ½ÐµÑĢ": 7587,
      "11": 7588,
      "ĠÐºÐ¾Ðº": 7589,
      "Ð¸ÑĤÐ¾Ð²": 7590,
      "ĠÐĶÐµÑĢ": 7591,
      "ĠÐ£Ð´": 7592,
      "ĠÑĤÑĢÐ¾Ð»": 7593,
      "Ð°ÑīÐ¸Ð»": 7594,
      "ĠÑĥÐ´Ð°Ñĩ": 7595,
      "ĠÑģÐ°Ð½ÑĤÐ¸Ð¼ÐµÑĤ": 7596,
      "ĠÑĢÐµÑģÑĤ": 7597,
      "ĠÐ³Ð¸Ð»ÑĮ": 7598,
      "ĠÐĿÐµÐ²": 7599,
      "Ð°Ð»ÑĮÐ½Ð¾Ð¼Ñĥ": 7600,
      "ĠÐ¿ÑĢÐ¾ÑģÑĤÐ¾Ð¹": 7601,
      "ĠÐ¥Ð¾ÑĤ": 7602,
      "ĠÐ¿Ð¾ÑģÐ»ÐµÐ´Ð½ÐµÐ³Ð¾": 7603,
      "ĠÑģÐ¿ÑĢÐ¾ÑģÐ¸ÑĤÑĮ": 7604,
      "ĠÐ·Ð°ÑģÐ»ÑĥÐ¶": 7605,
      "ĠÐ²Ð´Ð¾Ñħ": 7606,
      "ĠÐ²Ð½ÑĥÑĪ": 7607,
      "ĠÐºÐ¸Ð»Ð¾Ð¼ÐµÑĤ": 7608,
      "ĠÐŁÑĢÐ¸ÑĪÐ»Ð¾ÑģÑĮ": 7609,
      "ĠÐĽÑĥÑĩÑĪÐµ": 7610,
      "Ð°ÑĤÐµ": 7611,
      "ÑĢÐ¸Ð¹": 7612,
      "ĠÐ¿Ð¾Ð¼ÐµÐ½Ñı": 7613,
      "ĠÐ¿Ð°ÑĢÐ½Ð¸": 7614,
      "ĠÐ¿ÑĢÐ°Ð²Ð¸Ð»": 7615,
      "ĠÐ½Ð°Ð¿ÑĢÐ°Ð²Ð»ÐµÐ½Ð¸Ð¸": 7616,
      "ĠÐĺÐ½ÑĨÐµÑģÑĤ": 7617,
      "ĠÐ²Ð·Ð³Ð»ÑıÐ´Ð°": 7618,
      "ĠÐ¿ÑĢÐ¾Ð²ÐµÑĢÐ¸ÑĤÑĮ": 7619,
      "ro": 7620,
      "ÑĮÐµÐ¼": 7621,
      "Ð°Ð²ÑĪÐ°Ñı": 7622,
      "Ð°Ð²ÑĪÐ¸Ð¹ÑģÑı": 7623,
      "ÐµÐ´ÐµÑĤ": 7624,
      "ĠÐ²ÑĭÑģÐºÐ°Ð·": 7625,
      "ĠÐ¿ÑĢÐ°Ð²Ð¸Ð»Ð¾": 7626,
      "ĠÐ¿ÑĢÐ¾Ð´Ð¾Ð»Ð¶Ð°ÑĤÑĮ": 7627,
      "Ð¸ÑĩÐµÑģÐºÐ¸Ð¼Ð¸": 7628,
      "ĠÑģÐµÐ¼ÑĮÑı": 7629,
      "ĠÐ¡ÐºÐ¾ÑĢÐ¾": 7630,
      "ÑĢÐ¸Ð»": 7631,
      "ÑĢÐµÐ±": 7632,
      "ĠÐ´Ð¸Ð¿": 7633,
      "ĠÐ±Ð°ÑģÑģ": 7634,
      "ĠÐ»ÐµÑĤÐ¾": 7635,
      "ĠÐłÑıÐ´": 7636,
      "ĠÐ¾ÑĤÐºÑĢÑĭÐ»Ð°ÑģÑĮ": 7637,
      "ĠÐºÐ¾ÑģÐ½ÑĥÐ»ÑģÑı": 7638,
      "ĠÐ²ÑģÐ¿ÑĭÑħ": 7639,
      "ĠÐ·Ð°Ð¼ÐµÑĢÐ»Ð°": 7640,
      ".Â»": 7641,
      "ÑĥÐ´Ñĥ": 7642,
      "ĠÐ²Ð¾Ð·ÑĢÐ°Ð·": 7643,
      "ĠÐłÐµÐ±": 7644,
      "ĠÐ¿Ð¾Ð³Ð»ÑıÐ´": 7645,
      "ĠÐºÑĢÐ¸ÑĩÐ°Ð»Ð°": 7646,
      "Ð°ÐºÑĤÐ¸ÐºÐµ": 7647,
      "ĠÐ¿Ð»ÐµÐ¼ÐµÐ½Ð¸": 7648,
      "ĠÑģÐ¾Ð»Ð½ÑĨÐ°": 7649,
      "ĠÑĦÑĥÑĤÐ±Ð¾Ð»ÐºÑĥ": 7650,
      "ĠÐ¾ÑĤÐºÑĢÐ¾Ð²ÐµÐ½Ð½Ð¾": 7651,
      "Ð»Ð¾Ð´": 7652,
      "ĠÐ½ÐµÐ±Ðµ": 7653,
      "ĠÐ²ÐµÑĩÐ½Ð¾": 7654,
      "ĠÐ»Ð¾Ð½Ð¾": 7655,
      "ÑģÑĤÐ²Ð°Ñħ": 7656,
      "ĠÐ²Ð¸Ð´Ð¸ÑĤ": 7657,
      "ĠÐºÐ¾Ð»Ð³Ð¾ÑĤ": 7658,
      "ĠÑĢÐ°Ð·Ð²ÑıÐ·": 7659,
      "Ð½ÑĥÑĤÑĭÐµ": 7660,
      "ĠÐ¸ÑģÐ¿ÑĭÑĤÑĭÐ²Ð°Ð»": 7661,
      "ĠÐ¿Ð¾Ð´ÑĢÑĥÐ³Ð°": 7662,
      "ĠÐ¿Ð¾ÑģÑĤÑĢÐ¾Ð¸ÑĤÑĮ": 7663,
      "ĠÐĲÐ²ÑĤÐ¾ÑĢ": 7664,
      "Ð°Ñĥ": 7665,
      "ÑıÑİ": 7666,
      "ĠÐ´Ð¾Ð¶": 7667,
      "ÑİÑħ": 7668,
      "ĠÑĢÐ²Ð°Ð½": 7669,
      "Ð»ÑıÑİ": 7670,
      "ÐµÑĢÐ²Ð°": 7671,
      "ĠÐ³Ð¾Ð»Ð¾ÑģÐµ": 7672,
      "ĠÑĤÐ¾ÑĢÐ¶Ðµ": 7673,
      "ĠÑĥÐ²ÐµÑĢÐµÐ½Ð½Ð¾": 7674,
      "ĠÐĿÐµÐºÐ¾ÑĤÐ¾ÑĢÑĭÐµ": 7675,
      "Ð°Ð´ÑĮ": 7676,
      "ĠÐ¿ÑĢÐ¸ÑģÑĤÑĢÐ¾": 7677,
      "ĠÐ½Ð°ÑĩÐ°Ð»Ð°ÑģÑĮ": 7678,
      "ĠÐ¿Ð¾Ð½ÑıÑĤ": 7679,
      "ĠÑģÑĤÐ°ÑĢÐ°Ð»Ð°ÑģÑĮ": 7680,
      "ĠÐ½Ð°Ð·ÑĭÐ²Ð°ÐµÐ¼": 7681,
      "ĠÐ¿ÑĢÐ¾ÑĪÑĥ": 7682,
      "ÑĥÐ»ÑģÑı": 7683,
      "ĠÑģÐ¾Ð¾Ð±ÑīÐµÐ½Ð¸Ðµ": 7684,
      "ĠÐ±Ð¾Ð¼Ð±": 7685,
      "ÑĳÑĤÐµ": 7686,
      "Ð½ÑıÑĤÑĮ": 7687,
      "ĠÐ·Ð°Ð¼ÑĥÐ¶": 7688,
      "ĠÑĤÐ²ÑĳÑĢ": 7689,
      "ĠÐĴÑĭÑģ": 7690,
      "ĠÑĤÐ¾ÑĩÐºÑĥ": 7691,
      "ĠÐ´Ð¾ÑĢÐ¾Ð¶": 7692,
      "ÑĢÐ¾ÑģÑĤÐ¾": 7693,
      "ĠÑĥÑģÐ»ÑĭÑĪÐ°Ð»Ð°": 7694,
      "ĠÐŁÐ¾Ð½Ð¸Ð¼": 7695,
      "Ð½Ð°ÑĢ": 7696,
      "Ð»Ð¸Ð³": 7697,
      "Ð½Ð¸ÑģÑĮ": 7698,
      "ĠÑģÑĤÑĢÐ°Ð½Ð¸": 7699,
      "ĠÐ¼Ð½Ð¾Ð³Ð¾ÑĩÐ¸Ñģ": 7700,
      "ĠÑĢÐ°Ð·Ð¼Ð°Ñħ": 7701,
      "ĠÐ¿ÐµÑĢÐµÐ³Ð¾Ð²Ð¾ÑĢ": 7702,
      "ĠÑģÐµÐ²ÐµÑĢ": 7703,
      "ĠÐºÐ¸": 7704,
      "ĠÐŁÑĢÐ¸Ð½": 7705,
      "ĠÐºÐ¾Ð½ÑĩÑĥ": 7706,
      "ĠÑģÐ»ÐµÐ´ÑĥÑİÑīÐµÐµ": 7707,
      "ĠÐ¿ÑĢÐ¸Ð¼ÐµÐ½Ñı": 7708,
      "ĠÐ»ÐµÑģÑĥ": 7709,
      "ĠÐ½Ð°Ð´ÐµÑİÑģÑĮ": 7710,
      "ĠÑģÐµÑĤ": 7711,
      "Ð¾ÑĤÐ¾Ð²": 7712,
      "ĠÐ»Ð¸Ð´": 7713,
      "ĠÐľÐ°ÑĤ": 7714,
      "Ð¸Ð´Ñĭ": 7715,
      "ĠÐ·Ð°Ð¼ÐµÐ´": 7716,
      "ĠÐĶÐ¶Ð¾ÑĢ": 7717,
      "ĠÑĥÐ³Ð»Ñĥ": 7718,
      "ĠÐ¸Ð·Ð¼ÐµÐ½ÐµÐ½Ð¸Ñı": 7719,
      "ĠÑĢÐµÐ¶Ð¸Ð¼": 7720,
      "ÑĩÐºÐ¸": 7721,
      "ĠÑĢÐ°Ð¼": 7722,
      "Ð°Ð²Ð°Ð»Ð°": 7723,
      "ĠÐ¾Ð±Ð´": 7724,
      "ĠÐ¿Ð¾ÑĢÐ½Ð¾": 7725,
      "ĠÐ±ÑĭÐ²Ð°Ð»Ð¾": 7726,
      "ĠÐ¿ÐµÑĢÐµÑģÑĤÐ°Ð»": 7727,
      "ĠÐºÐ°Ð¿Ð¸ÑĤÐ°Ð½": 7728,
      "ĠÐĴÐµÑĩÐµÑĢÐ¾Ð¼": 7729,
      "ĠÐ²Ð¸Ð½": 7730,
      "Ð¼Ð¾Ð»": 7731,
      "ĠÐ¾ÑĤÑĨÑĥ": 7732,
      "ĠÐ¸Ð½Ð¾Ð¿Ð»Ð°Ð½ÐµÑĤ": 7733,
      "Ð°Ð½Ð¸ÑıÐ¼Ð¸": 7734,
      "ĠÐ¤Ð¸Ð»Ð¸": 7735,
      "ĠÐ¼ÐµÑģÑĤÐ°Ñħ": 7736,
      "ĠÐ³ÑĢÑĥÐ¿Ð¿Ð°": 7737,
[...]
